#version: 0.2
す る</w>
か ら</w>
こ と</w>
な ど</w>
そ の</w>
ら れ</w>
日 本</w>
時 代</w>
も の</w>
こ の</w>
天 皇</w>
た め</w>
京 都</w>
1 9
ま た</w>
よ う</w>
こ れ</w>
1 8
明 治</w>
ま で</w>
1 0</w>
江 戸</w>
か っ</w>
し か
藤 原</w>
しか し</w>
現 在</w>
1 2</w>
1 1</w>
幕 府</w>
元 年</w>
1 5
よ り</w>
そ れ</w>
0 0</w>
旧 暦</w>
1 6
と も</w>
神 社</w>
文 化</w>
受 け</w>
場 合</w>
昭 和</w>
2 0
親 王</w>
将 軍</w>
鎌 倉</w>
で き</w>
考 え</w>
当 時</w>
1 7
用 い</w>
奈 良</w>
大 臣</w>
平 安</w>
徳 川</w>
源 氏</w>
1 5</w>
大 学</w>
存 在</w>
か け</w>
20 0
2 0</w>
鉄 道</w>
中 国</w>
東 京</w>
1 3
な お</w>
1 3</w>
関 係</w>
学 校</w>
だ っ</w>
1 4</w>
一 般</w>
物 語</w>
た り</w>
1 2
中 心</w>
以 降</w>
こ ろ</w>
ま れ</w>
の み</w>
足 利</w>
地 方</w>
お け</w>
と き</w>
大 阪</w>
1 4
さ ら
ょ う</w>
1 0
多 く</w>
使 用</w>
さら に</w>
研 究</w>
戦 い</w>
入 れ</w>
世 紀</w>
1 8</w>
1 7</w>
1 6</w>
な が
皇 子</w>
信 長</w>
生 まれ</w>
納 言</w>
なが ら</w>
大 名</w>
1 9</w>
特 に</w>
秀 吉</w>
与 え</w>
重 要</w>
歴 史</w>
室 町</w>
2 1</w>
意 味</w>
衛 門</w>
し ま</w>
事 件</w>
だ け</w>
18 6
取 り
た ち</w>
政 治</w>
朝 廷</w>
伝 え</w>
一 部</w>
と ころ</w>
3 0</w>
以 下</w>
政 府</w>
同 年</w>
付 け</w>
守 護</w>
武 士</w>
地 域</w>
織 田</w>
バ ス</w>
た だ
18 7
2 5</w>
人 物</w>
も と</w>
し て</w>
一 方</w>
朝 鮮</w>
2 3</w>
2 8</w>
2 4</w>
死 去</w>
以 後</w>
ただ し</w>
う ち</w>
設 置</w>
家 康</w>
仏 教</w>
2 2</w>
近 衛</w>
支 配</w>
こ う</w>
影 響</w>
成 立</w>
の ち</w>
北 条</w>
あ た</w>
以 上</w>
同 じ</w>
19 9
初 期</w>
寺 院</w>
そ して</w>
ま り</w>
勢 力</w>
頼 朝</w>
豊 臣</w>
お よ
時 期</w>
利 用</w>
2 7</w>
可 能</w>
つ け</w>
起 こ</w>
及 び</w>
2 6</w>
18 8
ほ ど</w>
大 正</w>
引 き
伊 勢</w>
ほ か</w>
列 車</w>
ま ま</w>
制 度</w>
は じ
大 き</w>
養 子</w>
戦 争</w>
世 界</w>
天 正</w>
2 9</w>
慶 長</w>
料 理</w>
必 要</w>
18 9
作 品</w>
以 外</w>
上 げ</w>
京 阪</w>
戦 国</w>
登 場</w>
後 期</w>
19 4
細 川</w>
近 江</w>
立 て</w>
伏 見</w>
家 臣</w>
ー ム</w>
部 分</w>
大 和</w>
指 定</w>
年 間</w>
ー ル</w>
い は</w>
およ び</w>
律 令</w>
仕 え</w>
19 8
古 墳</w>
わ せ</w>
め て</w>
代 表</w>
麻 呂</w>
太 子</w>
藩 主</w>
記 録</w>
以 前</w>
醍 醐</w>
ラ ン
貴 族</w>
不 明</w>
メ ー
5 0</w>
実 際</w>
映 画</w>
廃 止</w>
公 家</w>
そ こ</w>
ぞ れ</w>
そ れ
自 ら</w>
女 性</w>
即 位</w>
務 め</w>
それ ぞれ</w>
政 権</w>
少 な</w>
継 承</w>
中 央</w>
一 族</w>
記 述</w>
あ る
ある いは</w>
同 様</w>
翌 年</w>
兵 衛</w>
始 め</w>
全 国</w>
中 期</w>
三 条</w>
浄 土</w>
平 成</w>
異 な</w>
に て</w>
各 地</w>
問 題</w>
参 照</w>
白 河</w>
社 会</w>
結 果</w>
就 任</w>
こ こ</w>
はじ め</w>
位 置</w>
ょ う
太 郎</w>
加 え</w>
武 田</w>
関 東</w>
認 め</w>
出 身</w>
19 0
19 7
公 卿</w>
定 め</w>
子 孫</w>
活 動</w>
有 力</w>
出 家</w>
教 育</w>
系 統</w>
九 州</w>
タ ー</w>
開 始</w>
二 条</w>
当 初</w>
奉 行</w>
対 立</w>
長 男</w>
末 期</w>
舞 鶴</w>
武 家</w>
当 主</w>
荘 園</w>
書 紀</w>
国 家</w>
信 仰</w>
大 き
ー ト</w>
か つ
菩 薩</w>
3 1</w>
初 代</w>
由 来</w>
大き な</w>
理 由</w>
19 6
有 名</w>
ッ ト</w>
海 道</w>
ほ と
平 家</w>
建 築</w>
平 氏</w>
一 人</w>
ー ス</w>
本 願</w>
合 わせ</w>
美 術</w>
河 内</w>
本 来</w>
宇 治</w>
伝 わ</w>
ん ど</w>
北 朝</w>
シ ョ
J R</w>
通 り</w>
参 加</w>
ト ル</w>
御 所</w>
観 音</w>
主 に</w>
和 歌</w>
イ ン
皇 后</w>
活 躍</w>
不 詳</w>
歌 舞
0 00</w>
そ う</w>
最 初</w>
兄 弟</w>
ほと んど</w>
帝 国</w>
4 0</w>
歌舞 伎</w>
上 杉</w>
名 乗</w>
文 書</w>
食 べ</w>
八 幡</w>
自 分</w>
わ り</w>
大 坂</w>
内 容</w>
求 め</w>
都 市</w>
関 白</w>
合 戦</w>
太 政</w>
ゅ う</w>
名 称</w>
ひ と</w>
天 文</w>
言 葉</w>
神 道</w>
如 来</w>
自 身</w>
19 5
現 代</w>
近 代</w>
ず れ</w>
上 皇</w>
開 業</w>
家 督</w>
かつ て</w>
技 術</w>
左 衛門</w>
死 後</w>
皇 族</w>
目 的</w>
地 下</w>
完 成</w>
周 辺</w>
迎 え</w>
挙 げ</w>
事 業</w>
交 通</w>
設 立</w>
武 将</w>
始 ま</w>
三 郎</w>
続 け</w>
古 代</w>
参 議</w>
ス ト</w>
場 所</w>
建 立</w>
発 展</w>
事 実</w>
時 間</w>
年 代</w>
経 済</w>
じ ょう</w>
神 宮</w>
運 転</w>
機 関</w>
か り</w>
資 料</w>
本 線</w>
向 か</w>
ー ド</w>
率 い</w>
更 に</w>
右 衛門</w>
丹 波</w>
伝 統</w>
会 社</w>
ど う</w>
地 位</w>
よ く</w>
現 存</w>
形 式</w>
い ずれ</w>
建 設</w>
1 18
鳥 羽</w>
次 男</w>
3 3</w>
派 遣</w>
15 8
運 動</w>
最 後</w>
監 督</w>
発 生</w>
通 称</w>
路 線</w>
方 面</w>
官 位</w>
五 位</w>
メー トル</w>
生 活</w>
国 宝</w>
日 記</w>
中 世</w>
規 模</w>
弟 子</w>
評 価</w>
思 想</w>
法 華</w>
正 室</w>
最 も</w>
当 た</w>
い え</w>
土 地</w>
流 れ</w>
本 尊</w>
再 び</w>
い わ
体 制</w>
6 0</w>
薩 摩</w>
山 城</w>
人 々</w>
計 画</w>
特 徴</w>
家 人</w>
寛 永</w>
基 本</w>
享 年</w>
3 5</w>
国 立</w>
3 2</w>
調 査</w>
次 郎</w>
大 津</w>
程 度</w>
天 保</w>
施 設</w>
大 夫</w>
ホ ーム</w>
文 学</w>
領 主</w>
弥 陀</w>
相 当</w>
現 れ</w>
次 第</w>
ア メ
ゆ る</w>
受 け
真 言</w>
3 6</w>
戦 後</w>
従 五位</w>
和 歌
延 暦</w>
天 台</w>
正 月</w>
松 平</w>
内 閣</w>
発 行</w>
中 村</w>
様 々</w>
状 態</w>
出 来</w>
1 00</w>
名 前</w>
15 9
後 白河</w>
軍 事</w>
前 期</w>
美 濃</w>
大 将</w>
史 料</w>
伝 承</w>
主 張</w>
対 象</w>
所 領</w>
反 対</w>
建 て</w>
ほ ぼ</w>
設 け</w>
多 数</w>
阿 弥陀</w>
表 現</w>
表 記</w>
維 新</w>
小 路</w>
近 年</w>
ら か</w>
陸 軍</w>
な り</w>
五 郎</w>
一 条</w>
分 け</w>
政 策</w>
基 づ</w>
ご と</w>
高 等</w>
任 命</w>
な ら</w>
普 通</w>
以 来</w>
元 禄</w>
な か</w>
編 纂</w>
ショ ン</w>
3 8</w>
見 え</w>
清 盛</w>
保 存</w>
同 時</w>
関 西</w>
決 定</w>
構 成</w>
南 北朝</w>
身 分</w>
文 字</w>
外 国</w>
国 司</w>
義 経</w>
し か</w>
嵯 峨</w>
尾 張</w>
没 年</w>
誕 生</w>
幕 末</w>
銀 行</w>
武 蔵</w>
15 7
管 理</w>
道 路</w>
宗 教</w>
博 物</w>
元 号</w>
慶 応</w>
古 事</w>
イ ン</w>
た ら</w>
状 況</w>
ッ ク</w>
コ ン
新 た</w>
自 由</w>
セ ン
東 山</w>
わ か</w>
じ く</w>
開 発</w>
3 4</w>
天 武</w>
通 常</w>
独 立</w>
儀 式</w>
行 事</w>
方 法</w>
と め</w>
尊 氏</w>
変 化</w>
電 気</w>
陰 陽</w>
直 接</w>
権 力</w>
整 備</w>
木 造</w>
建 物</w>
わ た</w>
3 7</w>
リ カ</w>
違 い</w>
同 じく</w>
皇 女</w>
攻 撃</w>
国 際</w>
滋 賀</w>
条 約</w>
自 然</w>
付 近</w>
述 べ</w>
組 織</w>
独 自</w>
舞 台</w>
陸 奥</w>
改 革</w>
街 道</w>
し ば
わ け</w>
呼 称</w>
く な</w>
歌 人</w>
丹 後</w>
確 立</w>
集 め</w>
主 義</w>
新 聞</w>
王 朝</w>
東 西</w>
観 光</w>
え ば</w>
日 蓮</w>
屋 敷</w>
飛 鳥</w>
運 行</w>
18 5
近 畿</w>
高 野</w>
記 念</w>
リ ー</w>
経 由</w>
販 売</w>
諸 国</w>
九 条</w>
島 津</w>
上 野</w>
た だ</w>
非 常</w>
編 成</w>
皇 太子</w>
進 め</w>
宗 家</w>
いわ ゆる</w>
入 り</w>
古 く</w>
つ つ</w>
西 郷</w>
改 め</w>
正 式</w>
寺 社</w>
吉 田</w>
近 世</w>
大 社</w>
立 場</w>
大 内</w>
初 めて</w>
源 義</w>
生 産</w>
改 正</w>
天 下</w>
温 泉</w>
お お
今 日</w>
三 十</w>
制 定</w>
御 門</w>
や す</w>
形 成</w>
全 て</w>
人 間</w>
中 将</w>
行 な</w>
南 朝</w>
く る</w>
持 ち
規 定</w>
一 時</w>
k m</w>
行 政</w>
皇 位</w>
意 見</w>
天 平</w>
記 載</w>
桃 山</w>
創 建</w>
京 極</w>
さ ん</w>
電 車</w>
地 区</w>
蔵 人</w>
吉 野</w>
僧 侶</w>
す な
が て</w>
アメ リカ</w>
音 楽</w>
公 園</w>
結 婚</w>
真 宗</w>
賀 茂</w>
区 間</w>
や がて</w>
あ まり</w>
自 動</w>
毛 利</w>
叡 山</w>
海 軍</w>
4 3</w>
3 9</w>
兼 任</w>
す べ
起 源</w>
出 雲</w>
博 士</w>
上 洛</w>
中 宮</w>
延 喜</w>
も っ
兵 庫</w>
け れ</w>
皇 室</w>
批 判</w>
4 2</w>
越 前</w>
し く
一 種</w>
之 助</w>
征 夷</w>
比 較</w>
あ ら
攻 め</w>
長 崎</w>
わ ち</w>
摂 津</w>
二 十</w>
長 州</w>
保 護</w>
構 造</w>
文 明</w>
乗 り
一 揆</w>
すな わち</w>
上 記</w>
すべ て</w>
流 派</w>
石 川</w>
改 称</w>
嫡 男</w>
禁 止</w>
神 戸</w>
息 子</w>
後 世</w>
享 保</w>
営 業</w>
昇 叙</w>
幹 線</w>
相 続</w>
永 禄</w>
の み
土 佐</w>
経 営</w>
伝 説</w>
しく は</w>
前 後</w>
最 高</w>
変 更</w>
ら く</w>
特 別</w>
久 保</w>
採 用</w>
背 景</w>
種 類</w>
期 間</w>
帰 国</w>
別 当</w>
専 門</w>
大 寺</w>
キ リ
大 路</w>
再 建</w>
発 見</w>
担 当</w>
後 継</w>
安 土</w>
近 鉄</w>
安 置</w>
ラ イ
金 剛</w>
詳 細</w>
含 め</w>
半 島</w>
確 認</w>
特 急</w>
十 郎</w>
4 1</w>
な し</w>
導 入</w>
づ け</w>
光 秀</w>
熊 野</w>
一 門</w>
暗 殺</w>
旗 本</w>
お り</w>
生 没年</w>
作 成</w>
同 志</w>
祖 父</w>
7 0</w>
分 類</w>
挙 兵</w>
念 仏</w>
宮 中</w>
境 内</w>
釈 迦</w>
200 6</w>
指 摘</w>
憲 法</w>
琵 琶</w>
離 れ</w>
製 造</w>
製 作</w>
タ ー
か れ</w>
滅 亡</w>
教 え</w>
ス ト
し ょう</w>
区 別</w>
貿 易</w>
200 7</w>
蘇 我</w>
芸 術</w>
庭 園</w>
内 部</w>
法 皇</w>
管 領</w>
百 済</w>
図 書</w>
阿 弥</w>
ま だ</w>
所 在</w>
道 長</w>
三 男</w>
国 道</w>
か か</w>
財 政</w>
四 条</w>
修 行</w>
16 0
本 堂</w>
4 5</w>
事 務</w>
タ ン
掛 け</w>
三 好</w>
も しくは</w>
伊 藤</w>
あ る</w>
田 辺</w>
官 人</w>
上 京</w>
リ ア</w>
成 功</w>
役 割</w>
単 位</w>
児 島</w>
指 揮</w>
式 部</w>
c m</w>
協 会</w>
開 催</w>
果 た</w>
台 湾</w>
焼 き</w>
プ ロ
ま ず</w>
拡 大</w>
い に</w>
6 2</w>
昇 進</w>
普 及</w>
三 河</w>
議 員</w>
代 々</w>
4 4</w>
新 し</w>
ヶ 原</w>
再 興</w>
立 像</w>
快 速</w>
徒 歩</w>
唱 え</w>
優 れ</w>
向 け</w>
全 体</w>
甲 斐</w>
大 久保</w>
解 釈</w>
播 磨</w>
山 科</w>
実 施</w>
代 わ</w>
西 洋</w>
東 海道</w>
8 0</w>
国 民</w>
発 表</w>
明 らか</w>
フ ラン
旅 客</w>
崩 御</w>
子 供</w>
シ ア</w>
信 濃</w>
ア ジ
4 8</w>
統 治</w>
安 政</w>
太 平</w>
施 行</w>
形 態</w>
文 政</w>
撮 影</w>
推 定</w>
伊 達</w>
任 官</w>
豪 族</w>
摂 関</w>
急 行</w>
北 海道</w>
ス テ
6 7</w>
東 大</w>
後 半</w>
山 口</w>
も と
摂 政</w>
遺 跡</w>
見 せ</w>
自 体</w>
し ょ</w>
変 わ</w>
言 え</w>
密 教</w>
冷 泉</w>
停 車</w>
ロ ッ
治 承</w>
様 式</w>
宣 下</w>
大 蔵</w>
4 9</w>
指 導</w>
山 田</w>
6 8</w>
途 中</w>
官 職</w>
吉 良</w>
工 事</w>
な が</w>
関 連</w>
打 ち
完 全</w>
二 人</w>
従 来</w>
必 ず</w>
ほ う</w>
古 今</w>
盛 ん</w>
烏 丸</w>
既 に</w>
統 一</w>
宮 内</w>
6 1</w>
終 わ</w>
神 話</w>
4 6</w>
合 併</w>
ジ ャ
院 政</w>
関 わ</w>
左 京</w>
追 い
記 事</w>
本 山</w>
小 説</w>
新 選</w>
会 津</w>
訪 れ</w>
敗 れ</w>
古 屋</w>
国 内</w>
造 営</w>
越 後</w>
興 福</w>
生 年</w>
し ば</w>
歴 任</w>
応 永</w>
対 応</w>
交 渉</w>
7 2</w>
文 久</w>
教 授</w>
ら え</w>
連 合</w>
切 り
井 上</w>
近 く</w>
広 島</w>
リ ス</w>
出 版</w>
ご ろ</w>
行 動</w>
アジ ア</w>
か ん</w>
維 持</w>
分 かれ</w>
ー ン</w>
殺 害</w>
道 具</w>
学 生</w>
初 め</w>
あ げ</w>
1 15
醤 油</w>
観 世</w>
蝦 夷</w>
庶 民</w>
隠 居</w>
追 放</w>
福 岡</w>
清 水</w>
少 将</w>
5 1</w>
地 蔵</w>
侍 従</w>
逃 れ</w>
供 養</w>
文 章</w>
性 格</w>
ち ら</w>
功 績</w>
6 5</w>
過 ぎ</w>
行 為</w>
六 角</w>
鹿 児島</w>
関 ヶ原</w>
福 知
福知 山</w>
ヤ マ
4 7</w>
千 葉</w>
動 き</w>
作 者</w>
会 議</w>
今 川</w>
す ぐ</w>
6 3</w>
ン グ</w>
こ の
ッ プ</w>
毎 年</w>
岩 倉</w>
名 古屋</w>
相 手</w>
命 令</w>
5 2</w>
寛 文</w>
最 大</w>
落 ち</w>
茶 道</w>
新 田</w>
人 気</w>
こ う
義 満</w>
地 名</w>
和歌 集</w>
主 な</w>
平 城</w>
右 京</w>
左 右</w>
山 崎</w>
団 体</w>
り 返</w>
池 田</w>
討 伐</w>
ン ト</w>
流 行</w>
所 有</w>
5 8</w>
追 討</w>
傾 向</w>
拠 点</w>
し ろ</w>
概 要</w>
加 わ</w>
5 4</w>
戦 死</w>
大 師</w>
使 者</w>
つ まり</w>
しば しば</w>
か わ</w>
造 り</w>
祭 り</w>
原 因</w>
出 土</w>
セン ター</w>
畿 内</w>
186 8</w>
1 17
車 両</w>
家 老</w>
代 わり</w>
阪 急</w>
最 終</w>
生 涯</w>
例 えば</w>
開 設</w>
地 頭</w>
ー ク</w>
つ く</w>
国 守</w>
移 転</w>
提 出</w>
大 伴</w>
水 戸</w>
6 4</w>
200 5</w>
義 仲</w>
写 本</w>
上 が</w>
で に</w>
農 民</w>
登 録</w>
晩 年</w>
学 問</w>
市 川</w>
商 人</w>
5 5</w>
1 16
本 拠</w>
す でに</w>
複 数</w>
畠 山</w>
焼 失</w>
加 賀</w>
す れ</w>
か つ</w>
臨 時</w>
男 子</w>
もっ とも</w>
刊 行</w>
役 者</w>
岡 山</w>
6 9</w>
公 開</w>
サ ン
し ん
タ イ
男 性</w>
建 武</w>
元 和</w>
や か</w>
合 い</w>
師 範</w>
キ ャ
ど ん</w>
結 成</w>
祭 神</w>
文 献</w>
薨 去</w>
日 野</w>
情 報</w>
女 子</w>
信 玄</w>
ら い</w>
伊 賀</w>
電 鉄</w>
衰 退</w>
春 日</w>
別 名</w>
南 部</w>
ア ル
な み</w>
直 後</w>
常 陸</w>
菓 子</w>
村 上</w>
不 動</w>
文 禄</w>
吾 妻</w>
宮 津</w>
和 泉</w>
一 定</w>
系 図</w>
祇 園</w>
熊 本</w>
墓 所</w>
新 羅</w>
大 江</w>
城 主</w>
同 盟</w>
20 00</w>
貞 観</w>
激 し</w>
個 人</w>
ラ ス</w>
狂 言</w>
応 仁</w>
比 叡山</w>
揚 げ</w>
保 元</w>
伊 予</w>
否 定</w>
制 作</w>
師 事</w>
元 服</w>
集 団</w>
幼 名</w>
ー ズ</w>
200 8</w>
門 院</w>
彼 女</w>
争 い</w>
東 国</w>
東 北</w>
外 交</w>
ギ リス</w>
さ ま
様 子</w>
知 行</w>
寛 政</w>
天 智</w>
ず か</w>
討 ち
条 件</w>
切 り</w>
分 離</w>
価 値</w>
テ レ
イ ギリス</w>
同 一</w>
伝 来</w>
紹 介</w>
着 用</w>
唯 一</w>
だ い
紀 伊</w>
許 可</w>
設 定</w>
流 通</w>
止 め</w>
デ ィ
復 活</w>
あ り</w>
百 姓</w>
復 興</w>
し い</w>
ダ イ
正 二</w>
機 能</w>
工 業</w>
寿 司</w>
天 守</w>
か なり</w>
編 入</w>
展 開</w>
イン ド</w>
ざ ま</w>
裁 判</w>
お こ
5 3</w>
老 中</w>
所 蔵</w>
万 葉</w>
ド ラ
5 7</w>
高 倉</w>
菅 原</w>
太 夫</w>
国 衙</w>
主 要</w>
ん じ
要 求</w>
全 く</w>
重 ね</w>
ま つ
特 定</w>
最 古</w>
わ ら</w>
た が</w>
6 6</w>
1 19
卒 業</w>
長 者</w>
空 海</w>
比 べ</w>
方 向</w>
歴 代</w>
楽 器</w>
明 智</w>
大 友</w>
呼 び
協 力</w>
起 き</w>
貨 幣</w>
5 6</w>
永 正</w>
宗 派</w>
大 戦</w>
フラン ス</w>
屋 根</w>
大 谷</w>
主 人</w>
7 5</w>
0 1</w>
自 治</w>
積 極</w>
ロ シア</w>
5 00</w>
科 学</w>
住 宅</w>
亀 山</w>
天 王</w>
チ ャ
わ ずか</w>
9 0</w>
太 后</w>
没 後</w>
斯 波</w>
奥 州</w>
四 郎</w>
交 流</w>
世 襲</w>
2 00</w>
薬 師</w>
支 持</w>
家 系</w>
三 重</w>
領 地</w>
宇 多</w>
報 告</w>
創 設</w>
ど の</w>
し め</w>
5 9</w>
法 人</w>
曼 荼
ク リ
キリ スト</w>
西 園</w>
民 間</w>
曼荼 羅</w>
亡 くな</w>
建 造</w>
坐 像</w>
一 説</w>
騒 動</w>
国 鉄</w>
北 部</w>
備 え</w>
さま ざま</w>
運 営</w>
説 明</w>
落 語</w>
笠 原</w>
目 指</w>
ー プ</w>
辞 任</w>
落 と</w>
方 針</w>
推 測</w>
安 倍</w>
伊 豆</w>
駿 河</w>
韓 国</w>
替 え</w>
大 神</w>
の う</w>
復 帰</w>
発 達</w>
扱 い</w>
安 定</w>
三 浦</w>
山 名</w>
側 近</w>
事 情</w>
立 ち
妖 怪</w>
も ん</w>
し ん</w>
田 原</w>
焼 き
浅 野</w>
権 威</w>
南 北</w>
処 分</w>
稲 荷</w>
両 者</w>
清 和</w>
朝 倉</w>
年 度</w>
下 野</w>
上 方</w>
配 置</w>
絵 画</w>
広 ま</w>
占 め</w>
諸 説</w>
若 狭</w>
混 乱</w>
前 田</w>
位 階</w>
周 囲</w>
書 院</w>
い ん</w>
3 00</w>
福 島</w>
単 に</w>
降 伏</w>
海 外</w>
長 官</w>
元 々</w>
人 口</w>
原 則</w>
警 察</w>
自 害</w>
組 み
異 母</w>
数 え</w>
放 送</w>
勝 利</w>
し も</w>
前 方</w>
テレ ビ</w>
授 け</w>
この 頃</w>
8 4</w>
鞍 馬</w>
い く</w>
増 え</w>
和 田</w>
逸 話</w>
祭 祀</w>
小 笠原</w>
叔 父</w>
や ま</w>
さ え</w>
華 族</w>
将 門</w>
ュ ー</w>
ふ じ
か ん
1 20
皇 太后</w>
壬 申</w>
侵 攻</w>
もと もと</w>
増 加</w>
演 奏</w>
支 え</w>
公 方</w>
く り</w>
太 鼓</w>
フ ィ
近 藤</w>
箇 所</w>
宝 暦</w>
謀 反</w>
形 状</w>
信 頼</w>
ヨ ー
根 拠</w>
東 寺</w>
大 宮</w>
大 宝</w>
称 号</w>
法 律</w>
法 名</w>
戦 闘</w>
意 識</w>
五 十</w>
こ そ</w>
静 岡</w>
聖 徳</w>
総 称</w>
大 量</w>
内 裏</w>
仮 名</w>
人 形</w>
高 速</w>
寿 永</w>
著 名</w>
本 能</w>
改 札</w>
文 庫</w>
同 母</w>
フ ァ
蕎 麦</w>
総 合</w>
承 久</w>
う どん</w>
前 述</w>
出 羽</w>
ま とめ</w>
7 4</w>
実 質</w>
地 元</w>
左 近衛</w>
存 続</w>
ク ション</w>
黒 田</w>
詳 し</w>
田 中</w>
切 腹</w>
五 条</w>
転 任</w>
書 き
ュ ー
ドラ マ</w>
そ ば</w>
正 平</w>
本 格</w>
所 属</w>
用 語</w>
氏 族</w>
8 1</w>
理 解</w>
延 長</w>
利 休</w>
7 1</w>
譲 位</w>
執 権</w>
義 昭</w>
さ せ</w>
結 び
小 野</w>
寄 せ</w>
和歌 山</w>
鋳 造</w>
決 め</w>
段 階</w>
具 体</w>
き り</w>
長 野</w>
浅 井</w>
岐 阜</w>
失 敗</w>
8 5</w>
弘 仁</w>
嵐 山</w>
天 明</w>
政 務</w>
ち なみ</w>
あ たり</w>
仏 像</w>
タ ン</w>
も う</w>
7 7</w>
重 臣</w>
経 典</w>
恐 れ</w>
征 伐</w>
官 僚</w>
基 礎</w>
も たら</w>
き ょう
一 切</w>
避 け</w>
明 王</w>
古 来</w>
テ ィ
ば かり</w>
186 9</w>
産 業</w>
攘 夷</w>
寄 進</w>
実 現</w>
菩 提</w>
能 楽</w>
効 果</w>
三 成</w>
レ ー</w>
チ ェ
要 素</w>
王 寺</w>
古 典</w>
医 学</w>
納 め</w>
発 掘</w>
留 学</w>
文 治</w>
愛 宕</w>
作 業</w>
女 王</w>
187 1</w>
縁 起</w>
兼 ね</w>
補 任</w>
皇 帝</w>
構 え</w>
支 援</w>
国 造</w>
嘉 永</w>
重 視</w>
独 特</w>
概 念</w>
東 宮</w>
予 定</w>
主 流</w>
ロッ パ</w>
し 出</w>
委 員</w>
交 差</w>
ヨー ロッパ</w>
シ テ</w>
た と
た び</w>
ず る</w>
8 6</w>
北 陸</w>
ぶ り</w>
系 譜</w>
権 限</w>
建 久</w>
福 井</w>
乗 車</w>
桓 武</w>
史 跡</w>
秋 田</w>
津 川</w>
カ ー</w>
と り
行 き</w>
本 文</w>
女 御</w>
分 か</w>
住 職</w>
仲 麻呂</w>
下 車</w>
芸 能</w>
取り 入れ</w>
厳 し</w>
と う
討 ち</w>
滅 ぼ</w>
基 盤</w>
右 近衛</w>
対 抗</w>
勤 め</w>
おこ な</w>
200 4</w>
軍 勢</w>
秀 忠</w>
慶 喜</w>
反 乱</w>
下 向</w>
定 着</w>
ざ る</w>
い っ
相 撲</w>
朝 臣</w>
捨 て</w>
書 道</w>
技 法</w>
基 準</w>
坂 本</w>
国 人</w>
回 復</w>
あ と</w>
8 8</w>
経 緯</w>
上 人</w>
8 2</w>
越 え</w>
統 合</w>
み な</w>
ま い</w>
う え</w>
金 堂</w>
象 徴</w>
平 定</w>
め ぐ</w>
0 8</w>
装 束</w>
9 1</w>
山 陰</w>
小 倉</w>
到 着</w>
0 7</w>
浪 士</w>
斎 藤</w>
変 え</w>
シ ャ
開 山</w>
総 督</w>
河 原
愛 知</w>
工 芸</w>
表 示</w>
民 俗</w>
く に</w>
々 木</w>
生 母</w>
事 態</w>
ド イ
た い
認 識</w>
漬 け</w>
北 家</w>
わ れ</w>
要 請</w>
範 囲</w>
共 同</w>
進 出</w>
親 鸞</w>
困 難</w>
8 7</w>
佐 々木</w>
役 職</w>
展 示</w>
嫡 流</w>
7 3</w>
死 亡</w>
平 治</w>
土 御門</w>
仙 台</w>
8 3</w>
7 8</w>
難 波</w>
創 作</w>
す ぎ</w>
距 離</w>
河 原</w>
武 器</w>
赤 穂</w>
赤 松</w>
讃 岐</w>
親 し</w>
茶 屋</w>
富 士</w>
代 官</w>
ロ ー
オ ー
9 4</w>
隆 盛</w>
責 任</w>
議 会</w>
説 話</w>
成 長</w>
山 本</w>
共 通</w>
正 面</w>
幼 少</w>
側 室</w>
見 解</w>
移 動</w>
環 境</w>
断 絶</w>
コ ー
石 山</w>
尽 力</w>
嫡 子</w>
ち ょう</w>
美 し</w>
瑠 璃</w>
献 上</w>
改 名</w>
出 川</w>
六 条</w>
今 出川</w>
主 導</w>
知 事</w>
大 石</w>
ドイ ツ</w>
は ず</w>
食 品</w>
農 業</w>
調 理</w>
結 局</w>
直 通</w>
王 子</w>
政 変</w>
換 え</w>
せ ん</w>
郵 便</w>
道 真</w>
山 内</w>
味 噌</w>
受 領</w>
し たが</w>
行 幸</w>
確 保</w>
現 地</w>
後 鳥羽</w>
好 み</w>
下 記</w>
ラ ッ
し ゅう</w>
阪 神</w>
関 与</w>
譜 代</w>
家 庭</w>
鳥 取</w>
鉄 砲</w>
淀 川</w>
木 津</w>
下 り</w>
下 げ</w>
輸 送</w>
絶 え</w>
水 野</w>
宰 府</w>
修 理</w>
よ し</w>
消 滅</w>
擁 立</w>
処 刑</w>
ヶ 月</w>
のみ こと</w>
ず つ</w>
民 衆</w>
明 確</w>
後 述</w>
僧 正</w>
ラ ー</w>
な る</w>
筆 頭</w>
出 仕</w>
往 生</w>
出 陣</w>
公 式</w>
義 政</w>
漢 字</w>
植 物</w>
商 品</w>
前 半</w>
停 止</w>
9 9</w>
株 式</w>
朱 雀</w>
屏 風</w>
女 房</w>
鎮 守</w>
精 神</w>
時 点</w>
失 脚</w>
大 仏</w>
分 家</w>
但 し</w>
7 9</w>
合 流</w>
上 総</w>
0 2</w>
表 面</w>
抵 抗</w>
天 満</w>
が り</w>
長 政</w>
従 五</w>
中 華</w>
ヤマ ト</w>
き っ
9 3</w>
神 祇</w>
王 権</w>
本 名</w>
宝 永</w>
官 軍</w>
大 字</w>
a n
醸 造</w>
出 兵</w>
雑 誌</w>
注 意</w>
伽 藍</w>
テ ル</w>
あ く
西 国</w>
禅 宗</w>
主 君</w>
9 7</w>
養 女</w>
相 模</w>
宇 都
亀 岡</w>
面 積</w>
著 書</w>
家 光</w>
実 子</w>
ひ め</w>
か た</w>
論 争</w>
紀 州</w>
生 き</w>
横 浜</w>
収 め</w>
備 前</w>
一 郎</w>
や ま
7 6</w>
非 違
非違 使</w>
童 子</w>
検 非違使</w>
巻 き
く ら</w>
か み</w>
宇都 宮</w>
加 藤</w>
前 身</w>
マ ン</w>
と も
9 8</w>
集 落</w>
込 み</w>
祈 願</w>
深 草</w>
法 令</w>
強 化</w>
居 住</w>
宿 禰</w>
大 輔</w>
四 男</w>
鳥 居</w>
西 軍</w>
病 気</w>
天 平
一 番</w>
0 6</w>
著 作</w>
欧 米</w>
文 部</w>
勧 修</w>
わ し</w>
つ か</w>
連 絡</w>
義 朝</w>
滞 在</w>
役 所</w>
つ いに</w>
装 飾</w>
材 料</w>
区 分</w>
分 割</w>
階 級</w>
言 い
葬 儀</w>
坂 上</w>
六 波
う け</w>
あ わせ</w>
9 5</w>
沖 縄</w>
正 三</w>
宣 旨</w>
四 国</w>
不 満</w>
り 出</w>
9 2</w>
政 宗</w>
家 紋</w>
や や</w>
け ん</w>
過 程</w>
辞 職</w>
臨 済</w>
神 事</w>
サ ー
200 3</w>
0 4</w>
補 佐</w>
無 形</w>
正 し</w>
平 等</w>
制 限</w>
鎮 圧</w>
貴 重</w>
試 験</w>
管 轄</w>
注 目</w>
整 理</w>
備 中</w>
側 面</w>
ナ ギ</w>
8 9</w>
解 説</w>
政 所</w>
上 演</w>
つ なが</w>
か かわ</w>
障 子</w>
父 子</w>
天 神</w>
写 真</w>
ン ジ</w>
メー ジ</w>
ネ ル</w>
つ とめ</w>
あく まで</w>
高 麗</w>
開 拓</w>
病 死</w>
法 然</w>
学 者</w>
仁 和</w>
と おり</w>
繰 り返</w>
直 義</w>
火 災</w>
最 近</w>
新 潟</w>
改 易</w>
平 野</w>
崩 壊</w>
安 芸</w>
夫 人</w>
だ い</w>
詰 め</w>
探 題</w>
原 料</w>
や く</w>
も ち
神 楽</w>
物 部</w>
検 校</w>
司 令</w>
光 明</w>
ラン ダ</w>
食 事</w>
浄 瑠璃</w>
再 度</w>
使 節</w>
ふじ わら</w>
い つ</w>
拒 否</w>
助 け</w>
1 14
解 体</w>
準 備</w>
捕 らえ</w>
各 種</w>
受 賞</w>
酒 造</w>
襲 撃</w>
町 名</w>
阿 波</w>
負 担</w>
神 武</w>
年 貢</w>
取 り</w>
判 断</w>
コ ース</w>
カ レー</w>
絵 巻</w>
知 識</w>
持 統</w>
国 会</w>
勅 撰</w>
た ま</w>
試 み</w>
広 が</w>
山 号</w>
天 狗</w>
ト ン
カ ード</w>
よ う
せ い</w>
狩 野</w>
市 場</w>
受け 継</w>
創 立</w>
処 理</w>
過 去</w>
渡 来</w>
明 石</w>
文 人</w>
後 見</w>
引き 継</w>
壬 生</w>
収 録</w>
道 場</w>
製 法</w>
在 位</w>
イ メージ</w>
酵 母</w>
英 語</w>
城 下</w>
体 系</w>
ひ と
部 隊</w>
特 殊</w>
推 古</w>
後 者</w>
場 面</w>
佐 賀</w>
遷 都</w>
御 前</w>
尼 子</w>
邸 宅</w>
漫 画</w>
減 少</w>
教 会</w>
掲 げ</w>
受け 入れ</w>
不 足</w>
下 総</w>
上 下</w>
グ ラ
オ ランダ</w>
法 師</w>
と ど
連 歌</w>
極 めて</w>
住 民</w>
獲 得</w>
河原 町</w>
攻 め
大 乗</w>
北 野</w>
出 現</w>
サ イ
逃 亡</w>
消 費</w>
対 馬</w>
土 岐</w>
養 老</w>
配 流</w>
年 齢</w>
向 き</w>
参 詣</w>
ら し</w>
読 み</w>
聖 武</w>
円 墳</w>
儒 教</w>
領 国</w>
訴 訟</w>
総 裁</w>
承 和</w>
実 権</w>
下 京</w>
は っ
著 色</w>
珍 し</w>
武 者</w>
書 物</w>
俳 優</w>
ん な</w>
法 隆</w>
少 し</w>
専 用</w>
家 格</w>
宮 城</w>
交 代</w>
一 色</w>
9 6</w>
豆 腐</w>
親 子</w>
花 園</w>
神 仏</w>
押 し
和 服</w>
三 味</w>
一 向</w>
ダイ ヤ</w>
統 制</w>
紀 元</w>
ラン ド</w>
ブ ル</w>
し ゅ</w>
0 9</w>
門 下</w>
認 定</w>
義 務</w>
新 設</w>
在 地</w>
む しろ</w>
ち ょう
く れ</w>
興 行</w>
引 用</w>
太 刀</w>
固 め</w>
兵 部</w>
イン ター
ど ちら</w>
締 結</w>
本 殿</w>
利 家</w>
被 害</w>
演 出</w>
権 守</w>
人 民</w>
10 00</w>
習 慣</w>
楠 木</w>
格 式</w>
姿 勢</w>
喜 多</w>
ジ ェ
コ ール</w>
運 用</w>
資 格</w>
石 田</w>
文 永</w>
御 陵</w>
始 まり</w>
グ ル
キ ノ</w>
野 村</w>
総 理</w>
直 前</w>
漢 詩</w>
次 々</w>
戊 辰</w>
家 元</w>
大 覚</w>
六波 羅</w>
パ ー
187 2</w>
加 増</w>
分 野</w>
ル ート</w>
バ ー</w>
タン ゴ</w>
い で</w>
鈴 木</w>
職 人</w>
砂 糖</w>
発 足</w>
疑 問</w>
渡 辺</w>
民 部</w>
民 族</w>
戦 前</w>
弘 安</w>
大 隈</w>
例 外</w>
ク ス</w>
風 土</w>
雅 楽</w>
門 跡</w>
長 慶</w>
長 岡</w>
輸 入</w>
貨 物</w>
神 奈
提 供</w>
少 年</w>
味 方</w>
包 囲</w>
一 覧</w>
一 致</w>
家 族</w>
参 考</w>
剣 術</w>
丁 目</w>
隊 士</w>
抱 え</w>
従 四</w>
役 人</w>
中 山</w>
と う</w>
諸 藩</w>
敗 北</w>
宝 字</w>
反 発</w>
博 多</w>
元 弘</w>
住 吉</w>
集 ま</w>
加 工</w>
井 伊</w>
I C
義 教</w>
築 城</w>
田 村</w>
最 澄</w>
後 藤</w>
大 いに</w>
収 入</w>
乗 せ</w>
テ ィ</w>
留 守</w>
生 地</w>
流 罪</w>
日 露</w>
危 機</w>
入 道</w>
開 通</w>
豊 後</w>
絹 本</w>
宮 家</w>
学 術</w>
大 徳</w>
吉 川</w>
努 め</w>
つ き</w>
0 5</w>
議 論</w>
病 院</w>
定 家</w>
な か
居 城</w>
尾 上</w>
姉 妹</w>
倭 国</w>
乗 り</w>
風 習</w>
設 計</w>
正 確</w>
権 利</w>
改 元</w>
徐 々</w>
当 て</w>
対 策</w>
奉 納</w>
競 技</w>
日 付</w>
入 内</w>
186 7</w>
通 過</w>
成 人</w>
商 業</w>
依 頼</w>
企 業</w>
の 子</w>
さ ん
正 統</w>
栽 培</w>
松 本</w>
本 家</w>
明 和</w>
シ ー</w>
0 3</w>
葛 城</w>
生 駒</w>
歌 合</w>
弁 当</w>
座 主</w>
ラ ン</w>
マ キノ</w>
a r
199 0</w>
遂 げ</w>
秀 頼</w>
大 型</w>
二 郎</w>
ゅ う
200 2</w>
186 3</w>
秀 次</w>
片 岡</w>
正 親
掌 握</w>
地 上</w>
初 頭</w>
入 学</w>
作 法</w>
仕 事</w>
り ゅう</w>
て ん
模 様</w>
小 田原</w>
士 族</w>
一 旦</w>
イ ス</w>
み 出</w>
項 目</w>
翻 訳</w>
浮 世</w>
極 楽</w>
弥 生</w>
公 使</w>
乾 燥</w>
ー ション</w>
ま ち</w>
ま し</w>
きっ かけ</w>
か く</w>
188 9</w>
法 要</w>
大 宰府</w>
ー ツ</w>
限 定</w>
着 物</w>
日 光</w>
実 朝</w>
勃 発</w>
か し</w>
綱 吉</w>
勧 め</w>
出 発</w>
内 務</w>
す ら</w>
し み</w>
鷹 司</w>
載 せ</w>
異 説</w>
琉 球</w>
日 間</w>
作 曲</w>
会 員</w>
ま つ</w>
高 ま</w>
番 号</w>
町 人</w>
悪 化</w>
主 体</w>
ナ ル</w>
デ ル</w>
も ら</w>
難 し</w>
解 散</w>
発 祥</w>
意 図</w>
利 益</w>
儒 学</w>
ホ テル</w>
たと えば</w>
16 00</w>
連 れ</w>
超 え</w>
襲 名</w>
福 知</w>
来 る</w>
合 衆</w>
出 自</w>
ケ ース</w>
は り</w>
重 文</w>
自 己</w>
能 力</w>
比 売</w>
武 力</w>
早 世</w>
推 進</w>
小 さ
安 永</w>
天 然</w>
大 衆</w>
執 筆</w>
公 事</w>
フ ォ
ま さ
し ゃ
199 7</w>
酒 屋</w>
菊 池</w>
神奈 川</w>
番 線</w>
松 尾</w>
攻 略</w>
小 松</w>
伝 授</w>
中 島</w>
鴨 川</w>
門 人</w>
相 互</w>
書 状</w>
日 常</w>
撤 退</w>
堀 川</w>
出 演</w>
せ い
げ ん</w>
訴 え</w>
灌 頂</w>
機 構</w>
専 攻</w>
大 陸</w>
トン ネル</w>
キ ー</w>
イ ザ
アル コール</w>
長 女</w>
山 形</w>
大 国</w>
大 半</w>
但 馬</w>
一 行</w>
つ れ</w>
選 挙</w>
竹 田</w>
発 売</w>
永 享</w>
敷 地</w>
急 速</w>
当 然</w>
嵯 峨
山 陽</w>
園 寺</w>
国 府</w>
動 物</w>
まつ り</w>
西 園寺</w>
多 田</w>
判 官</w>
っ て</w>
高 知</w>
遠 江</w>
謙 信</w>
獅 子</w>
占 領</w>
交 換</w>
で ん</w>
触 れ</w>
桜 井</w>
栄 え</w>
政 子</w>
十 分</w>
蘭 学</w>
延 宝</w>
固 定</w>
ー ジ</w>
む ら</w>
重 盛</w>
藩 士</w>
茶 碗</w>
書 き</w>
名 誉</w>
事 例</w>
に く</w>
せ ん
白 川</w>
嵯峨 野</w>
多 様</w>
仏 殿</w>
e r
東 軍</w>
期 待</w>
掲 載</w>
忠 実</w>
四 十</w>
参 拝</w>
勧 進</w>
兵 力</w>
ラ ー
ご く</w>
長 尾</w>
配 下</w>
評 定</w>
般 若</w>
留 ま</w>
橋 本</w>
棟 梁</w>
広 げ</w>
天 王寺</w>
名 家</w>
元 治</w>
元 来</w>
肥 後</w>
牧 野</w>
寵 愛</w>
同 士</w>
ほ う
お お</w>
頼 家</w>
集 中</w>
没 落</w>
機 会</w>
徴 収</w>
小 さ</w>
国 学</w>
品 種</w>
内 藤</w>
ア ン
ば ん</w>
し き</w>
187 0</w>
脱 出</w>
綾 部</w>
目 録</w>
源 義
斎 宮</w>
店 舗</w>
叙 爵</w>
シ ュ</w>
ち な</w>
決 ま</w>
改 良</w>
復 元</w>
兼 家</w>
付 き</w>
茶 室</w>
羽 柴</w>
経 験</w>
正 徳</w>
小さ な</w>
実 力</w>
叙 任</w>
千 代</w>
高 松</w>
購 入</w>
蓮 華</w>
明 応</w>
庶 流</w>
工 場</w>
保 持</w>
中 止</w>
下 級</w>
パ ス</w>
ど こ</w>
え ん</w>
186 4</w>
答 え</w>
末 裔</w>
化 粧</w>
作 家</w>
一 体</w>
部 屋</w>
職 務</w>
混 ぜ</w>
没 収</w>
ノ オ</w>
読 み
演 目</w>
松 井</w>
太 田</w>
ジ ョ
え き</w>
197 0</w>
1 13
隣 接</w>
衆 議</w>
根 本</w>
朝 日</w>
山 中</w>
将 来</w>
定 員</w>
名 所</w>
九 郎</w>
り 込</w>
の り
198 0</w>
飾 り</w>
頼 長</w>
義 貞</w>
真 田</w>
日 向</w>
定 義</w>
天 照</w>
儀 礼</w>
み な
高 田</w>
野 菜</w>
松 竹</w>
本 多</w>
廃 藩</w>
小 判</w>
分 裂</w>
余 り</w>
しば らく</w>
落 ち
水 軍</w>
本 社</w>
排 除</w>
区 域</w>
京 福</w>
乳 母</w>
高 級</w>
翌 日</w>
絵 師</w>
稲 葉</w>
淡 路</w>
東 海</w>
差 し
ス サ
C A</w>
諏 訪</w>
正 成</w>
書 写</w>
日 清</w>
大 宰</w>
八 条</w>
シ ン
よう やく</w>
首 都</w>
限 り</w>
開 祖</w>
縄 文</w>
継 続</w>
経 歴</w>
治 安</w>
教 団</w>
故 実</w>
建 仁</w>
埼 玉</w>
同 日</w>
双 方</w>
こ と
調 味</w>
義 輝</w>
玉 葉</w>
東 側</w>
建 長</w>
山 道</w>
宮 廷</w>
万 国</w>
ヒ メ</w>
デ ザ
ク ラ
け い</w>
立 憲</w>
猶 子</w>
注 釈</w>
案 内</w>
未 詳</w>
方 式</w>
所 司</w>
土 方</w>
モ デル</w>
芝 居</w>
武 道</w>
旅 団</w>
定 か</w>
冠 称</w>
元 亀</w>
スサ ノオ</w>
し ょう
討ち 取</w>
蒸 気</w>
生 き
拾 遺</w>
周 防</w>
北 畠</w>
会 館</w>
リ ー
ダ ム</w>
ス ペ
松 山</w>
普 請</w>
戸 籍</w>
叙 位</w>
北 側</w>
ソ ース</w>
ス ポ
も り</w>
187 3</w>
遺 構</w>
遅 れ</w>
通 信</w>
西 側</w>
男 女</w>
本 人</w>
明 神</w>
文 武</w>
幕 政</w>
19 28</w>
高 橋</w>
移 行</w>
特 色</w>
東 福</w>
旧 制</w>
実 家</w>
名 跡</w>
公 領</w>
免 許</w>
はっ きり</w>
す け</w>
産 地</w>
意 向</w>
大 原</w>
嗣 子</w>
切 れ</w>
っ と</w>
財 産</w>
複 雑</w>
約 束</w>
楽 し</w>
景 勝</w>
教 義</w>
従 兄弟</w>
巫 女</w>
土 器</w>
和 睦</w>
前 者</w>
キャ ン
か い</w>
4 00</w>
200 1</w>
西 南</w>
製 品</w>
残 り</w>
改 めて</w>
府 道</w>
庇 護</w>
外 務</w>
輩 出</w>
軌 道</w>
貢 献</w>
結 城</w>
終 え</w>
子 爵</w>
埋 葬</w>
危 険</w>
労 働</w>
令 制</w>
一 帯</w>
ろ ん</w>
19 50</w>
158 2</w>
高 槻</w>
遣 唐</w>
移 住</w>
盆 地</w>
消 息</w>
天 長</w>
天 慶</w>
各 国</w>
倒 れ</w>
世 阿弥</w>
ス ル
り ん</w>
あ ん</w>
離 宮</w>
蒲 生</w>
国 有</w>
吉 備</w>
北 山</w>
中 務</w>
三 井</w>
ス タ
ウ ェ
さ ま</w>
IC O
題 材</w>
租 税</w>
死 者</w>
東 洋</w>
方 形</w>
宗 盛</w>
大 橋</w>
加 茂</w>
八 代</w>
互 い</w>
類 似</w>
選 択</w>
運 賃</w>
東 大寺</w>
従 事</w>
家 業</w>
宝 亀</w>
太 陽</w>
半 ば</w>
ン ス</w>
そ も</w>
ICO CA</w>
駅 舎</w>
神 名</w>
石 器</w>
生 前</w>
木 津川</w>
忠 臣</w>
夫 婦</w>
取り 上げ</w>
原 型</w>
ズ ム</w>
た び
語 源</w>
描 写</w>
彫 刻</w>
大 日</w>
司 法</w>
台 頭</w>
博 文</w>
動 員</w>
久 我</w>
プ ロ</w>
ト ン</w>
も そも</w>
そ もそも</w>
さ い</w>
1 1
門 徒</w>
群 馬</w>
空 間</w>
正 五</w>
本 姓</w>
政 元</w>
実 在</w>
や はり</w>
およ そ</w>
189 8</w>
189 0</w>
育 て</w>
義 時</w>
終 了</w>
皇 居</w>
沿 い</w>
国 史</w>
先 立</w>
伊 東</w>
ル ト</w>
ビ ス</w>
も し</w>
は ん</w>
顧 問</w>
通 説</w>
権 現</w>
従 軍</w>
布 教</w>
囃 子</w>
別 れ</w>
住 居</w>
ど も</w>
た ん</w>
1 10
郡 司</w>
復 古</w>
弾 圧</w>
崩 れ</w>
少 輔</w>
半 分</w>
先 代</w>
タ ク
た て</w>
電 化</w>
肖 像</w>
細 か</w>
秩 序</w>
皇 統</w>
恩 賞</w>
安 堵</w>
大 化</w>
参 戦</w>
修 験</w>
ナ ー</w>
サー ビス</w>
ち に</w>
頼 通</w>
金 沢</w>
連 盟</w>
衛 府</w>
発 酵</w>
発 着</w>
画 家</w>
猿 楽</w>
標 高</w>
支 給</w>
捉 え</w>
延 び</w>
壁 画</w>
収 集</w>
勅 使</w>
金 属</w>
規 制</w>
楽 師</w>
業 務</w>
木 戸</w>
時 宗</w>
方 丈</w>
グル ープ</w>
ク ラ</w>
じ ん</w>
さ さ
添 え</w>
政 党</w>
大 島</w>
共 和</w>
並 び</w>
三 国</w>
ま え</w>
こ ちら</w>
龍 馬</w>
飛 び
重 な</w>
発 言</w>
用 意</w>
松 永</w>
尽 く</w>
大 山</w>
因 幡</w>
出 世</w>
僧 都</w>
京 田辺</w>
198 7</w>
選 定</w>
過 ご</w>
教 学</w>
措 置</w>
御 殿</w>
崇 徳</w>
実 行</w>
官 制</w>
入 門</w>
メ ン</w>
き ょう</w>
石 室</w>
旅 行</w>
持 明</w>
態 度</w>
宣 言</w>
太 秦</w>
執 事</w>
地 歌</w>
園 城</w>
取 引</w>
南 方</w>
中 川</w>
フ ェ
ゆ え</w>
ぞ う</w>
6 00</w>
現 実</w>
早 川</w>
徹 底</w>
定 期</w>
南 側</w>
判 明</w>
中 臣</w>
一 環</w>
んじ ゃ</w>
e n
188 4</w>
頼 政</w>
舎 人</w>
男 爵</w>
水 尾</w>
文 様</w>
岡 崎</w>
契 機</w>
三 宅</w>
デザ イン</w>
みな もと</w>
開 基</w>
衝 突</w>
脚 本</w>
社 長</w>
意 思</w>
実 務</w>
千 家</w>
光 厳</w>
シ ステ
ア ク
り 上げ</w>
遺 産</w>
海 人</w>
強 め</w>
山 縣</w>
回 り</w>
倒 幕</w>
高 島</w>
行 列</w>
独 占</w>
塔 頭</w>
哲 学</w>
低 下</w>
乗り 入れ</w>
190 7</w>
高 め</w>
近 臣</w>
最 上</w>
協 議</w>
前 年</w>
久 秀</w>
下 賜</w>
194 5</w>
部 門</w>
追い 込</w>
平 田</w>
君 主</w>
併 せ</w>
主 演</w>
プロ ダ
陽 成</w>
逃 げ</w>
警 備</w>
本 所</w>
有 栖
成 分</w>
待 遇</w>
名 目</w>
南 都</w>
兼 実</w>
たび たび</w>
し ゃ</w>
き ん</w>
19 10</w>
馬 子</w>
長 門</w>
訪 問</w>
職 業</w>
組 合</w>
水 系</w>
告 げ</w>
仮 名
N H
説 得</w>
薩 軍</w>
素 材</w>
治 天</w>
朱 子</w>
弥 勒</w>
島 根</w>
大 会</w>
古 河</w>
創 始</w>
備 後</w>
オ リ
か ね</w>
い ち
NH K</w>
118 0</w>
長 浜</w>
資 金</w>
舞 踊</w>
筑 前</w>
移 築</w>
弓 矢</w>
医 師</w>
出 来
兼 務</w>
ア マ
ん じ</w>
せ よ</w>
青 年</w>
転 換</w>
申 し
現 象</w>
源 平</w>
授 与</w>
城 郭</w>
出 産</w>
主 催</w>
システ ム</w>
しか も</w>
186 2</w>
香 り</w>
養 父</w>
附 属</w>
遺 言</w>
若 年</w>
芹 沢</w>
神 職</w>
構 想</w>
折 り
幕 臣</w>
富 山</w>
寄 り</w>
吉 宗</w>
五 代</w>
ン ド</w>
プロダ クション</w>
ソ ード</w>
ス ター</w>
エ ピ
置 県</w>
条 例</w>
最 中</w>
戦 乱</w>
慣 習</w>
思 い
小 川</w>
奉 還</w>
八 十</w>
セ ス</w>
エピ ソード</w>
ゆ かり</w>
か え</w>
郎 党</w>
軍 人</w>
解 決</w>
草 子</w>
武 術</w>
権 勢</w>
東 部</w>
景 時</w>
延 伸</w>
劇 場</w>
八 郎</w>
光 源氏</w>
中 間</w>
ン ド
な ん</w>
打 ち</w>
弓 道</w>
奉 仕</w>
大 野</w>
ニ ュー</w>
ろ う</w>
3 000</w>
編 集</w>
組み 合わせ</w>
組 み</w>
無 視</w>
村 田</w>
新 政</w>
広 義</w>
工 夫</w>
寺 町</w>
寛 平</w>
兵 士</w>
保 管</w>
介 入</w>
チェ ンジ</w>
み ょう</w>
高 市</w>
西 部</w>
蓮 如</w>
芸 妓</w>
清 原</w>
杜 氏</w>
晴 明</w>
救 済</w>
大 王</w>
勝 宝</w>
円 融</w>
信 任</w>
伯 爵</w>
カ バ
インター チェンジ</w>
ア イ
沙 汰</w>
大 分</w>
外 戚</w>
出 し</w>
一 派</w>
ひ ろ</w>
い し</w>
199 9</w>
高 山</w>
逃 げ
考 案</w>
浪 人</w>
構 内</w>
大 同</w>
再 開</w>
価 格</w>
て ん</w>
遊 女</w>
試 合</w>
花 山</w>
瀬 戸</w>
海 上</w>
正 倉</w>
彦 根</w>
帰 京</w>
孝 明</w>
天平 勝宝</w>
大 軍</w>
反 映</w>
五 山</w>
187 7</w>
187 6</w>
院 号</w>
茨 城</w>
東 南</w>
慣 例</w>
強 制</w>
弁 官</w>
山 水</w>
天 津</w>
ほ ん</w>
し ゅ
あ て</w>
19 00</w>
離 脱</w>
陽 明</w>
関 心</w>
遣 わ</w>
胡 弓</w>
経 路</w>
社 殿</w>
本 部</w>
学 習</w>
天 暦</w>
佐 藤</w>
188 1</w>
饅 頭</w>
阿 部</w>
遣 い</w>
費 用</w>
範 頼</w>
筑 紫</w>
祈 祷</w>
検 討</w>
手 法</w>
堀 河</w>
元 老</w>
世 間</w>
のり ば</w>
の ぼ</w>
じ んじゃ</w>
か ら
い ち</w>
i n
長 年</w>
足 軽</w>
苦 し</w>
洞 院</w>
朽 木</w>
抑 え</w>
急 死</w>
人 事</w>
み や</w>
とど ま</w>
つ な</w>
義 家</w>
石 高</w>
柴 田</w>
曾 孫</w>
役 目</w>
大 幅</w>
出 町</w>
京 津</w>
ラー メン</w>
シ ー
シ タン</w>
ご 飯</w>
郷 土</w>
追 加</w>
肥 前</w>
祭 礼</w>
携 わ</w>
太 上</w>
地 震</w>
候 補</w>
京 阪神</w>
交 易</w>
三 千</w>
イ タ
はじ ま</w>
199 6</w>
近 隣</w>
貞 享</w>
衆 生</w>
締 め</w>
空 手</w>
稽 古</w>
王 国</w>
正 宗</w>
指 示</w>
披 露</w>
手 紙</w>
戦 時</w>
後 水尾</w>
引き 続</w>
大 和
キリ シタン</w>
カ ン</w>
む ね</w>
ぎ ょう</w>
い か
I C</w>
196 0</w>
黄 砂</w>
降 下</w>
自 宅</w>
臣 籍</w>
習 合</w>
法 主</w>
板 垣</w>
敗 戦</w>
弘 化</w>
実 態</w>
公 共</w>
信 忠</w>
中 御門</w>
a t
189 5</w>
香 川</w>
頼 盛</w>
破 壊</w>
戦 場</w>
度 々</w>
姫 路</w>
女 官</w>
命 名</w>
化 学</w>
元 慶</w>
作 り</w>
ら ん</w>
194 9</w>
風 俗</w>
酒 井</w>
通 貨</w>
越 中</w>
講 堂</w>
紙 本</w>
援 軍</w>
抗 争</w>
市 内</w>
小 早川</w>
官 司</w>
住 持</w>
ダ ー</w>
199 3</w>
込 め</w>
育 成</w>
神 護</w>
歩 兵</w>
往 復</w>
妙 法</w>
名 付け</w>
単 独</w>
先 祖</w>
並 べ</w>
丁 銀</w>
ー ル
マ ン
り ょう</w>
そ う
か た
5 000</w>
199 8</w>
連 携</w>
退 位</w>
決 意</w>
機 械</w>
新 撰</w>
弾 正</w>
大 河</w>
創 業</w>
ど おり</w>
ち ゃ
さ す</w>
が け</w>
か せ</w>
預 け</w>
記 紀</w>
立 て
確 定</w>
清 朝</w>
成 果</w>
容 易</w>
宮 崎</w>
大 変</w>
勝 家</w>
五 男</w>
一 家</w>
と くに</w>
あ た
198 9</w>
19 11</w>
187 5</w>
親 交</w>
繁 栄</w>
焼 酎</w>
有 形</w>
敗 走</w>
摂 家</w>
安 全</w>
圧 倒</w>
史 実</w>
公 法</w>
交 わ</w>
パ ン</w>
ネ マ</w>
1 12
衣 装</w>
立 命</w>
甲 賀</w>
法 度</w>
橿 原</w>
向 上</w>
同 族</w>
久 世</w>
中 京</w>
リ ア
ライ ス</w>
ヒ ー</w>
り ょう
しん のう</w>
19 29</w>
長 屋</w>
豊 岡</w>
著 し</w>
目 立</w>
時 政</w>
徳 大寺</w>
帰 還</w>
小 山</w>
宮 司</w>
園 部</w>
北 方</w>
佐 竹</w>
付 属</w>
上 田</w>
三 輪</w>
み つ</w>
鎮 座</w>
逮 捕</w>
車 庫</w>
赴 任</w>
芭 蕉</w>
自 殺</w>
結び つ</w>
毎 日</w>
捕 縛</w>
我 が</w>
府 県</w>
上 流</w>
三 宮</w>
タク シー</w>
コー ヒー</w>
う か
188 2</w>
跡 地</w>
見 な</w>
紅 葉</w>
構 築</w>
晴 元</w>
持 ち</w>
抜 け</w>
怒 り</w>
左 手</w>
安 達</w>
学 科</w>
名 神</w>
オ ン</w>
な くな</w>
需 要</w>
金 銀</w>
返 し</w>
行 き
確 実</w>
相 談</w>
治 世</w>
比 叡</w>
歌 仙</w>
検 地</w>
来 日</w>
政 官</w>
手 段</w>
帽 子</w>
布 告</w>
少 女</w>
大 永</w>
大 成</w>
大 兄</w>
地 獄</w>
名 物</w>
一 緒</w>
エ ル</w>
紛 争</w>
生 み出</w>
涅 槃</w>
援 助</w>
小 姓</w>
坂 東</w>
内 蔵
中 原</w>
一 連</w>
グラ ム</w>
カ ラ
れ い</w>
お か
i c
199 5</w>
194 6</w>
防 衛</w>
荒 廃</w>
神 器</w>
確 か</w>
次 いで</w>
慶 安</w>
情 勢</w>
内蔵 助</w>
さ か
養 成</w>
階 層</w>
連 続</w>
趣 味</w>
有 職</w>
往 来</w>
帰 依</w>
孝 謙</w>
奨 励</w>
典 範</w>
以 仁</w>
し く</w>
118 5</w>
陵 墓</w>
谷 川</w>
職 員</w>
海 岸</w>
桐 壺</w>
春 宮</w>
才 能</w>
忘 れ</w>
屋 号</w>
團 十郎</w>
印 象</w>
健 康</w>
作 戦</w>
な ら
た い</w>
規 則</w>
番 組</w>
津 田</w>
標 準</w>
本 朝</w>
本 丸</w>
敵 対</w>
後 年</w>
小 浜</w>
印 刷</w>
分 布</w>
公 布</w>
カ ツ
o n
194 7</w>
19 31</w>
188 6</w>
隠 岐</w>
親 族</w>
煎 茶</w>
平 均</w>
市 街</w>
出 生</w>
出 席</w>
処 罰</w>
シ リ
シ ャ</w>
カ ー
議 長</w>
艦 隊</w>
舞 い</w>
考 慮</w>
直 系</w>
理 事</w>
正 四</w>
教 員</w>
強 調</w>
市 民</w>
居 士</w>
国 師</w>
単 なる</w>
内 外</w>
世 代</w>
19 20</w>
19 18</w>
駆 け
食 材</w>
警 護</w>
直 政</w>
正親 町</w>
梅 若</w>
宝 塚</w>
合 奏</w>
キ ネマ</w>
ま っ
19 30</w>
187 4</w>
高 度</w>
院 宮</w>
衣 服</w>
相 対</w>
昼 間</w>
投 入</w>
弁 慶</w>
希 望</w>
家 柄</w>
季 節</w>
始 祖</w>
執 行</w>
勝 頼</w>
伯 耆</w>
中 興</w>
リ ン</w>
テ ー
アク セス</w>
い た</w>
継 ぎ</w>
禅 師</w>
特 権</w>
海 苔</w>
沙 門</w>
末 寺</w>
書 記</w>
文 殊</w>
整 え</w>
幽 閉</w>
宮 殿</w>
妙 心</w>
奮 戦</w>
四 方</w>
右 手</w>
俳 句</w>
余 儀</w>
会 所</w>
ッ チ</w>
ク ロ
な ぎ</w>
重 用</w>
義 弘</w>
移 封</w>
相 国</w>
入 口</w>
信 号</w>
世 話</w>
レ ー
ラ イ</w>
ウ ス</w>
ぶ ん</w>
ど う
お そ
8 00</w>
199 4</w>
189 7</w>
非 難</w>
陣 屋</w>
長 谷</w>
観 念</w>
被 官</w>
紙 幣</w>
箱 館</w>
祖 先</w>
激 怒</w>
沿 岸</w>
樺 太</w>
校 地</w>
昆 布</w>
大 海人</w>
同 行</w>
厳 密</w>
企 画</w>
久 安</w>
三 代</w>
ヒ コ</w>
もち ろん</w>
た ま
が た</w>
19 26</w>
188 5</w>
講 談</w>
設 備</w>
神 々</w>
活 用</w>
料 金</w>
実 父</w>
列 強</w>
仲 介</w>
人 衆</w>
エ リア</w>
ア ニ
ざ ん</w>
赦 免</w>
財 団</w>
議 定</w>
目 付</w>
清 正</w>
有 馬</w>
有 効</w>
時 忠</w>
性 質</w>
大 奥</w>
夕 霧</w>
吸 収</w>
参 謀</w>
南 禅</w>
入 り
俳 諧</w>
だ り</w>
ご う</w>
19 12</w>
189 9</w>
臣 下</w>
経 過</w>
直 轄</w>
発 揮</w>
殆 ど</w>
極 め</w>
大 海</w>
全 長</w>
全 線</w>
仲 間</w>
事 故</w>
た く</w>
通 用</w>
能 登</w>
私 的</w>
相 馬</w>
栃 木</w>
日 活</w>
提 案</w>
推 挙</w>
接 続</w>
師 直</w>
子 女</w>
ヶ 所</w>
カ ツ</w>
イ ベ
み ち</w>
は や</w>
き わ
198 8</w>
194 3</w>
通 行</w>
美 作</w>
発 給</w>
武 芸</w>
桂 川</w>
春 秋</w>
戦 功</w>
小 袖</w>
大 手</w>
和 銅</w>
史 書</w>
収 穫</w>
原 本</w>
仁 安</w>
み や
のみ こ</w>
く らい</w>
い ま</w>
6 72</w>
霊 元</w>
隠 れ</w>
結 び</w>
箏 曲</w>
昇 殿</w>
得 意</w>
名 人</w>
主 神</w>
主 従</w>
ビ ル</w>
o r
200 9</w>
雑 賀</w>
陰 謀</w>
長 期</w>
輸 出</w>
調 整</w>
要 因</w>
継 体</w>
絶 対</w>
竣 工</w>
番 頭</w>
河 川</w>
武 装</w>
武 功</w>
松 浦</w>
振 興</w>
悟 り</w>
峰 山</w>
子 弟</w>
婚 姻</w>
天 理</w>
団 地</w>
力 士</w>
前 提</w>
八 木</w>
信 者</w>
リ オ</w>
マ ー
とも な</w>
じ ゅう</w>
い け</w>
190 4</w>
頼 之</w>
郡 山</w>
適 用</w>
浅 草</w>
明 徳</w>
敦 賀</w>
政 友</w>
年 中</w>
山 寺</w>
家 集</w>
内 紛</w>
伸 ば</w>
バ イ
イベ ント</w>
め ん</w>
19 25</w>
189 6</w>
189 1</w>
軍 記</w>
本 門</w>
恵 まれ</w>
志 士</w>
山 梨</w>
味 付け</w>
同 社</w>
勘 定</w>
入 集</w>
元 就</w>
今 井</w>
プ レ
ブ ーム</w>
ウ ィ
さ き</w>
7 00</w>
遠 州</w>
討 死</w>
観 応</w>
西 京</w>
著 者</w>
突 き
瀬 川</w>
活 発</w>
日 吉</w>
教 科</w>
思 い</w>
引 き</w>
寛 弘</w>
官 吏</w>
学 院</w>
大 使</w>
会 長</w>
主 力</w>
下 旬</w>
三 宝</w>
ー デ
じ ゅ
駿 府</w>
落 城</w>
荒 木</w>
若 干</w>
発 布</w>
淳 和</w>
比 定</w>
明 暦</w>
旅 館</w>
教 養</w>
徳 島</w>
巨 大</w>
地 理</w>
勲 章</w>
勅 許</w>
助 命</w>
公 認</w>
両 方</w>
プ ン</w>
鵜 飼</w>
馬 場</w>
開 け</w>
還 俗</w>
画 像</w>
承 安</w>
応 神</w>
年 寄</w>
嘉 吉</w>
商 店</w>
勝 手</w>
助 六</w>
制 圧</w>
列 島</w>
仏 師</w>
ど ころ</w>
あ き
T a
199 1</w>
190 5</w>
188 0</w>
道 隆</w>
踊 り</w>
清 国</w>
流 儀</w>
橋 立</w>
曹 洞</w>
改 修</w>
工 程</w>
屋 台</w>
尼 崎</w>
小 型</w>
家 茂</w>
宣 教</w>
大 将軍</w>
博 覧</w>
千 手</w>
出 汁</w>
典 侍</w>
全 般</w>
佐 伯</w>
三 種</w>
ル ト
モ ン
タイ プ</w>
ア ー
ぜ ん</w>
188 8</w>
188 7</w>
阿 倍</w>
門 弟</w>
金 春</w>
署 名</w>
築 造</w>
為 義</w>
本 紀</w>
忠 通</w>
後 裔</w>
後 宮</w>
宝 生</w>
埴 輪</w>
公 演</w>
全 面</w>
人 数</w>
シリ ーズ</w>
ひと り</w>
き み</w>
講 和</w>
諡 号</w>
誤 り</w>
納 入</w>
理 論</w>
決 して</w>
比 企</w>
後 任</w>
引 退</w>
対 面</w>
容 器</w>
宝 塔</w>
学 会</w>
天 井</w>
団 子</w>
勤 務</w>
カバ ネ</w>
ろ く</w>
ぎ り</w>
おそ らく</w>
退 却</w>
講 義</w>
見 つか</w>
能 楽師</w>
紫 式部</w>
簡 単</w>
流 布</w>
永 久</w>
欽 明</w>
安 徳</w>
一 宮</w>
ベ ル</w>
ウ ン</w>
ほ ん
し ら</w>
連 座</w>
証 拠</w>
装 置</w>
藤 堂</w>
義 詮</w>
留 め</w>
深 め</w>
浸 透</w>
文 芸</w>
承 平</w>
変 遷</w>
売 り</w>
堂 上</w>
参 り</w>
代 理</w>
三 島</w>
タ ケ
の 丸</w>
195 1</w>
19 27</w>
身 体</w>
筒 井</w>
演 劇</w>
清 酒</w>
治 め</w>
植 え</w>
御 霊</w>
弘 法</w>
建 保</w>
府 中</w>
差 別</w>
向 日</w>
主 家</w>
ッ ド</w>
a l
19 19</w>
118 3</w>
領 土</w>
遊 び</w>
謹 慎</w>
石 見</w>
矛 盾</w>
直 ちに</w>
混 同</w>
民 権</w>
歳 三</w>
本 書</w>
小 町</w>
大 村</w>
名 乗り</w>
同 地</w>
内 侍</w>
免 除</w>
伝 奏</w>
人 質</w>
上 陸</w>
三 田</w>
レ ン
ッ ト
ウ ム</w>
i s
19 23</w>
駅 前</w>
革 命</w>
青 山</w>
長 子</w>
速 度</w>
買 い
西 方</w>
舎 利</w>
義 隆</w>
次 官</w>
斎 院</w>
拍 子</w>
忠 興</w>
幽 斎</w>
平 和</w>
大 老</w>
供 給</w>
作 風</w>
伯 父</w>
ト リ
187 9</w>
農 村</w>
複 線</w>
納 豆</w>
母 屋</w>
旧 来</w>
提 唱</w>
徳 政</w>
工 学</w>
岩 手</w>
山 頂</w>
尺 八</w>
婦 人</w>
境 界</w>
五 百</w>
ヴ ァ
ワ キ</w>
メー カー</w>
190 1</w>
離 反</w>
野 宮</w>
進 行</w>
血 縁</w>
背 後</w>
篆 刻</w>
福 澤</w>
毘 沙門</w>
正 当</w>
木 下</w>
普 段</w>
明 け</w>
推 薦</w>
打 倒</w>
弘 文</w>
居 留</w>
宇 佐</w>
塗 り</w>
受け 取</w>
元 文</w>
上 位</w>
ウ ナギ</w>
黄 檗</w>
防 止</w>
長 岡
追 贈</w>
計 算</w>
考 古</w>
義 興</w>
神 功</w>
疑 い</w>
準 急</w>
消 え</w>
月 日</w>
持ち 帰</w>
工 作</w>
実 録</w>
契 約</w>
太 閤</w>
大 政</w>
在 任</w>
仕 立て</w>
今 後</w>
人 員</w>
乏 し</w>
か な</w>
お も
頼 綱</w>
隠 棲</w>
長 安</w>
通 じ</w>
薬 師
薬師 寺</w>
華 厳</w>
競 馬</w>
無 事</w>
満 州</w>
木 村</w>
書 店</w>
政 界</w>
抗 議</w>
岡 本</w>
山 門</w>
宝 物</w>
天 橋立</w>
大 人</w>
名 勝</w>
午 前</w>
働 き</w>
ス タン
つ め</w>
194 8</w>
194 0</w>
187 8</w>
長岡 京</w>
重 忠</w>
表 紙</w>
藩 政</w>
繊 維</w>
神 田</w>
用 途</w>
新 興</w>
小 林</w>
宗 祖</w>
女 神</w>
大 山崎</w>
吉 祥</w>
中 頃</w>
タイ ル</w>
エ ビ</w>
やま と</w>
ぐ ら</w>
197 2</w>
194 2</w>
飛 騨</w>
風 景</w>
開 国</w>
譲 渡</w>
職 掌</w>
織 物</w>
登 用</w>
無 量
想 定</w>
小 麦</w>
封 建</w>
地 帯</w>
名 主</w>
区 画</w>
刑 部</w>
侯 爵</w>
み ず
く し</w>
198 6</w>
190 8</w>
189 4</w>
障 壁</w>
遷 任</w>
豊 前</w>
調 べ</w>
評 判</w>
法 号</w>
振 る</w>
干 し</w>
宿 泊</w>
如 意</w>
全 員</w>
の り</w>
く ら
き ん
う ま</w>
い だ</w>
霊 場</w>
資 本</w>
解 由</w>
神 体</w>
温 度</w>
泰 時</w>
法 相</w>
授 か</w>
得 度</w>
師 団</w>
宣 長</w>
好 き</w>
グ レ
198 5</w>
197 6</w>
領 域</w>
観 点</w>
精 米</w>
石 橋</w>
白 石</w>
楽 部</w>
朱 印</w>
征 討</w>
左 兵衛</w>
寛 治</w>
外 記</w>
国 王</w>
倉 庫</w>
仏 壇</w>
ケ ット</w>
た け</w>
し げ</w>
遺 体</w>
違 反</w>
課 程</w>
西 欧</w>
社 格</w>
知 恩</w>
本 項</w>
本 宮</w>
曲 輪</w>
振 り
御 池</w>
式 内</w>
少 数</w>
大 弁</w>
外 側</w>
名 高</w>
同 心</w>
供 え</w>
佐 渡</w>
ッ クス</w>
ス クリ
16 15</w>
興 味</w>
神 輿</w>
無量 寿</w>
染 め</w>
後 嵯峨</w>
実 業</w>
各 駅</w>
佐 久
位 牌</w>
企 て</w>
今 昔</w>
仁 王</w>
ナ ム</w>
ゃ く</w>
た ち
194 4</w>
186 5</w>
高 句
高句 麗</w>
開 城</w>
銀 座</w>
転 封</w>
衰 え</w>
航 空</w>
石 垣</w>
水 分</w>
死 に</w>
書 籍</w>
数 十</w>
密 か</w>
太 町</w>
名 手</w>
南 西</w>
北 大路</w>
勅 命</w>
丸 太町</w>
下 部</w>
上 級</w>
三 角</w>
一 乗</w>
マ イ
か き
P i
P a</w>
15 0</w>
高 台</w>
須 賀</w>
長 谷川</w>
長 徳</w>
花 山
祝 日</w>
理 想</w>
王 政</w>
比 等</w>
木 製</w>
数 々</w>
成 仏</w>
愛 媛</w>
巻 物</w>
小 堀</w>
安 藤</w>
娘 婿</w>
奉 公</w>
六 郎</w>
人 材</w>
不 比等</w>
e s
19 32</w>
157 3</w>
13 33</w>
青 森</w>
重 ん</w>
通 商</w>
母 親</w>
母 方</w>
武 官</w>
時 頼</w>
投 げ
平 日</w>
師 輔</w>
多 賀</w>
墳 丘</w>
取 締</w>
仏 法</w>
ヶ 崎</w>
タ ル</w>
ギ ー</w>
159 0</w>
1 20</w>
養 育</w>
随 行</w>
賦 課</w>
藤 原
禅 僧</w>
由 緒</w>
現 行</w>
民 家</w>
榎 本</w>
有 利</w>
承 認</w>
後 深草</w>
守 備</w>
執 り
土 着</w>
単 純</w>
内 側</w>
具 視</w>
元 暦</w>
予 備</w>
下 関</w>
プ ラ
ま さ</w>
ち ゅう</w>
Ta Pa</w>
Pi TaPa</w>
A N
負 傷</w>
続 き</w>
終 結</w>
当 日</w>
年 号</w>
巨 勢</w>
寄 合</w>
家 名</w>
和 尚</w>
出 会</w>
九 鬼</w>
両 替</w>
メ ン
こ く</w>
きわ めて</w>
高 校</w>
頼 光</w>
障 害</w>
配 慮</w>
豊 か</w>
石 清水</w>
熱 心</w>
法 的</w>
服 部</w>
支 店</w>
当 代</w>
小 屋</w>
奏 者</w>
圧 力</w>
及 ぼ</w>
南 無</w>
勝 元</w>
別 働</w>
伝 道</w>
今 度</w>
交 替</w>
事 項</w>
バ ー
ど り</w>
が ち</w>
調 達</w>
観 客</w>
統 計</w>
福 原</w>
玉 鬘</w>
漢 文</w>
教 師</w>
拝 殿</w>
戒 律</w>
弥 呼</w>
幅 広</w>
届 け</w>
子 息</w>
大 敗</w>
原 作</w>
卑 弥呼</w>
併 合</w>
任 せ</w>
一 貫</w>
リ ッ
シ ュ
ぼ う</w>
い ろ</w>
m m</w>
198 1</w>
195 5</w>
118 4</w>
雄 略</w>
進 軍</w>
証 明</w>
観 測</w>
観 察</w>
西 院</w>
西 行</w>
老 人</w>
稚 児</w>
松 平家</w>
斬 り
巻き 込</w>
山 岳</w>
尊 皇</w>
取 れ</w>
利 通</w>
入 手</w>
儲 け</w>
保 有</w>
保 守</w>
ー フ</w>
プ ラッ
ガ ス</w>
ろ し</w>
訪 ね</w>
解 消</w>
花山 院</w>
総 長</w>
突 然</w>
申 請</w>
田 堵</w>
深 夜</w>
永 仁</w>
桃 園</w>
有栖 川
有栖川 宮</w>
忍 者</w>
島 田</w>
品 質</w>
剣 道</w>
井 戸</w>
不 可
ロー マ</w>
ニ ア</w>
な く</w>
きょう と</w>
あ が</w>
199 2</w>
186 6</w>
高 齢</w>
降 り</w>
講 師</w>
行 使</w>
耕 作</w>
湖 西</w>
派 生</w>
次 女</w>
景 観</w>
早 雲</w>
壊 滅</w>
国 土</w>
同 月</w>
北 京</w>
典 型</w>
公 的</w>
上 旬</w>
まっ たく</w>
ひ ら</w>
196 9</w>
195 3</w>
駅 名</w>
間 隔</w>
親 政</w>
荘 官</w>
線 路</w>
生 命</w>
焼き 討ち</w>
戸 田</w>
宸 翰</w>
家 禄</w>
実 践</w>
安 元</w>
大 火</w>
大 工</w>
外 様</w>
吟 醸</w>
加 熱</w>
初 演</w>
優 秀</w>
予 算</w>
中 枢</w>
ロ ン</w>
プラッ ト
ビ メ</w>
ト ー
ま ろ</w>
か さ</w>
お う</w>
I S
190 6</w>
190 2</w>
19 24</w>
首 相</w>
陥 落</w>
重 衡</w>
軍 隊</w>
課 税</w>
該 当</w>
行 基</w>
自 筆</w>
聞 き
竹 内</w>
甲 府</w>
現 状</w>
演 じ</w>
治 郎</w>
放 棄</w>
改 新</w>
控 え</w>
持 氏</w>
広 大</w>
委 託</w>
天 和</w>
固 有</w>
厨 子</w>
八 坂</w>
信 西</w>
プラット ホーム</w>
ナ ミ</w>
テ ラス</w>
イ ド</w>
く じ</w>
190 3</w>
飢 饉</w>
領 内</w>
道 中</w>
解 放</w>
西 山</w>
薩 長</w>
義 景</w>
稲 田</w>
石 上</w>
省 略</w>
父 親</w>
昇 格</w>
故 郷</w>
拒 絶</w>
引き 上げ</w>
寄 託</w>
墓 地</w>
取り 立て</w>
全 盛</w>
両 国</w>
不 安</w>
ス ー
す ぐ
き ゅう</w>
194 1</w>
189 2</w>
158 5</w>
道 鏡</w>
福 山</w>
片 町</w>
正 治</w>
果 て</w>
座 敷</w>
広 め</w>
山 間</w>
奏 上</w>
努 力</w>
出来 事</w>
先 鋒</w>
借 り</w>
修 正</w>
住 友</w>
代 行</w>
乗り 換え</w>
ラッ シュ</w>
ミ ュ
ミ ナル</w>
ター ミナル</w>
じ め</w>
し ょ
19 15</w>
185 8</w>
騎 馬</w>
進 展</w>
舞 妓</w>
義 稙</w>
盛 り
書 簡</w>
撃 退</w>
得 宗</w>
天 地</w>
嘆 願</w>
名 字</w>
停 留</w>
信 繁</w>
与 力</w>
上 り</w>
パ リ</w>
スペ イン</w>
ス カ
み え</w>
197 9</w>
高 家</w>
閉 鎖</w>
鎖 国</w>
藤 田</w>
義 持</w>
立 花</w>
直 し</w>
町 村</w>
東 亜</w>
木 材</w>
戒 壇</w>
惜 し</w>
彩 色</w>
廃 絶</w>
山 荘</w>
大 嘗</w>
在 来</w>
入 隊</w>
一 代</w>
ク レ
し れ</w>
飲 食</w>
頻 繁</w>
菊 五郎</w>
繋 が</w>
理 念</w>
浜 松</w>
柏 原</w>
枚 方</w>
東 征</w>
明 法</w>
実 弟</w>
右 記</w>
三 条
ハ イ
コ ン</w>
コ レ
へ ん</w>
じ ゃ</w>
196 5</w>
190 9</w>
高 階</w>
食 用</w>
鑑 賞</w>
都 合</w>
道 教</w>
践 祚</w>
話 題</w>
自 刃</w>
羽 織</w>
申 し出</w>
津 軽</w>
洛 中</w>
河 野</w>
氏 神</w>
接 近</w>
扶 持</w>
国 主</w>
品 川</w>
先 端</w>
信 徒</w>
佐久 間</w>
ド ル</w>
ガ ル</w>
選 手</w>
衛 士</w>
葛 野</w>
生 じ</w>
歌 集</w>
東 方</w>
時 平</w>
新 制</w>
抜 き</w>
強 力</w>
延 享</w>
左 近</w>
山 上</w>
多 野</w>
執り 行</w>
名 残</w>
内 匠</w>
全 域</w>
伊 丹</w>
メ ニュー</w>
ビ ール</w>
ス タイル</w>
アマ テラス</w>
も うけ</w>
19 13</w>
開 化</w>
茨 木</w>
苗 字</w>
相 違</w>
異 例</w>
熊 谷</w>
毎 月</w>
梅 田</w>
柔 術</w>
本 陣</w>
手 前</w>
怨 霊</w>
実 用</w>
女 院</w>
地 租</w>
吉 村</w>
千 代
勢 い</w>
出 入り</w>
保 安</w>
休 日</w>
ファ ン</w>
ケ ー
キャン パス</w>
な お
た か
が え</w>
19 22</w>
高 明</w>
行 方</w>
由 良</w>
民 国</w>
来 航</w>
有 朋</w>
改 造</w>
律 宗</w>
巡 礼</w>
家 中</w>
参 内</w>
南 宋</w>
午 後</w>
別 院</w>
円 形</w>
僅 か</w>
上 述</w>
ビ ュー</w>
ク ト</w>
い れ</w>
あら わ</w>
高 架</w>
風 味</w>
表 わ</w>
蜂 起</w>
籠 城</w>
直 径</w>
生 存</w>
狭 義</w>
日 置</w>
投 げ</w>
払 い</w>
戒 名</w>
尊 王</w>
寺 内</w>
学 部</w>
大 祭</w>
埋 め</w>
品 位</w>
和 気</w>
功 労</w>
別 称</w>
並 行</w>
三条 西</w>
ジ ュ
な た</w>
づ くり</w>
し の</w>
19 34</w>
門 流</w>
重 信</w>
遺 品</w>
遠 征</w>
農 家</w>
諸 島</w>
筑 後</w>
略 歴</w>
玄 関</w>
残 党</w>
本 庄</w>
式 目</w>
延 元</w>
少 弐</w>
尊 卑</w>
対 外</w>
大 判</w>
合 祀</w>
取 得</w>
中 旬</w>
スポ ーツ</w>
た た
ぎ ん</w>
196 3</w>
馬 寮</w>
除 目</w>
防 御</w>
長 和</w>
解 任</w>
視 察</w>
繰 り
移 り
為 朝</w>
沿 革</w>
樹 立</w>
根 来</w>
或 いは</w>
御 影</w>
差 異</w>
崇 神</w>
外 部</w>
回 避</w>
呼び 名</w>
右 近</w>
受 章</w>
仁 明</w>
中 部</w>
マ ス</w>
ブ ル
は ら</w>
つ ね</w>
そ んな</w>
鶴 岡</w>
追 捕</w>
解 官</w>
素 麺</w>
秩 父</w>
知 れ</w>
法 学</w>
武 勇</w>
業 者</w>
梅 雨</w>
東 映</w>
朝 貢</w>
持ち 込</w>
御 室</w>
当 地</w>
廃 れ</w>
平 面</w>
帯 刀</w>
学 派</w>
壇 ノ
壇ノ 浦</w>
基 経</w>
和 解</w>
名 田</w>
台 所</w>
友 人</w>
兵 糧</w>
児 玉</w>
傘 下</w>
信 雄</w>
二 男</w>
中 院</w>
モ ン</w>
スクリ ット</w>
ス キー</w>
サン スクリット</w>
イザ ナギ</w>
も て
こ ん
こ え</w>
19 14</w>
159 2</w>
院 殿</w>
阿 蘇</w>
鎌 足</w>
発 覚</w>
物 資</w>
柳 生</w>
春 日
打 撃</w>
我 部</w>
成 り
大 名家</w>
勧 請</w>
功 徳</w>
優 先</w>
体 験</w>
事 前</w>
ワ イン</w>
ク ス
カ ラー</w>
イタ リア</w>
ぱ ら</w>
て い</w>
た け
さ い
い 出</w>
195 2</w>
類 聚</w>
銀 貨</w>
討 幕</w>
藩 札</w>
発 音</w>
澤 村</w>
源 流</w>
清 涼</w>
改 善</w>
感 謝</w>
感 じ</w>
意 義</w>
強 硬</w>
完 了</w>
圧 迫</w>
南 丹</w>
動 向</w>
創 刊</w>
刺 身</w>
内 海</w>
会 場</w>
上 部</w>
ぷ ら</w>
てん のう</w>
さ ら</w>
お ん</w>
19 33</w>
189 3</w>
領 有</w>
長 宗
逝 去</w>
辞 退</w>
軍 団</w>
豊 富</w>
耐 え</w>
美 人</w>
終 戦</w>
称 徳</w>
称 え</w>
現 世</w>
本 当</w>
数 百</w>
師 匠</w>
実 頼</w>
宇 喜多</w>
国 分
和 宮</w>
保 延</w>
使 い
伸 び</w>
一 橋</w>
デ ィ</w>
ジャ ン
サ ー</w>
ク ーデ
ち ゃ</w>
198 4</w>
197 8</w>
19 21</w>
12 21</w>
高 僧</w>
長 らく</w>
貞 和</w>
田 川</w>
正 則</w>
植 民</w>
松 田</w>
早 朝</w>
斬 首</w>
掛 け
従 者</w>
引き 取</w>
家 政</w>
大 黒</w>
多 大</w>
在 京</w>
国 境</w>
公 望</w>
入 鹿</w>
入 京</w>
信 用</w>
仕 上げ</w>
並 み</w>
一 ノ
バ ル</w>
ト ラ
ソ ン</w>
だ ん</w>
197 5</w>
195 4</w>
鉱 毒</w>
郷 士</w>
返 還</w>
警 戒</w>
落ち 延び</w>
義 久</w>
神 官</w>
田 楽</w>
正 一</w>
梶 原</w>
最 期</w>
幹 部</w>
寛 仁</w>
学 説</w>
奪 還</w>
城 内</w>
参 与</w>
原 田</w>
久 御
ド リ
テー マ</w>
グレ ゴ
わ が</w>
は る
な ぜ</w>
とり わけ</w>
か ね
あ え
186 0</w>
顕 彰</w>
間 違い</w>
長宗 我部</w>
達 成</w>
進 言</w>
通 例</w>
花 見</w>
統 率</w>
篤 胤</w>
浮 舟</w>
正 六</w>
森 林</w>
松 方</w>
愛 好</w>
当 たり</w>
守 屋</w>
天 神
大 門</w>
国分 寺</w>
和 風</w>
南 蛮</w>
勲 一</w>
動 か</w>
侍 所</w>
伝 書</w>
下 駄</w>
ネ ット</w>
ズ ン</w>
もっ ぱら</w>
ささ ぎ</w>
あら われ</w>
196 7</w>
195 9</w>
顕 著</w>
途 絶え</w>
退 治</w>
買 収</w>
自 称</w>
立 ち</w>
神 代</w>
王 家</w>
父 母</w>
民 主</w>
早 期</w>
改 築</w>
提 携</w>
把 握</w>
張 り</w>
差 し出</w>
山 背</w>
家 綱</w>
在 庁</w>
四 季</w>
問 答</w>
商 売</w>
命 じ</w>
合 計</w>
勘 解由</w>
削 減</w>
分 析</w>
冒 頭</w>
偽 書</w>
三 昧</w>
ナ イ
セ ット</w>
ス コ
に ん</w>
つ ゆ</w>
197 1</w>
15 00</w>
高 価</w>
雰 囲
雰囲 気</w>
達 磨</w>
通 し</w>
財 閥</w>
要 職</w>
行 者</w>
色 彩</w>
聖 人</w>
浦 上</w>
永 井</w>
歌 詞</w>
柏 木</w>
据 え</w>
延 久</w>
庄 内</w>
岩 波</w>
小 西</w>
寺 田</w>
大 炊
大 根</w>
厩 戸</w>
即 ち</w>
分 脈</w>
信 孝</w>
伊 周</w>
久 米</w>
久 光</w>
一 面</w>
ヶ 岳</w>
たい ら</w>
196 8</w>
196 6</w>
食 料</w>
義 盛</w>
神 霊</w>
社 寺</w>
沖 田</w>
死 刑</w>
本 位</w>
木 曽</w>
日 曜</w>
数 学</w>
惣 領</w>
御 堂</w>
後 方</w>
当 該</w>
引き 起こ</w>
弓 術</w>
左 遷</w>
寛 正</w>
家 斉</w>
地 図</w>
吹 き
免 れ</w>
依 然</w>
乱 後</w>
メ ディ
パ ー</w>
ス ル</w>
ジ オ</w>
エ ン
ゆ き</w>
な れ</w>
と り</w>
げ ん
お う
あ い</w>
197 4</w>
195 6</w>
19 35</w>
115 6</w>
阿 闍
開 館</w>
遺 骨</w>
迎 え
言 語</w>
衛 生</w>
笠 置</w>
真 実</w>
病 没</w>
法 印</w>
沿 線</w>
正 義</w>
概 ね</w>
東 宝</w>
本 町</w>
暮 ら</w>
捕 虜</w>
廷 臣</w>
広 元</w>
山 麓</w>
変 わり</w>
国 分</w>
名 づけ</w>
史 上</w>
取り 付け</w>
修 復</w>
仮名 遣い</w>
久御 山</w>
主 権</w>
カ ル
わ い</w>
i t
門 前</w>
長 保</w>
配 給</w>
退 去</w>
豊 国</w>
直 線</w>
直 弼</w>
田 地</w>
生 か</w>
正 史</w>
正 保</w>
柳 原</w>
新 町</w>
改 組</w>
提 示</w>
拡 張</w>
成 親</w>
平 山</w>
寺 領</w>
宿 場</w>
実 資</w>
官 庁</w>
増 大</w>
唐 代</w>
メ ント</w>
タ カ
グレゴ リオ</w>
ク ター</w>
はじ めて</w>
じ ょ</w>
188 3</w>
鹿 島</w>
食 堂</w>
革 新</w>
閉 じ</w>
軍 艦</w>
茶 人</w>
舒 明</w>
義 尚</w>
秘 密</w>
社 名</w>
画 策</w>
火 縄</w>
流 入</w>
業 績</w>
柔 らか</w>
数 字</w>
拝 領</w>
愛 称</w>
循 環</w>
専 修</w>
寝 返</w>
家 来</w>
大 尉</w>
問 屋</w>
和 漢</w>
会 派</w>
代 用</w>
付 け
主 宰</w>
三 位</w>
一 括</w>
リ ン
ハ ン
イザ ナミ</w>
198 2</w>
阿闍 梨</w>
那 須</w>
道 家</w>
通 り
西 暦</w>
血 統</w>
興 隆</w>
無 理</w>
火 葬</w>
清 華</w>
正 暦</w>
桑 名</w>
札 所</w>
明 経</w>
故 事</w>
後 醍醐</w>
富 田</w>
天 ぷら</w>
地 車</w>
函 館</w>
冊 封</w>
修 好</w>
仕 切</w>
リ ング</w>
フ ト</w>
シー ズン</w>
み ささぎ</w>
つ い</w>
197 7</w>
院 宣</w>
転 戦</w>
若 宮</w>
義 元</w>
移 管</w>
枢 密</w>
本 店</w>
敷 設</w>
手 本</w>
所 持</w>
対 照</w>
実 験</w>
合 気</w>
北 西</w>
光 仁</w>
先 生</w>
元 明</w>
元 久</w>
享 禄</w>
五 重
一 気</w>
一 員</w>
ル ギー</w>
ベ ース</w>
フ レ
ニ ュー
テ ン
オ オ
け い
197 3</w>
195 7</w>
高 時</w>
酒 蔵</w>
踏 み
論 文</w>
評 論</w>
訓 練</w>
略 称</w>
狩 り</w>
無 量</w>
殿 上</w>
支 流</w>
抜 擢</w>
小 豆</w>
審 議</w>
大 切</w>
北 九州</w>
加 盟</w>
割 合</w>
任 務</w>
五重 塔</w>
乱 れ</w>
上 手</w>
一 円</w>
ネ ギ</w>
チ ョ
タ イ</w>
クーデ ター</w>
々 し</w>
a p
鳥 井</w>
頼 義</w>
陶 器</w>
鑑 真</w>
退 け</w>
義 賢</w>
礼 拝</w>
治 部</w>
正 応</w>
欠 け</w>
最 盛</w>
所 収</w>
強 ま</w>
安 房</w>
大炊 御門</w>
合 同</w>
参 勤</w>
原 文</w>
千 本</w>
匂 宮</w>
割 り
伝 記</w>
一ノ 谷</w>
ルト ガル</w>
マ ル
ポ ルトガル</w>
ブ ラ
り 物</w>
み こ</w>
ざ い</w>
ご ん</w>
う ち
飲 料</w>
頼 経</w>
長 元</w>
近 江
華 やか</w>
継 室</w>
盗 賊</w>
甲 州</w>
架 空</w>
本 営</w>
想 像</w>
御 子</w>
強 訴</w>
引 付</w>
庶 子</w>
府 立</w>
左 馬</w>
審 査</w>
判 決</w>
優 位</w>
之 丞</w>
三 善</w>
ト ナム</w>
キ ロ</w>
ね ん</w>
と く</w>
a m
19 37</w>
電 話</w>
金 銭</w>
道 三</w>
近 衛府</w>
辛 子</w>
葦 原</w>
統 括</w>
着 色</w>
演 習</w>
流 出</w>
桜 町</w>
林 寺</w>
景 虎</w>
承 応</w>
所 管</w>
寄 席</w>
土 居</w>
周 り</w>
冠 位</w>
兼 通</w>
先 例</w>
倶 楽部</w>
他 人</w>
一 名</w>
一 休</w>
ゲ ーム</w>
や め</w>
も ち</w>
め い</w>
だ し</w>
IS B
196 4</w>
195 8</w>
高 天
青 蓮</w>
言 及</w>
覚 え</w>
自 主</w>
米 沢</w>
相 承</w>
登 山</w>
男 系</w>
清 浄</w>
添 加</w>
気 動</w>
既 存</w>
新 宮</w>
抑 制</w>
後 円</w>
当 麻</w>
学 園</w>
多 用</w>
喧 嘩</w>
名 詞</w>
出 張</w>
兼 帯</w>
便 宜</w>
仁 左衛門</w>
下 鴨</w>
万 治</w>
万 延</w>
ユ ニ
イ モ</w>
ひ こ</w>
か 所</w>
いっ たん</w>
あら ゆる</w>
あ め</w>
食 物</w>
開 港</w>
門 主</w>
通 勤</w>
蹴 鞠</w>
茶 会</w>
脇 坂</w>
縁 組</w>
組み 込</w>
穢 れ</w>
祭 事</w>
真 人</w>
監 視</w>
異 名</w>
日 中</w>
当 社</w>
姉 小路</w>
天 子</w>
外 れ</w>
勲 功</w>
入 れ
佐 野</w>
万 寿</w>
一 因</w>
ゴ ル</w>
ま き</w>
. .</w>
高天 原</w>
風 潮</w>
領 家</w>
重 量</w>
義 忠</w>
竹 林</w>
生 物</w>
王 族</w>
滝 川</w>
民 営</w>
残 存</w>
明 寺</w>
敏 達</w>
放 火</w>
御 料</w>
弘 治</w>
干 渉</w>
岡 田</w>
家 定</w>
宗 全</w>
天平 宝字</w>
地 形</w>
呪 術</w>
収 容</w>
前 日</w>
出 奔</w>
入 母屋</w>
倭 寇</w>
修 め</w>
五 條</w>
乗り 出</w>
中 学</w>
ー ター</w>
メ イ
フ ロ
カ ン
じ て</w>
野 球</w>
遺 児</w>
逸 文</w>
誤 解</w>
葺 き</w>
細 工</w>
禅 寺</w>
神 格</w>
短 歌</w>
班 田</w>
照 宮</w>
流 域</w>
池 上</w>
松 江</w>
松 平
文 徳</w>
携 帯</w>
愚 管</w>
徴 兵</w>
崇 敬</w>
寄 付</w>
家 屋</w>
夭 折</w>
大 豆</w>
地 主</w>
国 産</w>
回 忌</w>
収 蔵</w>
勝 負</w>
内 覧</w>
公 武</w>
元 寇</w>
付 き
一 流</w>
ッ と</w>
タ ウン</w>
ス パ
イ エ
アメ ノ</w>
ぶ つ</w>
す り
う た</w>
h e
願 い</w>
階 堂</w>
閑 院宮</w>
連 れ
諸 侯</w>
若 者</w>
細 長</w>
精 進</w>
簡 易</w>
砲 術</w>
現 場</w>
犯 罪</w>
無 料</w>
渋 川</w>
淀 殿</w>
永 徳</w>
早 く</w>
新 暦</w>
戸 主</w>
御 座</w>
宮 本</w>
娯 楽</w>
売 買</w>
堅 田</w>
国 政</w>
受 容</w>
前 線</w>
初 見</w>
修 学</w>
例 祭</w>
体 育</w>
事 績</w>
予 想</w>
下 が</w>
ヶ 瀬</w>
モン ゴル</w>
ネ ス</w>
ガ ン</w>
よ し
い ろ
7 01</w>
15 68</w>
鳳 凰</w>
駐 車</w>
里 見</w>
遺 物</w>
連 隊</w>
諭 吉</w>
蟄 居</w>
良 房</w>
烏 帽子</w>
渋 谷</w>
治 療</w>
正 装</w>
極 印</w>
検 査</w>
東 照宮</w>
来 迎</w>
末 法</w>
明 日
日 米</w>
支 払</w>
息 所</w>
御 息所</w>
市 村</w>
巻 き</w>
富 豪</w>
家 宣</w>
天 誅</w>
大 韓
大 田</w>
塩 谷</w>
商 家</w>
同 国</w>
厳 島</w>
剃 髪</w>
入 社</w>
二 階堂</w>
ヶ 国</w>
メディ ア</w>
も ろ
ま す</w>
の 湯</w>
が ん</w>
いか に</w>
198 3</w>
19 17</w>
157 0</w>
13 36</w>
酒 米</w>
道 元</w>
近 辺</w>
説 法</w>
西 宮</w>
綬 章</w>
終 わり</w>
私 塾</w>
神 殿</w>
神 亀</w>
磁 器</w>
目 標</w>
病 弱</w>
業 平</w>
桐 野</w>
暦 応</w>
振 り</w>
押 さえ</w>
手 がけ</w>
忠 義</w>
尋 ね</w>
専 念</w>
天 孫</w>
外 観</w>
和 紙</w>
司 馬</w>
出 品</w>
元 興</w>
修 羅</w>
令 外</w>
三 山</w>
ワ ー</w>
ボ ン</w>
ス コ</w>
り 合</w>
ま ん</w>
っ くり</w>
おお むね</w>
領 民</w>
錦 絵</w>
都 城</w>
造 形</w>
通 親</w>
途 上</w>
縮 小</w>
着 手</w>
皇 極</w>
犬 養</w>
清 め</w>
松 原</w>
本 因
明日 香</w>
明 記</w>
戦 略</w>
成 敗</w>
常 盤</w>
宗 像</w>
安 価</w>
大 隊</w>
在 家</w>
刀 剣</w>
公 爵</w>
公 文</w>
俊 成</w>
キ ロ
ふ さ</w>
す じ</w>
こう じ</w>
く ろ</w>
2 50</w>
19 38</w>
159 8</w>
須 磨</w>
鉱 山</w>
金 銅</w>
貞 治</w>
藤 壺</w>
終 焉</w>
篠 山</w>
石 井</w>
田 畑</w>
漢 学</w>
清 洲</w>
決 着</w>
本因 坊</w>
曾 我</w>
書 風</w>
新 井</w>
意 匠</w>
山 王</w>
奔 走</w>
墾 田</w>
同 書</w>
同 意</w>
反 撃</w>
勅 令</w>
分 国</w>
具 材</w>
入り 口</w>
光 圀</w>
個 々</w>
会 見</w>
不 破</w>
ス ク</w>
なら び</w>
た ん
こと ば</w>
け ん
き れ</w>
S A
鴎 外</w>
駅 弁</w>
風 呂</w>
阻 止</w>
選 出</w>
進 歩</w>
踏 襲</w>
表 明</w>
自 衛</w>
臣 従</w>
義 村</w>
義 晴</w>
精 華</w>
祟 り</w>
用 明</w>
環 状</w>
片 桐</w>
災 害</w>
村 落</w>
未 だ</w>
替 わ</w>
救 援</w>
感 覚</w>
徳 子</w>
川 上</w>
屯 田</w>
密 接</w>
宰 相</w>
実 隆</w>
宛 て</w>
参 道</w>
協 定</w>
分 岐</w>
信 憑</w>
以 南</w>
交 戦</w>
中 書</w>
不 利</w>
上 昇</w>
ヴ ィ
シ ーン</w>
も はや</w>
たと え</w>
す め</w>
185 9</w>
157 5</w>
馬 頭</w>
飛 鳥井</w>
飛 行</w>
隼 人</w>
長 寿</w>
重 複</w>
里 小路</w>
部 下</w>
連 ね</w>
輝 元</w>
軍 部</w>
見 物</w>
脇 侍</w>
義 光</w>
罷 免</w>
緩 行</w>
箇 条</w>
田 沼</w>
無 し</w>
海 賊</w>
海 水</w>
流 し</w>
決 戦</w>
気 象</w>
木 綿</w>
志 賀</w>
寝 殿</w>
夫 妻</w>
大 治</w>
夜 間</w>
変 動</w>
合 体</w>
反 論</w>
南 海</w>
千 鳥</w>
再 現</w>
内 蔵</w>
作 用</w>
享 和</w>
上 賀茂</w>
万 里小路</w>
ス ピ
コ ミュ
ア ン</w>
や り
の せ</w>
が かり</w>
あ ん
196 2</w>
196 1</w>
118 1</w>
高 崎</w>
顕 如</w>
関 わり</w>
金 閣</w>
農 耕</w>
賞 賛</w>
装 備</w>
義 澄</w>
籠 も</w>
秀 郷</w>
物 理</w>
渡 し</w>
深 刻</w>
泰 盛</w>
気 候</w>
札 幌</w>
本 居</w>
擁 護</w>
撤 去</w>
扇 子</w>
恨 み</w>
忠 盛</w>
忠 平</w>
帯 び</w>
崇 拝</w>
定 ま</w>
宇 陀</w>
大 弐</w>
大 安</w>
大 事</w>
半 年</w>
内 地</w>
伺 え</w>
ホ ール</w>
ベ ット</w>
じ ょう
黄 金</w>
黄 泉</w>
首 長</w>
陸 上</w>
金 色</w>
起 点</w>
赤 坂</w>
課 題</w>
見 事</w>
補 助</w>
行 長</w>
蒔 絵</w>
置 き
累 進</w>
笑 い</w>
発 明</w>
甘 露</w>
爵 位</w>
演 技</w>
淳 仁</w>
氏 綱</w>
歩 合</w>
格 子</w>
曖 昧</w>
普 賢</w>
新 宿</w>
支 線</w>
接 触</w>
後 ろ</w>
序 文</w>
北 宋</w>
円 珍</w>
入 城</w>
五 行</w>
乙 訓</w>
コン クリ
コンクリ ート</w>
ア ール</w>
さ つ</w>
さ し</w>
あた ご</w>
19 39</w>
16 14</w>
高 国</w>
食 べ
闘 争</w>
金 融</w>
野 口</w>
通 宝</w>
近 づ</w>
踏 歌</w>
資 源</w>
豪 華</w>
見 立て</w>
見 出</w>
衣 笠</w>
義 和</w>
義 信</w>
空 港</w>
相 伝</w>
源 五</w>
泉 涌</w>
模 写</w>
日 朝</w>
改 訂</w>
撃 破</w>
川 端</w>
川 崎</w>
家 司</w>
宗 旦</w>
安 田</w>
大 鏡</w>
夕 方</w>
墨 画</w>
地 点</w>
同 名</w>
合 格</w>
取り 組</w>
参 陣</w>
医 療</w>
初 出</w>
三 方</w>
ワ ーク</w>
ラ イン</w>
ジョ ン</w>
コミュ ニ
ガ ラス</w>
ア レ
ら せ</w>
か ま
159 5</w>
風 流</w>
頂 点</w>
降 臨</w>
軍 制</w>
讒 言</w>
討ち 入り</w>
緩 和</w>
管 長</w>
疫 病</w>
牛 肉</w>
熟 成</w>
無 人</w>
活 字</w>
村 重</w>
本 土</w>
書 家</w>
景 行</w>
故 人</w>
悲 し</w>
山 県</w>
山 南</w>
対 峙</w>
寛 元</w>
定 説</w>
定 子</w>
官 物</w>
大韓 民国</w>
大 君</w>
多 少</w>
売 却</w>
坊 城</w>
地 子</w>
在 住</w>
回 転</w>
回 収</w>
呼 応</w>
剥 奪</w>
促 進</w>
九 十</w>
中 隊</w>
カツ 丼</w>
ば な</w>
さか のぼ</w>
この 世</w>
か み
19 36</w>
0 0
近 侍</w>
討ち 死に</w>
自 立</w>
編 年</w>
絵 巻物</w>
簡 略</w>
競 争</w>
移り 住</w>
石 碑</w>
源 光</w>
注 文</w>
校 長</w>
東 郷</w>
日 市</w>
斉 明</w>
按 察
按察 使</w>
悪 党</w>
当 駅</w>
広 域</w>
平 民</w>
富 子</w>
天 領</w>
大 映</w>
嘉 応</w>
勅 旨</w>
働 き
修 業</w>
供 奉</w>
住 人</w>
伴 奏</w>
中 津</w>
下 ろ</w>
ペ ージ</w>
バ ラ</w>
デ ビュー</w>
ジ ン</w>
み こと</w>
なか なか</w>
つ なが
た く
あ の</w>
騒 ぎ</w>
食 器</w>
震 災</w>
長 篠</w>
鐘 楼</w>
鍛 冶</w>
進 撃</w>
送 り
認 可</w>
行 家</w>
華 道</w>
航 海</w>
興 国</w>
精 霊</w>
秘 仏</w>
破 風</w>
皇 太</w>
渡 航</w>
権 門</w>
日 本
拝 謁</w>
抗 戦</w>
後 小松</w>
後 代</w>
彰 子</w>
孝 允</w>
太 政官</w>
垂 仁</w>
坊 門</w>
土 木</w>
呼び かけ</w>
別 人</w>
円 仁</w>
内 記</w>
六 十</w>
保 証</w>
使 い</w>
以 北</w>
京 橋</w>
乗 客</w>
丹 羽</w>
ロ ー</w>
ア カ
ま と
は か</w>
こ ん</w>
高 官</w>
隊 長</w>
開 眼</w>
規 格</w>
草 津</w>
縁 戚</w>
線 香</w>
私 鉄</w>
発 願</w>
潜 伏</w>
漱 石</w>
満 仲</w>
洋 画</w>
極 端</w>
本 館</w>
本 地</w>
新 書</w>
教 化</w>
思 議</w>
帰 郷</w>
布 団</w>
実 美</w>
子 ども</w>
天 徳</w>
売 り
囲 碁</w>
古 筆</w>
取り 込</w>
千 石</w>
割 れ</w>
八 瀬</w>
光 琳</w>
優 勢</w>
仁 徳</w>
ヴ ェ
ル ーツ</w>
ブ ランド</w>
テ ン</w>
チェ ーン</w>
ク ラス</w>
つなが り</w>
さ くら</w>
か たち</w>
12 00</w>
首 謀</w>
鎮 西</w>
通 路</w>
車 線</w>
観 世
要 望</w>
衝 撃</w>
血 筋</w>
藩 校</w>
義 太夫</w>
私 立</w>
禁 制</w>
相 楽</w>
白 山</w>
生 徒</w>
瀬 田</w>
正 中</w>
止 ま</w>
歌 謡</w>
本 庁</w>
未 満</w>
日 々</w>
料 亭</w>
斑 鳩</w>
招 聘</w>
廃 寺</w>
岩 戸</w>
宗 務</w>
土 豪</w>
和 議</w>
同 義</w>
吉 原</w>
合 意</w>
判 事</w>
公 記</w>
元 亨</w>
便 所</w>
人 生</w>
主 祭</w>
中 平</w>
七 夕</w>
デ ン
チ ン</w>
チ ュ
サ ン</w>
や む
は い</w>
え れ</w>
u r
h a</w>
鹿 苑</w>
鳴 ら</w>
長 兄</w>
郊 外</w>
道 徳</w>
謁 見</w>
蔵 王</w>
花 鳥</w>
考 証</w>
移 民</w>
直 属</w>
特 有</w>
激 戦</w>
渤 海</w>
法 会</w>
水 墨</w>
桑 田</w>
文 安</w>
指 名</w>
打ち 出</w>
成 就</w>
強 引</w>
康 平</w>
序 列</w>
年 末</w>
市 制</w>
巧 み</w>
女 優</w>
大 垣</w>
大 勢</w>
在 原</w>
困 窮</w>
叔 母</w>
化 け</w>
募 集</w>
写 経</w>
再 編</w>
全 集</w>
伐 採</w>
ワ イ</w>
スト ラン</w>
シ ート</w>
ふ る</w>
た か</w>
さ め</w>
が し</w>
19 16</w>
10 3</w>
長 矩</w>
造 立</w>
辞 典</w>
質 量</w>
豪 商</w>
豊 島</w>
護 摩</w>
請 け
脱 走</w>
繰り 広げ</w>
継 嗣</w>
禁 裏</w>
石 州</w>
生 れ</w>
検 断</w>
東 山道</w>
本 体</w>
新 年</w>
新 家</w>
接 待</w>
排 斥</w>
廃 仏</w>
庁 舎</w>
尊 重</w>
官 幣</w>
学 研</w>
妻 子</w>
堀 田</w>
城 陽</w>
回 向</w>
反 抗</w>
原 理</w>
勧 学</w>
光 格</w>
先 進</w>
僧 兵</w>
傑 作</w>
倫 理</w>
伝 法</w>
仁 治</w>
事 変</w>
レ ストラン</w>
ル ール</w>
リ ズム</w>
パ ート</w>
オー プン</w>
い まだ</w>
あ ら</w>
160 1</w>
159 9</w>
158 0</w>
黄 色</w>
香 炉</w>
開 戦</w>
鍋 島</w>
鉄 板</w>
酸 化</w>
退 助</w>
負 名</w>
護 衛</w>
芸 者</w>
米 国</w>
福 祉</w>
禁 門</w>
祝 詞</w>
町 三条</w>
王 院</w>
海 戦</w>
正親 町三条</w>
栄 養</w>
服 装</w>
新 八</w>
慶 應</w>
征 韓</w>
島 原</w>
居 所</w>
専 制</w>
存 命</w>
名 門</w>
名 義</w>
史 観</w>
北 斎</w>
佐 々</w>
以 西</w>
京 大</w>
五 輪</w>
三 木</w>
ナ ン
コ ト</w>
け り</w>
か え
あ いだ</w>
14 67</w>
頼 信</w>
閑 院</w>
金 貨</w>
花 街</w>
美 福
美福 門院</w>
節 句</w>
知 盛</w>
牡 丹</w>
熾 仁</w>
源 義仲</w>
極 官</w>
束 帯</w>
抹 茶</w>
戦 線</w>
成 田</w>
後 ろ
幕 藩</w>
密 告</w>
委 任</w>
天 龍</w>
大 石
境 地</w>
基 房</w>
土 師</w>
吉 岡</w>
北 面</w>
動 揺</w>
出 挙</w>
内 宮</w>
修 法</w>
久 邇
中 核</w>
中 断</w>
下 地</w>
スル ッと</w>
シ ェ
ア ム</w>
ま わ</w>
ふ れ</w>
と らえ</w>
つ こ</w>
うか が</w>
K AN
KAN SA
願 い出</w>
顕 家</w>
随 筆</w>
隆 景</w>
院 庁</w>
長 老</w>
鈴 鹿</w>
起 草</w>
融 合</w>
義 塾</w>
織 部</w>
練 習</w>
称 名</w>
祖 母</w>
益 田</w>
産 物</w>
生 業</w>
法 制</w>
歌 右衛門</w>
梵 鐘</w>
暮 れ</w>
支 所</w>
律 師</w>
当 て
弱 体</w>
小 学</w>
報 恩</w>
命 日</w>
反 面</w>
内 乱</w>
会 談</w>
他 国</w>
仏 堂</w>
久邇 宮</w>
久 寿</w>
中 大兄</w>
上 代</w>
一 人
ミ ン</w>
マ グ
ス ク
り 受け</w>
ま す
は ん
の ぶ</w>
に ぎり</w>
く さ</w>
185 7</w>
158 6</w>
158 4</w>
117 9</w>
騎 射</w>
雑 役</w>
集 結</w>
集 権</w>
開 花</w>
長 良</w>
護 院</w>
親 房</w>
西 京極</w>
藤 井</w>
英 国</w>
聞 こえ</w>
聖 護院</w>
粛 清</w>
真 っ
看 板</w>
生 家</w>
狭 間</w>
演 説</w>
正 信</w>
本 数</w>
有 能</w>
晴 れ</w>
方 角</w>
数 え
排 出</w>
後 退</w>
年 賀</w>
帰 り</w>
大 本山</w>
大 小</w>
外 宮</w>
地 盤</w>
土 曜</w>
土 倉</w>
勘 平</w>
再 生</w>
八 重</w>
全 権</w>
光 孝</w>
個 別</w>
俳 名</w>
俘 囚</w>
上 がり</w>
ベ トナム</w>
バイ パス</w>
やむ な</w>
の 間</w>
ど れ</w>
とど め</w>
と て
ぎ ょ</w>
お こ</w>
158 3</w>
長 禄</w>
辺 り</w>
請け 負</w>
行 成</w>
自 家</w>
空 気</w>
着 け</w>
特 産</w>
焼 け</w>
無 くな</w>
民 法</w>
横 山</w>
権 帥</w>
本 草</w>
損 害</w>
所 作</w>
急 激</w>
応 用</w>
延 文</w>
平 時</w>
大 仏殿</w>
壱 岐</w>
国 書</w>
国 事</w>
呉 服</w>
医 者</w>
公 衆</w>
侵 入</w>
中 山道</w>
三 菱</w>
ニ ニ
カ リ
ゆ う
まつ わ</w>
ど ん
し っ
かね て</w>
l l
185 3</w>
鰹 節</w>
高 雄</w>
食 糧</w>
雷 神</w>
長 享</w>
銘 文</w>
違 え</w>
追 撃</w>
趣 旨</w>
詔 勅</w>
裏 付け</w>
藩 邸</w>
花 粉</w>
色 紙</w>
能 勢</w>
羽 林</w>
確 執</w>
石 塔</w>
短 縮</w>
盛 衰</w>
王 妃</w>
片 山</w>
激 化</w>
浴 び</w>
正 盛</w>
歌 壇</w>
材 質</w>
惣 村</w>
形 骸</w>
延 慶</w>
康 保</w>
平 賀</w>
宝 治</w>
学 芸</w>
大 隅</w>
名 声</w>
勾 玉</w>
公 務</w>
仕 官</w>
中 立</w>
両 軍</w>
一 言</w>
一 層</w>
一 大</w>
ル ク</w>
ス ケ
わ ざ
る ま</w>
ふ さ
じ ん
か ぶ
KANSA I</w>
118 9</w>
髪 型</w>
青 木</w>
銀 閣</w>
重 源</w>
重 き</w>
都 落ち</w>
貞 時</w>
諸 将</w>
詔 書</w>
終 点</w>
箱 根</w>
種 別</w>
短 期</w>
盛 岡</w>
水 口</w>
歌 道</w>
旧 領</w>
拝 観</w>
感 情</w>
引 っ
川 中島</w>
屋 形</w>
定 信</w>
奴 婢</w>
女 人</w>
和 様</w>
和 与</w>
台 東</w>
卿 記</w>
充 て</w>
二 の丸</w>
ヒ ット</w>
ニ ー</w>
キ ュ
カ ル</w>
ふ く</w>
とて も</w>
ぐ らい</w>
き 出</w>
か じめ</w>
あ ま
食 感</w>
頼 忠</w>
頭 部</w>
金 子</w>
農 地</w>
軍 役</w>
走 行</w>
衰 微</w>
舞 楽</w>
興 業</w>
立 后</w>
環 濠</w>
牽 制</w>
火 事</w>
楽 曲</w>
木 曾</w>
朗 詠</w>
替 わり</w>
揃 え</w>
手 事</w>
心 理</w>
当 寺</w>
市 販</w>
寺 号</w>
安 東</w>
守 り</w>
土 塁</w>
嘉 禎</w>
合 理</w>
円 山</w>
六 男</w>
公 民</w>
与 謝</w>
ニニ ギ</w>
セン チ</w>
も の
さ だ</w>
あら かじめ</w>
高 弟</w>
養 和</w>
順 調</w>
面 会</w>
電 子</w>
関 所</w>
逃 走</w>
身 長</w>
調 停</w>
観 阿弥</w>
親 指</w>
裏 面</w>
経 費</w>
純 粋</w>
突 入</w>
画 面</w>
洪 水</w>
洋 服</w>
殺 人</w>
正 法</w>
正 和</w>
有 無</w>
書 名</w>
時 計</w>
日本 橋</w>
怪 談</w>
応 安</w>
志 向</w>
徴 税</w>
御 厨</w>
年 月</w>
巻 名</w>
山 地</w>
小 隊</w>
孝 徳</w>
合 議</w>
参 列</w>
南 下</w>
勤 行</w>
刃 傷</w>
出 荷</w>
具 足</w>
像 高</w>
傀 儡</w>
仕 掛け</w>
二 百</w>
主 題</w>
丘 陵</w>
不 在</w>
下 位</w>
一 応</w>
チ ーフ</w>
セン チ
キ ン</w>
オ ケ</w>
れ ど</w>
み 込</w>
はる か</w>
だ て</w>
た っ
す め
ぐ り</w>
か る</w>
お も</w>
お にぎり</w>
う じ</w>
あら すじ</w>
あえ て</w>
ISB N
185 4</w>
鴈 治郎</w>
離 縁</w>
集 成</w>
開 創</w>
長 井</w>
郎 女</w>
邪 馬</w>
週 間</w>
辞 世</w>
調 子</w>
草 創</w>
組 頭</w>
紀 伝道</w>
立 法</w>
発 端</w>
疏 水</w>
生 誕</w>
物 質</w>
牛 丼</w>
熱 田</w>
灯 籠</w>
派 手</w>
波 多野</w>
永 承</w>
毛 野</w>
正 慶</w>
根 強</w>
書 画</w>
文 官</w>
擾 乱</w>
応 え</w>
微 妙</w>
後 日</w>
建 白</w>
孤 立</w>
大 鼓</w>
増 や</w>
古 都</w>
南 東</w>
別 荘</w>
初 年</w>
出 口</w>
再 婚</w>
入 唐</w>
働き かけ</w>
仕 込み</w>
下 着</w>
一 生</w>
ー タ</w>
ミ ュー
センチ メートル</w>
カラ オケ</w>
イ ワ
アイ ヌ</w>
わ ざ</w>
づ る</w>
ちょう ど</w>
ざ け</w>
こ し</w>
く だ
お し
え ん
160 2</w>
115 9</w>
高 原</w>
酒 造り</w>
遷 宮</w>
道 誉</w>
連 署</w>
転 用</w>
解 除</w>
良 く</w>
義 理</w>
絵 図</w>
源 信</w>
減 ら</w>
沼 田</w>
氏 子</w>
氏 姓</w>
晴 信</w>
旧 家</w>
文 体</w>
接 収</w>
恭 順</w>
忠 清</w>
忠 勝</w>
志 摩</w>
広 瀬</w>
尊 攘</w>
専 売</w>
寛 延</w>
実 績</w>
奥 羽</w>
多 宝塔</w>
増 補</w>
善 光</w>
同 等</w>
同 寺</w>
各 藩</w>
口 伝</w>
危 惧</w>
別 邸</w>
兵 法</w>
八 角</w>
八 景</w>
入 浴</w>
先 行</w>
仁 平</w>
中 古</w>
不 審</w>
下 町</w>
ンド ン</w>
ド ア</w>
ッ ション</w>
スル ー</w>
カ 国</w>
ア ップ</w>
こ だ
いわ ば</w>
S u
158 7</w>
魏 志</w>
遂 行</w>
負 け</w>
観世 音</w>
見 つけ</w>
藩 閥</w>
莫 大</w>
茶 器</w>
良 質</w>
築 地</w>
祝 い</w>
相 場</w>
淡 海</w>
淀 屋
淀屋 橋</w>
水 準</w>
武 徳</w>
正 妻</w>
早 稲田</w>
断 念</w>
数え 年</w>
容 保</w>
安 和</w>
季 語</w>
天 海</w>
多 摩</w>
坊 主</w>
坂 田</w>
地 面</w>
嘉 暦</w>
千代 田</w>
冷 や</w>
公 称</w>
保 障</w>
伏 せ</w>
ヶ 谷</w>
メン バー</w>
チ ベット</w>
ダ ン</w>
ズ ス</w>
ステ ィ
コン ブ</w>
イエ ズス</w>
ア ル</w>
た れ</w>
た ど</w>
う つ</w>
15 65</w>
駆け つけ</w>
饗 応</w>
順 徳</w>
階 段</w>
開 き</w>
重 大</w>
道 成</w>
運 慶</w>
連 な</w>
贈 答</w>
護 国</w>
認 知</w>
西 家</w>
草 壁</w>
義 親</w>
神 聖</w>
皇 籍</w>
異 常</w>
用 掛</w>
生 成</w>
犠 牲</w>
河 越</w>
氏 政</w>
日 子</w>
折 り返</w>
憲 政</w>
建 暦</w>
廊 下</w>
尊 称</w>
学 士</w>
婚 約</w>
墨 書</w>
図 案</w>
千 種</w>
交 互</w>
丸 山</w>
一 角</w>
ル ス</w>
ラン ス</w>
ペ リー</w>
ティ ー</w>
ケー ブル</w>
り 付け</w>
ぼ り</w>
ふ ん</w>
だ ん
す が</w>
じ ゅう
し き
か す</w>
9 00</w>
黒 澤</w>
除 け</w>
長 寛</w>
鎮 台</w>
銅 像</w>
調 印</w>
菊 花</w>
草 紙</w>
良 好</w>
綸 旨</w>
結 合</w>
米 原</w>
秀 長</w>
正 税</w>
明 かり</w>
新 平</w>
摂 社</w>
承 元</w>
忠 誠</w>
応 保</w>
幽 霊</w>
布 施</w>
小 出</w>
家 長</w>
宇 宙</w>
大 別</w>
坐 禅</w>
四 辻</w>
取 扱</w>
十 字</w>
割 り</w>
公 文書</w>
人 伝</w>
下 田</w>
七 十</w>
一 座</w>
ル ド</w>
マ ーク</w>
ハ ー
ス ギ</w>
ギ ャ
ア ミ
ふ ん
じ り</w>
うか がえ</w>
a s
160 3</w>
防 戦</w>
長 秀</w>
鎮 撫</w>
銭 貨</w>
連 載</w>
追 号</w>
諸 家</w>
維 盛</w>
真 如</w>
直 衣</w>
画 風</w>
甲 陽</w>
狩 猟</w>
演 歌</w>
測 量</w>
永 暦</w>
次 期</w>
検 出</w>
月 ヶ瀬</w>
攻 勢</w>
指 南</w>
恋 愛</w>
急 遽</w>
心 中</w>
康 和</w>
小 野
宗 門</w>
孝 景</w>
天 元</w>
大 崎</w>
周 年</w>
分 散</w>
児 童</w>
充 実</w>
元 徳</w>
世 子</w>
七 郎</w>
レ ベル</w>
ミュー ジ
ポ ー
パ ン
ネ ット
ク ル</w>
キャ ラ
が み</w>
か わり</w>
か ど</w>
餓 鬼</w>
遊 行</w>
西 村</w>
蒙 古</w>
若 手</w>
胎 蔵</w>
簡 素</w>
競 合</w>
立 川</w>
石 原</w>
漬 物</w>
滋 子</w>
渡 り</w>
東 大路</w>
旧 事</w>
撰 者</w>
振 る
後 援</w>
布 陣</w>
屋 島</w>
小 田</w>
宴 会</w>
宝 珠</w>
大 口</w>
報 道</w>
商 務</w>
吹 負</w>
分 解</w>
会 計</w>
仁 孝</w>
レ ス</w>
ル ム</w>
リ エ
フ ル</w>
サイ ズ</w>
エ レ
の 神</w>
ず し</w>
すめ ら
あ なた</w>
ic a</w>
馬 術</w>
類 従</w>
隔 て</w>
開 校</w>
開 墾</w>
金 箔</w>
金 具</w>
追 求</w>
農 林</w>
車 内</w>
賤 ヶ岳</w>
財 源</w>
詳 述</w>
角 川</w>
袈 裟</w>
融 通</w>
膨 大</w>
義 平</w>
穀 物</w>
皮 肉</w>
狩 衣</w>
比 率</w>
欠 かせ</w>
梅 小路</w>
柔 道</w>
本 国</w>
明 院</w>
明 け
斡 旋</w>
政 長</w>
政 体</w>
改 暦</w>
捧 げ</w>
折 れ</w>
手 間</w>
手 続き</w>
所 要</w>
弓 削</w>
山 笠</w>
山 村</w>
小 泉</w>
対 比</w>
寛 保</w>
嫌 い</w>
女 形</w>
多 聞</w>
回 数</w>
千 載</w>
効 率</w>
別 格</w>
写 実</w>
偏 諱</w>
保 全</w>
依 存</w>
京 丹後</w>
亡 命</w>
之 介</w>
不 施</w>
モ チーフ</w>
ム ス
フロ イス</w>
ジャン ル</w>
サ クラ</w>
ウ イ
アニ メ</w>
ん と</w>
は し
ぜ ん
すめら みこと</w>
さ かん</w>
け 出</w>
か い
お き</w>
157 1</w>
食べ 物</w>
順 序</w>
離 婚</w>
阪 東</w>
金 森</w>
近 郊</w>
賠 償</w>
貴 人</w>
証 言</w>
覚 悟</w>
給 与</w>
紫 宸</w>
発 電</w>
番 地</w>
生 田</w>
流 れ
正 安</w>
本 質</w>
朝 政</w>
明 か</w>
方 言</w>
政 争</w>
御 苑</w>
川 原</w>
岩 崎</w>
山 車</w>
専 ら</w>
対 等</w>
寺 伝</w>
学 区</w>
夢 窓</w>
夜 行</w>
城 代</w>
各 々</w>
台 風</w>
印 譜</w>
北 東</w>
前 面</w>
制 約</w>
元 中</w>
住 ま</w>
伝 播</w>
五 色</w>
不 思議</w>
ロ ンドン</w>
ロ ック</w>
プロ ジェ
ビ ジ
ビ エル</w>
ト ル
ス ープ</w>
ザ ビエル</w>
ギ リ
ガ ラ
k g</w>
貫 之</w>
見 舞</w>
西 川</w>
蜘 蛛</w>
緊 張</w>
結 論</w>
純 友</w>
突 破</w>
神 木</w>
異 国</w>
特 異</w>
無 実</w>
洋 風</w>
法 住</w>
歌 川</w>
梅 林</w>
柳 本</w>
林 家</w>
未 来</w>
期 限</w>
数 珠</w>
散 逸</w>
掛 か</w>
戦 術</w>
庄 屋</w>
広 隆</w>
広 場</w>
常 世</w>
小 鼓</w>
官 途</w>
好 評</w>
女 中</w>
大 倉</w>
地 球</w>
唐 辛子</w>
原 野</w>
勲 等</w>
到 達</w>
別 雷</w>
出 せ</w>
停 滞</w>
供 物</w>
作 庭</w>
伝 達</w>
且 元</w>
不 仲</w>
上 奏</w>
三 女</w>
一 元</w>
ヶ 条</w>
プロジェ クト</w>
ネット ワーク</w>
ニ ュ
や つ</w>
び わ</w>
ひ ら
そ ん</w>
す え</w>
こ も</w>
き 上げ</w>
18 48</w>
順 次</w>
隠 元</w>
近江 八幡</w>
警 視</w>
英 雄</w>
美 女</w>
粟 田</w>
筑 波</w>
秀 衡</w>
神 明</w>
盛 大</w>
町 内</w>
現 役</w>
火 薬</w>
満 た</w>
深 川</w>
活 性</w>
沿 道</w>
松 島</w>
方 墳</w>
文 保</w>
教 室</w>
成 氏</w>
徳 山</w>
従 属</w>
後 紀</w>
強 大</w>
延 徳</w>
山 岡</w>
少 量</w>
射 撃</w>
安 井</w>
咎 め</w>
名 代</w>
創 造</w>
処 置</w>
入 江</w>
傍 ら</w>
五 右衛門</w>
二 宮</w>
久 美
下 巻</w>
上 海</w>
ハ ウス</w>
グ リ
キ ング</w>
ウ ン
ア ラ
ます ます</w>
まさ に</w>
ま たが</w>
ま か</w>
せ き</w>
しゅ ん</w>
しゃ く</w>
が い</w>
8 06</w>
18 42</w>
157 8</w>
駆 け</w>
題 目</w>
頻 発</w>
霊 山</w>
西 陣</w>
西 洞院</w>
自 邸</w>
膳 所</w>
脚 気</w>
羅 蜜</w>
羅 漢</w>
経 久</w>
紫 野</w>
秀 政</w>
秀 信</w>
神 人</w>
磯 城</w>
破 却</w>
男 神</w>
洛 外</w>
洋 食</w>
氏 康</w>
武 人</w>
様 相</w>
条 文</w>
放 置</w>
掛 軸</w>
挨 拶</w>
手 腕</w>
悲 しみ</w>
患 者</w>
彼 岸</w>
当 事</w>
弘 前</w>
建 国</w>
廃 嫡</w>
広 嗣</w>
平 群</w>
市 中</w>
川 島</w>
導 師</w>
富 士
始 末</w>
大 連</w>
執 政</w>
国 定</w>
回 し</w>
唐 橋</w>
和 島</w>
合 せ</w>
取り 戻</w>
化 身</w>
加 担</w>
信 秀</w>
俗 説</w>
侵 略</w>
体 裁</w>
令 旨</w>
代 替</w>
今 上</w>
人 類</w>
久 遠</w>
上 宮</w>
ロッ コ</w>
プ ル</w>
タ マ</w>
インター ネット</w>
ま と</w>
つ く
つ ぎ</w>
ち か</w>
じ ゃ
さ と</w>
か け
o n</w>
7 64</w>
18 35</w>
157 9</w>
高 経</w>
駆 逐</w>
閻 魔</w>
避 難</w>
道 祖</w>
通 交</w>
返 り</w>
近 松</w>
起 用</w>
貯 蔵</w>
複 合</w>
若 松</w>
義 直</w>
結 集</w>
画 期</w>
男 山</w>
甘 味</w>
珠 光</w>
欧 州</w>
本 領</w>
望 月</w>
日 系</w>
散 見</w>
敗 死</w>
技 能</w>
成り 立</w>
慈 円</w>
御 方</w>
後 漢</w>
広 沢</w>
平 戸</w>
師 実</w>
富 樫</w>
実 情</w>
定 番</w>
宇 和島</w>
天 喜</w>
嘉 元</w>
右 筆</w>
右 側</w>
友 好</w>
占 い</w>
協 同</w>
千 里</w>
勲 位</w>
刑 罰</w>
八 王子</w>
侍 女</w>
仇 討ち</w>
交 付</w>
五 三</w>
マ スコ
ピ ック</w>
バ ラ
ノ キ</w>
ト ップ</w>
タ レ</w>
ス チ
サ ビ</w>
コン ビ
クリ ーム</w>
た し</w>
か め</w>
か ま</w>
e r</w>
高 次</w>
馬 上</w>
電 力</w>
釜 山</w>
野 田</w>
起 請</w>
謝 野</w>
紀 伝</w>
秘 書</w>
秀 で</w>
祭 典</w>
祖 神</w>
示 唆</w>
石 燕</w>
真 似</w>
点 在</w>
濃 度</w>
構 図</w>
朝 敵</w>
明 る</w>
昌 幸</w>
新 規</w>
新 田辺</w>
敷 き</w>
捕 鯨</w>
意 志</w>
急 進</w>
御 魂</w>
彫 り</w>
平 方</w>
幕 閣</w>
常 設</w>
崇 光</w>
尋 常</w>
実 証</w>
定 住</w>
妨 害</w>
女 流</w>
城 崎</w>
吉 右衛門</w>
収 取</w>
友 禅</w>
効 力</w>
加 悦</w>
前 代</w>
別 個</w>
出 かけ</w>
入 水</w>
俗 姓</w>
使 え</w>
佐 和</w>
人 格</w>
中 身</w>
一 線</w>
セ ン</w>
ウ ル</w>
と れ</w>
つ いで</w>
ちゃ ん</w>
か さ
か げ</w>
u s
8 000</w>
117 7</w>
116 0</w>
鯨 肉</w>
飯 田</w>
長 島</w>
量 目</w>
野 川</w>
越 智</w>
記 者</w>
見 受け</w>
草 庵</w>
米 子</w>
着 工</w>
真 偽</w>
煉 瓦</w>
火 山</w>
法 眼</w>
池 坊</w>
永 観</w>
服 属</w>
有 数</w>
智 子</w>
招 提</w>
慶 雲</w>
心 得</w>
強 い</w>
建 議</w>
峯 山</w>
尽 き</w>
小 牧</w>
寺 子</w>
寛 和</w>
家 伝</w>
妥 当</w>
大 森</w>
大 塚</w>
基 地</w>
含 有</w>
古 川</w>
受 戒</w>
取り 除</w>
北 上</w>
動 乱</w>
副 使</w>
出 納</w>
兵 器</w>
光 悦</w>
信 康</w>
俊 寛</w>
便 利</w>
作 詞</w>
任 期</w>
任 国</w>
他 方</w>
人 麻呂</w>
五 島</w>
予 約</w>
中 野</w>
世 論</w>
与 謝野</w>
上 回</w>
ヶ 丘</w>
ッ カー</w>
ター ン</w>
キロ メートル</w>
め し</w>
ほ し</w>
は る</w>
き し</w>
お と
h a
16 12</w>
158 1</w>
高 貴</w>
食 い
阿 野</w>
開 放</w>
酒 類</w>
部 落</w>
選 抜</w>
適 切</w>
返 上</w>
譲 り</w>
西 口</w>
蒸 し</w>
立 地</w>
福 神</w>
神 託</w>
石 造</w>
直 冬</w>
申 次</w>
浦 島</w>
洗 練</w>
決 断</w>
業 界</w>
更 衣</w>
晦 日</w>
憲 実</w>
忠 常</w>
底 本</w>
干 支</w>
少 尉</w>
寸 法</w>
宣 伝</w>
宗 尊</w>
宗 十郎</w>
子 方</w>
姓 氏</w>
太 宰府</w>
天神 川</w>
変 質</w>
喪 失</w>
取り 締
収 ま</w>
反 感</w>
別 府</w>
切り 替え</w>
優 遇</w>
信 心</w>
俗 称</w>
任 那</w>
京 北</w>
事 物</w>
中 葉</w>
両 親</w>
一 世</w>
ピ ン</w>
ト リー</w>
シ ナ</w>
オ オ</w>
イ カ</w>
わ び</w>
び と</w>
つ もり</w>
か ぶ</w>
う ら</w>
16 19</w>
15 69</w>
騎 兵</w>
預 か</w>
鑑 定</w>
鏑 馬</w>
銀 山</w>
酒 呑</w>
諸 兄</w>
証 文</w>
言い 伝え</w>
視 点</w>
見 かけ</w>
虚 空
蔵 本</w>
苦 戦</w>
縁 日</w>
絵 詞</w>
空 襲</w>
移 設</w>
秋 月</w>
秀 家</w>
礼 装</w>
生 野</w>
物 件</w>
版 籍</w>
炎 上</w>
流 鏑馬</w>
洛 陽</w>
法 性</w>
油 小路</w>
水 産</w>
殺 し</w>
正 行</w>
樋 口</w>
桜 田</w>
木 像</w>
教 官</w>
捜 索</w>
後ろ 盾</w>
左 側</w>
安 宅</w>
子 規</w>
妥 協</w>
大石 寺</w>
大 物</w>
大 極</w>
告 示</w>
向 島</w>
史 記</w>
古 市</w>
受 験</w>
出 立</w>
冬 嗣</w>
傾 倒</w>
倭 王</w>
休 止</w>
伊 尹</w>
付 与</w>
人 工</w>
乗 務</w>
乃 木</w>
両 面</w>
下 流</w>
上 臈</w>
ヶ 池</w>
ニ ズム</w>
ドリ ーム</w>
タケ ル</w>
ジェ イ
アメ ノ
ア ナ
み りん</w>
13 38</w>
13 31</w>
黙 阿弥</w>
陶 磁器</w>
長 治</w>
長 け</w>
過 激</w>
運 搬</w>
踏 切</w>
豚 肉</w>
謀 叛</w>
藤 沢</w>
薬 子</w>
立 派</w>
突 如</w>
穴 穂
神 像</w>
破 棄</w>
的 屋</w>
白 米</w>
生 え</w>
現 われ</w>
玄 白</w>
狼 藉</w>
滑 稽</w>
溝 口</w>
渡 海</w>
浜 田</w>
洗 礼</w>
永 倉</w>
母 子</w>
模 索</w>
本 寺</w>
映 像</w>
断 行</w>
文 楽</w>
改 姓</w>
捕 え</w>
押 領</w>
押 小路</w>
房 前</w>
悪 人</w>
従 え</w>
弾 薬</w>
市 長</w>
山 階</w>
山 林</w>
将 監</w>
家 継</w>
天 竺</w>
大 膳</w>
大 獄</w>
地 侍</w>
回 答</w>
古 道</w>
古 田</w>
助 監督</w>
別 所</w>
八 咫</w>
先 頭</w>
元 親</w>
個 性</w>
住 所</w>
人 情</w>
上 層</w>
一 遍</w>
一 斉</w>
一 寸</w>
一 夜</w>
ムス ビ</w>
バ ランス</w>
ニ ャ
ト イ
カ ップ</w>
エ クス
り つ</w>
みず から</w>
ま れ
ぶ し</w>
ふさ わし</w>
ば し</w>
7 37</w>
185 5</w>
158 8</w>
領 事</w>
露 見</w>
霊 験</w>
集 会</w>
隅 田</w>
長 唄</w>
銅 銭</w>
重 鎮</w>
采 女</w>
遭 遇</w>
貴 船</w>
謡 曲</w>
見 舞い</w>
茹 で</w>
置き 換え</w>
穴穂 部</w>
療 養</w>
生 まれ
漁 業</w>
末 子</w>
木 町</w>
昌 泰</w>
施 策</w>
斎 王</w>
文 和</w>
推 し
押 し</w>
折 衷</w>
恐 怖</w>
待 避</w>
広 告</w>
山 手</w>
山 伏</w>
小 右記</w>
奪 取</w>
大 井</w>
在 職</w>
国 交</w>
和 平</w>
召 し
占 拠</w>
先 駆</w>
保 津</w>
仏 説</w>
介 類</w>
不 和</w>
上 越</w>
一 見</w>
フ リー</w>
タ マ
ジ ラ</w>
サ ク</w>
コミュニ ティ</w>
も ろ</w>
のみ や</w>
た た</w>
す ま</w>
しか け</w>
ご とく</w>
こと ごとく</w>
あ ず
18 40</w>
18 00</w>
17 00</w>
16 16</w>
159 3</w>
159 1</w>
13 35</w>
115 5</w>
高 頼</w>
題 名</w>
音 羽</w>
雇 用</w>
閉 塞</w>
鎮 め</w>
鋳 銭</w>
金 額</w>
酒 税</w>
邪 馬
諸 仏</w>
請 負</w>
語 り
虚空 蔵</w>
蔵 書</w>
芸 風</w>
肯 定</w>
美 山</w>
繁 殖</w>
網 野</w>
等 し</w>
禅 定</w>
神 崎</w>
破 綻</w>
真 備</w>
発 想</w>
略 記</w>
王 女</w>
水 谷</w>
水 田</w>
氏 郷</w>
毀 釈</w>
武 具</w>
欲 し</w>
横 川</w>
東 口</w>
木 簡</w>
日 韓</w>
方 広</w>
散 ら</w>
敗 退</w>
持 参</w>
扶 桑</w>
思 惑</w>
心 経</w>
延 期</w>
広 橋</w>
平 行</w>
寄 贈</w>
安 楽</w>
奇 襲</w>
天 禄</w>
大 木</w>
大 庭</w>
啓 蒙</w>
反 応</w>
分 派</w>
公 論</w>
先 陣</w>
倭 人伝</w>
信 盛</w>
俗 名</w>
両 統</w>
不 遇</w>
不 正</w>
不 受</w>
ワ カ</w>
ミ カン</w>
ス ラ
ジャ ー</w>
シ ン</w>
ア フ
れ ん
ひ で</w>
ひ っ
ひ がし</w>
な さ</w>
つ づ</w>
ず ら</w>
か 月</w>
18 43</w>
駐 屯</w>
飛 ば</w>
道 兼</w>
足 袋</w>
貞 盛</w>
譲 り受け</w>
誅 殺</w>
表 情</w>
落 葉</w>
茶 入</w>
自 在</w>
脱 藩</w>
背 中</w>
義 視</w>
義 材</w>
繋 がり</w>
結 社</w>
紋 様</w>
節 分</w>
筆 者</w>
竪 穴</w>
稲 作</w>
発 車</w>
甲 冑</w>
法 輪</w>
沢 庵</w>
比 良</w>
曽 我</w>
斉 彬</w>
敬 称</w>
教 経</w>
改 定</w>
引き 返</w>
座 席</w>
度 重な</w>
市 営</w>
左 中</w>
宮 川</w>
大 系</w>
増 設</w>
国 務</w>
嘉 禄</w>
喫 茶</w>
和 名</w>
名 分</w>
双 六</w>
半 済</w>
冠 者</w>
再 任</w>
元 正</w>
偶 然</w>
久美 浜</w>
世 尊</w>
ロ ール</w>
フラン シ
ハ ワイ</w>
ト ロッコ</w>
ト ラ</w>
コレ クション</w>
キャラ クター</w>
オ リ</w>
さ び</w>
ぐ う</w>
あ き</w>
高 徳</w>
須 弥</w>
銅 鐸</w>
重 成</w>
重 傷</w>
釈 尊</w>
遠 山</w>
運 輸</w>
進 学</w>
花 押</w>
自 国</w>
考 察</w>
緊 急</w>
統 領</w>
種 々</w>
神 宝</w>
着 目</w>
百 鬼</w>
略 奪</w>
用 法</w>
犯 人</w>
照 ら</w>
無 断</w>
流 刑</w>
水 路</w>
武 内</w>
正 体</w>
松 前</w>
新 作</w>
携 え</w>
帝 釈</w>
島 式</w>
岸 和田</w>
居 館</w>
少 納言</w>
家 慶</w>
室 内</w>
嫉 妬</w>
始 発</w>
多 額</w>
堤 防</w>
城 門</w>
土 俵</w>
土 井</w>
国 名</w>
取り 出</w>
参 画</w>
包 丁</w>
勤 王</w>
別 々</w>
出 典</w>
典 籍</w>
公 任</w>
元 日</w>
元 帥</w>
併 設</w>
他 界</w>
仕 込</w>
上 表</w>
一 豊</w>
カ ビ</w>
オリ ジ
ぽ う</w>
ふ た
ど し</w>
あ り
Su ica</w>
186 1</w>
116 6</w>
高 杉</w>
預 かり</w>
降 嫁</w>
開 扉</w>
適 当</w>
連 想</w>
退 社</w>
豊 田</w>
見 せ
西 条</w>
裁 定</w>
蓄 積</w>
蒸 留</w>
華 麗</w>
翌 月</w>
義 継</w>
紀 行</w>
皮 切り</w>
燃 料</w>
死 罪</w>
正 規</w>
根 付</w>
本 科</w>
本 作</w>
有栖 川</w>
明 子</w>
日 頃</w>
後 奈良</w>
弁 護</w>
建 礼</w>
廃 城</w>
平 泉</w>
展 覧</w>
墓 碑</w>
団 結</w>
四 角</w>
器 具</w>
反 逆</w>
動 作</w>
前 久</w>
切 妻</w>
出 向</w>
内 通</w>
作 中</w>
住 まい</w>
仙 石</w>
今 津</w>
人 柄</w>
交 友</w>
亀 井</w>
不 幸</w>
七 条</w>
ヶ 寺</w>
リッ トル</w>
マー ケット</w>
ボ ウ</w>
パ ターン</w>
トイ レ</w>
ト ヨ
ヅ チ</w>
スピ ード</w>
ジェイ アール</w>
ザ クラ</w>
サ ラ
グ ル</w>
オリジ ナル</w>
ひ さ</w>
が れ</w>
お ろ</w>
お でん</w>
いろ いろ</w>
い ら
7 57</w>
18 37</w>
159 6</w>
高 取</w>
頭 取</w>
面 影</w>
金 山</w>
遺 族</w>
運 命</w>
迭 立</w>
護 持</w>
議 院</w>
衆 徒</w>
苦 しめ</w>
航 路</w>
自 転</w>
職 制</w>
習 得</w>
義 長</w>
義 明</w>
種 子</w>
礼 服</w>
県 令</w>
産 出</w>
減 封</w>
海 老</w>
浴 衣</w>
正 門</w>
横 穴</w>
材 木</w>
杉 田</w>
末 社</w>
最 勝</w>
文 亀</w>
握 り
折り 紙</w>
承 暦</w>
批 評</w>
手 続</w>
成 瀬</w>
成 年</w>
庫 裏</w>
川 越</w>
小 野宮</w>
孔 子</w>
子 島</w>
女 系</w>
奉 幣</w>
天 目</w>
国 語</w>
収 益</w>
参 事</w>
単 線</w>
南 家</w>
動 機</w>
勅 語</w>
刺 繍</w>
内 陸</w>
共 産</w>
共 有</w>
傍 流</w>
借 金</w>
信 州</w>
佐 倉</w>
佐 久</w>
付 随</w>
他 宗</w>
仏 画</w>
久 政</w>
主 役</w>
一 益</w>
ライ バル</w>
ユ ー
プ リ
トー キー</w>
オリ ン
オ ロ
ま ち
ほ っ
ふ る
ひ ろ
は な
に ほん</w>
つ き
す すめ</w>
こ め</w>
お ん
185 2</w>
18 50</w>
18 49</w>
159 4</w>
120 3</w>
高 木</w>
高 位</w>
運 送</w>
足 尾</w>
見 込</w>
見 学</w>
裏 切</w>
荘 厳</w>
荒 れ</w>
若 菜</w>
臨 終</w>
聚 楽</w>
結び つけ</w>
経 宗</w>
紋 章</w>
粉 末</w>
篠 原</w>
秀 勝</w>
短 刀</w>
相 良</w>
監 察</w>
発 令</w>
母 体</w>
残 留</w>
楼 門</w>
校 訂</w>
板 倉</w>
最 低</w>
日 興</w>
新 嘗</w>
推し 進め</w>
技 師</w>
御 台所</w>
当 選</w>
工 藤</w>
尾 崎</w>
尊 像</w>
宣 化</w>
客 車</w>
委 ね</w>
大和 国</w>
大 義</w>
多 種</w>
多 岐</w>
外 地</w>
夏 目</w>
四 日市</w>
唐 物</w>
吉 見</w>
各 派</w>
台 詞</w>
古 文書</w>
取 材</w>
出 撃</w>
出 征</w>
全 部</w>
併 用</w>
伊 那</w>
享 徳</w>
不 要</w>
上 座</w>
七 男</w>
ボ ール</w>
ビジ ネス</w>
ッ ピ
チ ーム</w>
タイ トル</w>
タ ミン</w>
ウェ イ</w>
み せ</w>
ぼ ん</w>
な ん
とも かく</w>
ち ょ
せ つ</w>
ず み</w>
あ っ
o f
18 46</w>
18 38</w>
119 0</w>
音 頭</w>
鉄 筋</w>
里 山</w>
退 下</w>
賛 同</w>
貧 し</w>
行 軍</w>
著 述</w>
茶 葉</w>
編 者</w>
純 米</w>
神 主</w>
真 理</w>
無 効</w>
滝 口</w>
氷 上</w>
気 持ち</w>
毛 利
本 隊</w>
本 貫</w>
斉 昭</w>
採 録</w>
懐 石</w>
弘 長</w>
巨 椋</w>
川 柳</w>
小 僧</w>
客 殿</w>
宝 ヶ池</w>
奴 隷</w>
城 跡</w>
埋 め
土 間</w>
合 掌</w>
分 与</w>
刀 身</w>
具 合</w>
入 寺</w>
使い 分け</w>
仏 塔</w>
久 留
中 尊</w>
上 村</w>
リ スト</w>
ヨ リ</w>
マスコ ミ</w>
スポ ット</w>
ショ ウ</w>
み ょう
か し
お の
い き</w>
18 0</w>
157 6</w>
鶏 肉</w>
香 港</w>
風 呂
音 色</w>
防 備</w>
鉄 火</w>
達 人</w>
遊 戯</w>
謀 殺</w>
褒 章</w>
苦 労</w>
良 基</w>
美 貌</w>
築 山</w>
穂 積</w>
理 学</w>
火 鉢</w>
清 麻呂</w>
海 峡</w>
治 水</w>
榊 原</w>
桓 武
柳 沢</w>
日 月</w>
提 灯</w>
推 察</w>
振 袖</w>
愛 染</w>
御 物</w>
得 業</w>
後 妻</w>
後 光厳</w>
待 ち
式 典</w>
建 て
廃 業</w>
帰 洛</w>
屋 敷
対 処</w>
寺 家</w>
寄 与</w>
家 持</w>
学 僧</w>
増 発</w>
国 幣</w>
各 所</w>
古 式</w>
取り 扱</w>
原 典</w>
割 引</w>
切 手</w>
分 立</w>
信 虎</w>
作 例</w>
井 月</w>
二 世</w>
乾 漆</w>
万 蔵</w>
ワ サビ</w>
ライ ト</w>
マ ツ</w>
フォ ン</w>
デン プン</w>
デ ータ</w>
スー パー</w>
つ ら</w>
つ ま</w>
そ く</w>
す み
じ き</w>
ご ざ</w>
え い</w>
あ さ
a c
K T
16 33</w>
119 9</w>
高 師直</w>
額 面</w>
頼 房</w>
非 人</w>
靖 国</w>
隆 房</w>
陣 営</w>
長 命</w>
銅 山</w>
重 んじ</w>
護 送</w>
諌 め</w>
表 れ</w>
蘆 名</w>
落 と
花 火</w>
自 作</w>
腐 敗</w>
義 兄</w>
罪 人</w>
縫 い
私 有</w>
神 階</w>
神 域</w>
神 前</w>
社 家</w>
盲 人</w>
番 茶</w>
清 少納言</w>
消 極</w>
永 万</w>
殉 死</w>
次 代</w>
椅 子</w>
桶 狭間</w>
栄 華</w>
本 郷</w>
本 州</w>
未 亡
未亡 人</w>
承 諾</w>
承 保</w>
意 欲</w>
快 慶</w>
御 成敗</w>
御 子
幸 彦</w>
崇 峻</w>
家 領</w>
宗 達</w>
大 河内</w>
外 出</w>
基 実</w>
垂 れ</w>
土 屋</w>
回 廊</w>
唐 紙</w>
合 成</w>
口 実</w>
参 禅</w>
半 数</w>
勾 配</w>
准 后</w>
介 錯</w>
三 蔵</w>
ネ タ</w>
ニ ッ
テ キ
ソ ー
シン ボ
つ ぶ</w>
っ ぽ</w>
っ こ</w>
く に
お ぼ
a k
ISBN 4
A T
160 9</w>
160 6</w>
157 4</w>
13 0</w>
115 8</w>
香 取</w>
飛 躍</w>
頂 上</w>
静 か</w>
長 承</w>
長 久
鎮 魂</w>
遺 臣</w>
通 達</w>
講 演</w>
解 明</w>
血 脈</w>
薬 味</w>
蒲 鉾</w>
舎 那</w>
脅 威</w>
能 書</w>
絶 大</w>
結 界</w>
米 価</w>
禅 林</w>
禁 中</w>
確 証</w>
田 舎</w>
生 息</w>
無 名</w>
滅 び</w>
満 足</w>
清 河</w>
洛 西</w>
法 典</w>
治 兵衛</w>
死 因</w>
正 長</w>
歌 手</w>
橋 上</w>
松 風</w>
新 島</w>
支 社</w>
扇 谷</w>
戦 勝</w>
成 績</w>
必 須</w>
心 配</w>
式 家</w>
帝 王</w>
小 島</w>
容 堂</w>
宝 蔵</w>
奇 兵</w>
多 彩</w>
国 寺</w>
君 臨</w>
同 僚</w>
台 座</w>
卜 部</w>
包 括</w>
加 持</w>
初 名</w>
中 堂</w>
一 葉</w>
ビ ー</w>
パ ーク</w>
ニ ン
チャ ー</w>
オリン ピック</w>
ろ う
ま る
す っ
が き</w>
お 前</w>
え い
8 10</w>
6 000</w>
18 44</w>
160 7</w>
15 60</w>
首 脳</w>
飲 用</w>
閣 議</w>
長久 手</w>
長 柄</w>
鎮 護</w>
遭 難</w>
遣 隋</w>
造 像</w>
逆 転</w>
近 習</w>
誓 文</w>
見 送</w>
芙 蓉</w>
脱 亜</w>
種 子島</w>
秀 康</w>
社 領</w>
破 れ</w>
異 論</w>
田 村
爆 発</w>
為 家</w>
河 合</w>
気 づ</w>
毒 殺</w>
武 雄</w>
正 五位</w>
歌 会</w>
横 笛</w>
桓武 平氏</w>
東 塔</w>
朝 光</w>
文 言</w>
支 庁</w>
振る 舞い</w>
折 り</w>
幼 児</w>
帷 子</w>
帝 大</w>
山 川</w>
尼 寺</w>
少 佐</w>
小 辺</w>
対 決</w>
寄 宿</w>
守 貞</w>
奉 書</w>
外 来</w>
外 孫</w>
団 扇</w>
商 標</w>
商 工</w>
呼び 出</w>
古 史</w>
参 入</w>
再 会</w>
先 述</w>
以 内</w>
仕 組み</w>
仏 道</w>
交 野</w>
両 端</w>
三 百</w>
プ ト</w>
フィ リ
ハ ナ
トリ ック</w>
コ ノ
コ スト</w>
エレ ベ
べ ん</w>
ふじ わ</w>
ば ら</w>
ぬ き</w>
くだ さ</w>
く ま</w>
が たり</w>
あ け</w>
185 6</w>
185 1</w>
18 41</w>
面 目</w>
雅 信</w>
醗 酵</w>
部 位</w>
辞 書</w>
軍 鑑</w>
身 延</w>
足 立</w>
贈 位</w>
読 本</w>
補 給</w>
茶 筅</w>
能 員</w>
筆 跡</w>
秘 伝</w>
私 記</w>
神 棚</w>
真 相</w>
田 部</w>
田 口</w>
照 明</w>
漢 訳</w>
湯 沐</w>
法 界</w>
法 政</w>
武 尊</w>
校 舎</w>
書 式</w>
斜 面</w>
文 銭</w>
懐 妊</w>
当 局</w>
廃 棄</w>
康 暦</w>
屋 外</w>
寛 喜</w>
家 門</w>
室 戸</w>
女 帝</w>
天 授</w>
大 統領</w>
大 友
大 作</w>
声 明</w>
堂 宇</w>
問 注</w>
名 実</w>
召 集</w>
古 語</w>
勢 至</w>
勝 海</w>
劣 勢</w>
到 来</w>
出 石</w>
出 店</w>
冬 至</w>
写 し</w>
兵 火</w>
元 忠</w>
作 り
仙 洞</w>
中 門</w>
両 手</w>
世 俗</w>
不 可</w>
上 映</w>
一 品</w>
レ ンジ</w>
ヨ シ
ベ ル
フランシ スコ</w>
ノ リ</w>
シンボ ル</w>
サ ル</w>
カ メ
オー スト
もと より</w>
ま じ</w>
だ れ</w>
だ るま</w>
たち まち</w>
ただ ちに</w>
た え</w>
す き
お さめ</w>
あ れ</w>
18 34</w>
18 30</w>
17 16</w>
16 61</w>
鷹 狩</w>
駆 使</w>
造 寺</w>
送 り込</w>
資 盛</w>
貞 親</w>
親 友</w>
要 衝</w>
西 光</w>
襖 絵</w>
萬 福</w>
華 夷</w>
花 柳</w>
習 俗</w>
羊 羹</w>
納 税</w>
節 会</w>
竹 本</w>
立ち 寄</w>
科 目</w>
神 獣</w>
祖 霊</w>
社 伝</w>
田村 麻呂</w>
物 品</w>
版 画</w>
源 内</w>
港 湾</w>
海 路</w>
法 興</w>
河 東</w>
概 説</w>
柱 間</w>
果 実</w>
来 歴</w>
最 新</w>
書 陵</w>
教 盛</w>
政 事</w>
掲 示</w>
拘 束</w>
所 長</w>
懐 良</w>
応 援</w>
徳 治</w>
後 身</w>
康 永</w>
年 次</w>
平 癒</w>
巡 回</w>
履 歴</w>
密 通</w>
容 姿</w>
官 務</w>
学 制</w>
奥 書</w>
増 上</w>
堀 部</w>
吹 田</w>
名 号</w>
同 県</w>
同 情</w>
吉 井</w>
右 中</w>
取り 仕切</w>
厳 格</w>
勾 当</w>
前 進</w>
前 町</w>
公 儀</w>
允 恭</w>
人 力</w>
予 科</w>
不可 欠</w>
不 振</w>
下 人</w>
ワ イ
リエ ーション</w>
ブ レ
フ ェ</w>
バ ッ
スト ア</w>
カー ブ</w>
わ え</w>
は め</w>
に っ
そ か</w>
し だい</w>
し お</w>
18 36</w>
16 17</w>
16 11</w>
158 9</w>
157 7</w>
1 13</w>
黒 川</w>
高 騰</w>
高 岡</w>
音 階</w>
雪 舟</w>
長 田</w>
郷 里</w>
造 酒</w>
通 盛</w>
軽 減</w>
踏 まえ</w>
講 習</w>
論 語</w>
読 者</w>
蘭 盆</w>
落ち 着</w>
落 飾</w>
草 案</w>
茶 漬け</w>
背 負</w>
義 宗</w>
竹 取</w>
積 み
知 恵</w>
盧 舎那</w>
盂 蘭盆</w>
産 まれ</w>
特 性</w>
澄 元</w>
湊 川</w>
混 合</w>
江 藤</w>
永 楽</w>
水 運</w>
毘 古</w>
正 七</w>
歌 舞</w>
栄 花</w>
柳 川</w>
松 陰</w>
条 規</w>
本 物</w>
新 酒</w>
新 築</w>
政 局</w>
支 那</w>
拷 問</w>
慰 め</w>
慈 照</w>
忠 輝</w>
後 西</w>
後 冷泉</w>
年 限</w>
小 売</w>
家 治</w>
定 額</w>
定 頼</w>
安 兵衛</w>
天 之</w>
大 姫</w>
土 肥</w>
土 産</w>
国 歌</w>
口 分</w>
原 始</w>
卒 去</w>
勤 皇</w>
勅 願</w>
先 帝</w>
保 田</w>
会 合</w>
伊 根</w>
以 東</w>
仏 舎利</w>
仏 典</w>
交 配</w>
井 筒</w>
五 大</w>
丹 波
並 立</w>
両 家</w>
リア ム</w>
ヨシ ノ</w>
ヤマ ト
メイ ヨシノ</w>
ミ ー</w>
プレ ス</w>
ソ メイヨシノ</w>
シ ティ</w>
イン ト</w>
も り
ぶ れ</w>
ふ ぐ</w>
づ ら</w>
おも に</w>
おお い</w>
at i
18 45</w>
18 39</w>
鶏 卵</w>
魚 介類</w>
首 座</w>
養 殖</w>
集 積</w>
間 接</w>
開 店</w>
長 兵衛</w>
長 久</w>
遺 骸</w>
遊 郭</w>
透 明</w>
赤 色</w>
謝 罪</w>
薙 刀</w>
肉 体</w>
群 臣</w>
眺 め</w>
直 営</w>
疎 石</w>
用 人</w>
玄 米</w>
玄 孫</w>
牛 頭</w>
漬 け
漫 才</w>
漁 師</w>
混 雑</w>
浄 御
浄御 原</w>
正 直</w>
正 殿</w>
模 型</w>
検 証</w>
松 殿</w>
末 尾</w>
更 新</w>
普 門</w>
時 子</w>
明 月</w>
旭 日</w>
新 報</w>
数 寄
摂 取</w>
挿 絵</w>
指 令</w>
慣 れ</w>
慎 重</w>
御子 左</w>
弁 天</w>
平 太</w>
平 坦</w>
岩 国</w>
山 部</w>
小 次郎</w>
寸 前</w>
容 れ</w>
妨 げ</w>
大 兄
夜 叉</w>
基 氏</w>
国 風</w>
国 体</w>
嘉 祥</w>
南 町</w>
勝 山</w>
勉 強</w>
出 入口</w>
六 道</w>
公 経</w>
入 会</w>
光 背</w>
佐 幕</w>
任 じ</w>
仁 寿</w>
人 名</w>
主 計</w>
中 級</w>
中 略</w>
両 側</w>
万 世</w>
一 端</w>
モ ノ</w>
メ イン</w>
ミ カ
サイ ト</w>
よ り
や し</w>
もと づ</w>
む す
ふ た</w>
な に</w>
と もの</w>
つ み</w>
つ づけ</w>
つ ぐ</w>
つ う</w>
しょ く</w>
ぐ ち</w>
が ら</w>
お ろし</w>
お か</w>
い て
い ざ</w>
h i
18 28</w>
160 5</w>
16 13</w>
13 92</w>
鵜 匠</w>
飯 豊</w>
面 白</w>
随 一</w>
長 大</w>
配 属</w>
遊 学</w>
追 善</w>
蹴 上</w>
護 良</w>
読 売</w>
誓 約</w>
詮 子</w>
親 密</w>
蜂 須賀</w>
藩 内</w>
蕎 麦
茂 山</w>
船 井</w>
職 名</w>
義 重</w>
結び つき</w>
終 始</w>
系 列</w>
篭 城</w>
禅 秀</w>
祭 壇</w>
省 三</w>
目 代</w>
病 床</w>
異 同</w>
炭 素</w>
渋 沢</w>
消 防</w>
津 山</w>
歓 迎</w>
権 益</w>
果 た
東 条</w>
木 版</w>
木 工</w>
撰 述</w>
撤 廃</w>
形 跡</w>
強 固</w>
引き 出</w>
建 部</w>
延 岡</w>
広 常</w>
幽 玄</w>
尊 号</w>
寿 命</w>
宗 麟</w>
失 意</w>
大 砲</w>
大 中臣</w>
回 送</w>
和 讃</w>
命 婦</w>
同 調</w>
同 市</w>
取り 壊</w>
協 約</w>
北 国</w>
初 世</w>
切 断</w>
公 田</w>
八 百</w>
入 場</w>
充 分</w>
優 美</w>
傍 系</w>
保 険</w>
仲 哀</w>
仙 人</w>
人 吉</w>
交 え</w>
二 分</w>
事 跡</w>
乱 暴</w>
ワ ン</w>
ワ ン
チャ ン
タ ール</w>
スー パー
ギ ュ
ゥ ー</w>
み の</w>
ま み</w>
な い</w>
と こ</w>
つ かさ</w>
せ き
さ っ
いっ ぽう</w>
l e
18 32</w>
17 88</w>
16 54</w>
157 2</w>
15 67</w>
13 52</w>
10 1</w>
龍 野</w>
鮮 やか</w>
魅 力</w>
風 雨</w>
額 田</w>
電 燈</w>
開 成</w>
鉄 製</w>
重 政</w>
酵 素</w>
酒 質</w>
遺 志</w>
遊 廓</w>
辞 表</w>
資 材</w>
論 理</w>
読 経</w>
詩 文</w>
補 強</w>
補 完</w>
葛 西</w>
脚 色</w>
義 高</w>
義 清</w>
義 央</w>
粒 子</w>
窮 地</w>
神 饌</w>
祝 儀</w>
破 門</w>
破 損</w>
知 名</w>
直 垂</w>
白 色</w>
発 泡</w>
男 児</w>
珍 重</w>
無 瀬</w>
深 ま</w>
浮 か
河 口</w>
決 議</w>
水 道</w>
横 綱</w>
模 倣</w>
格 好</w>
東 端</w>
景 雲</w>
普 遍</w>
時 雨</w>
春日 大社</w>
日 英</w>
方 便</w>
教 書</w>
支 藩</w>
掌 典</w>
所 生</w>
戦 況</w>
悲 劇</w>
必 然</w>
式 年</w>
広 がり</w>
平 地</w>
平 ら</w>
常 識</w>
屯 倉</w>
小 栗</w>
審 判</w>
宮 内
安 康</w>
宇 治
宅 地</w>
学 識</w>
姻 戚</w>
大兄 王</w>
大 炊</w>
大 佐</w>
城 山</w>
因 果</w>
善 導</w>
和 子</w>
名 簿</w>
可 愛</w>
収 納</w>
収 拾</w>
厚 遇</w>
半 身</w>
加 納</w>
功 臣</w>
副 長</w>
列 挙</w>
典 薬</w>
公 正</w>
入 滅</w>
先 駆け</w>
余 人</w>
低 迷</w>
仏 具</w>
了 俊</w>
中 継</w>
上 品</w>
リー グ</w>
プロ デ
プロ グラム</w>
バ リエーション</w>
ニ コ
ショ ウ
コ ード</w>
エ ンス</w>
ウ マ</w>
ア ワ
ゆ み</w>
ふ り
の 中</w>
こ な</w>
く ま
7 70</w>
18 17</w>
17 98</w>
高 宗</w>
雅 号</w>
金 輪</w>
遷 座</w>
連 結</w>
逢 坂</w>
送 り</w>
農 学</w>
転 じ</w>
転 々</w>
足 り</w>
賜 姓</w>
見 廻</w>
茶 の湯</w>
花 道</w>
聖 天</w>
者 小路</w>
精 舎</w>
笠 間</w>
祝 園</w>
礼 儀</w>
相 応</w>
皇 国</w>
瓦 解</w>
独 裁</w>
灰 吹</w>
演 芸</w>
消 失</w>
海 側</w>
活 か</w>
洛 南</w>
歩 道</w>
武 者小路</w>
正 之</w>
横 行</w>
有 り</w>
旅 人</w>
文 科</w>
教 如</w>
技 巧</w>
承 継</w>
戯 曲</w>
成 政</w>
忠 政</w>
後 撰</w>
征 服</w>
年 数</w>
巡 行</w>
局 長</w>
富 岡</w>
室 生</w>
官 営</w>
守 口</w>
好 意</w>
大 原野</w>
塩 辛</w>
塩 漬け</w>
基 通</w>
唐 名</w>
吉 凶</w>
合 一</w>
叡 尊</w>
厚 生</w>
勘 文</w>
刺 激</w>
分 断</w>
俳 人</w>
信 光</w>
交 際</w>
ヨ ーク</w>
ファ ッション</w>
カ ム</w>
エレベ ーター</w>
エ ネ
ひ ょう
ひ き</w>
の ぞ</w>
た り
す し</w>
き よ</w>
き つ</w>
あき ら</w>
B S</w>
18 18</w>
16 23</w>
159 7</w>
13 51</w>
13 34</w>
120 5</w>
高 砂</w>
首 塚</w>
食 い</w>
風 物</w>
順 位</w>
降 車</w>
遼 太郎</w>
足 跡</w>
越 訴</w>
起 因</w>
諮 問</w>
親 戚</w>
規 範</w>
表 向き</w>
行 商</w>
職 分</w>
繊 細</w>
粘 土</w>
社 団</w>
盟 約</w>
盛 り</w>
異 動</w>
生き 残</w>
犬 山</w>
物 価</w>
燈 籠</w>
漆 器</w>
源 泉</w>
清 隆</w>
清 滝</w>
浜 町</w>
津 島</w>
沼 津</w>
決 行</w>
樹 木</w>
格 差</w>
有 料</w>
新 京阪</w>
攻め 込</w>
改 変</w>
折 伏</w>
打ち 破</w>
悩 ま</w>
恋 人</w>
忠 隆</w>
応 和</w>
忌 避</w>
役 行者</w>
強 行</w>
広 幡</w>
年 長</w>
帰 属</w>
帰 化</w>
工 房</w>
嵐 電</w>
山 家</w>
山 下</w>
屯 所</w>
小 角</w>
小 槻</w>
家 譜</w>
学 寮</w>
嘉 承</w>
和 算</w>
味 わい</w>
史 生</w>
南 端</w>
利 害</w>
別 本</w>
内 田</w>
全 焼</w>
作 物</w>
予 防</w>
主 典</w>
世 宗家</w>
三 門</w>
七 宝</w>
一 心</w>
ヴ ォ
レ ント</w>
ベ スト</w>
ビ ア</w>
ト ロ</w>
チャ ン</w>
スタ ッ
スタ ジオ</w>
ケ ル</w>
ク ジラ</w>
アミ ノ</w>
わ ら
ゆ う</w>
め で</w>
ま ん
ふた たび</w>
は さ</w>
な え</w>
ち ん</w>
た こ
すぐ れ</w>
す す</w>
さ ほど</w>
さ だ
け れど</w>
か も</w>
い た
い くら</w>
18 47</w>
17 09</w>
15 49</w>
118 2</w>
117 8</w>
1 100</w>
黒 谷</w>
高 虎</w>
馴 染
養 蚕</w>
閣 僚</w>
邪馬 台</w>
造 船</w>
逓 信</w>
近 親</w>
迎 撃</w>
質 問</w>
角 倉</w>
覚 如</w>
裏 切り</w>
胡 麻</w>
篳 篥</w>
等 級</w>
礎 石</w>
知 ら</w>
相 論</w>
盟 主</w>
申し 入れ</w>
生 糸</w>
特 例</w>
煮 込</w>
災 い</w>
漢 城</w>
殺 生</w>
死 別</w>
武 烈</w>
根 元</w>
松 明</w>
月 輪</w>
料 紙</w>
文 集</w>
放 生</w>
授 業</w>
戦 力</w>
懇 願</w>
愛 人</w>
御 伽</w>
張 り
引き 受け</w>
建 治</w>
建 具</w>
延 べ</w>
庭 田</w>
平 八郎</w>
平 信</w>
平 仮名</w>
崋 山</w>
対 岸</w>
宿 老</w>
容 認</w>
容 疑</w>
実 戦</w>
宗 室</w>
安 産</w>
嫌 疑</w>
姉 川</w>
天 門</w>
大 目付</w>
均 一</w>
和 野</w>
各 社</w>
叢 雲</w>
協 調</w>
北 端</w>
北 村</w>
写 生</w>
内 陣</w>
内 政</w>
公 定</w>
八 田</w>
倹 約</w>
倭 京</w>
信 夫</w>
会 い</w>
仕 切り</w>
今 様</w>
久 邇</w>
不 空</w>
下 間</w>
一 途</w>
レ ン</w>
ミ ムスビ</w>
プラ ザ</w>
フ ライ</w>
ハ レ</w>
トル コ</w>
デ ン</w>
テキ スト</w>
タ ワー</w>
セン ト</w>
スト ップ</w>
シ コ</w>
ゴ マ</w>
ガラ シャ</w>
カ トリック</w>
ウィ リアム</w>
も ん
の 川</w>
と く
ち ゅ</w>
ご う
う ん</w>
o l
16 80</w>
高 坂</w>
霜 月</w>
限 界</w>
金 鵄</w>
金 座</w>
選 組</w>
追 及</w>
迎え 入れ</w>
輝 政</w>
軍 医</w>
越 し</w>
贅 沢</w>
調 度</w>
訳 語</w>
要 所</w>
藤 孝</w>
芸 道</w>
芸 人</w>
色 々</w>
緑 色</w>
絶 賛</w>
経 文</w>
精 力</w>
築 き上げ</w>
窓 口</w>
禅 尼</w>
目 安</w>
田 荘</w>
瑞 宝</w>
煮 物</w>
煩 悩</w>
濃 厚</w>
漢 方</w>
洋 式</w>
没 官</w>
氏 寺</w>
母 音</w>
正 教会</w>
横 須賀</w>
棚 田</w>
架 け</w>
杉 本</w>
本 仏</w>
有 志</w>
旧 跡</w>
日 高</w>
日 没</w>
旅 順</w>
数寄 屋</w>
数 千</w>
政 庁</w>
支 城</w>
懸 念</w>
憂 慮</w>
弓 馬</w>
広 野</w>
年 少</w>
常 胤</w>
帝 紀</w>
嶋 原</w>
山 陵</w>
射 手</w>
実 名</w>
官 名</w>
大 槻</w>
吸 い
吉 兆</w>
古 文</w>
反 旗</w>
千 穂</w>
匹 敵</w>
勘 当</w>
勘 合</w>
劣 化</w>
処 遇</w>
八 尾</w>
伽 羅</w>
会 話</w>
伏 見
二 上</w>
乗 降</w>
主 税</w>
中 右記</w>
一 身</w>
一 系</w>
一 律</w>
ボ ルト</w>
ピ ュー
ニ ック</w>
トラ ブル</w>
ッ シュ</w>
タ バ
スト ー
スタン ト</w>
スタッ フ</w>
クラ ブ</w>
カ キ</w>
ウイ スキー</w>
ウ ズ
ウ ォ
イ スラ
ら われ</w>
ら し
や っと</w>
も み
み つ
み たま</w>
ふ う</w>
ひ た
ち ゅう
ぞ く</w>
じ ろう</w>
く る
が 代</w>
お およそ</w>
い わ</w>
o t
o m
e d
16 48</w>
16 36</w>
15 58</w>
15 36</w>
14 28</w>
12 46</w>
鴨 東</w>
高 藤</w>
高 温</w>
高 千穂</w>
順 番</w>
遠 く</w>
遂 に</w>
通 学</w>
身 柄</w>
貧 乏</w>
論 者</w>
詩 歌</w>
見 直</w>
覇 権</w>
船 岡</w>
総 司</w>
経 蔵</w>
素 人</w>
簒 奪</w>
立 藩</w>
移 籍</w>
称 光</w>
秀 秋</w>
秀 栄</w>
神 経</w>
神 籬</w>
祖 神社</w>
磐 井</w>
真 淵</w>
痕 跡</w>
煎 餅</w>
無 尽</w>
激 減</w>
消 化</w>
津 和野</w>
法 務</w>
永 保</w>
氏 真</w>
死 体</w>
歌 学</w>
松 ヶ崎</w>
有 様</w>
有 楽</w>
月 見</w>
晶 子</w>
日 下部</w>
新 選組</w>
断 片</w>
文 中</w>
教 王</w>
揶 揄</w>
持ち 出</w>
持ち 主</w>
投 資</w>
戦 法</w>
性 能</w>
役 場</w>
強 盗</w>
年 始</w>
幣 帛</w>
幕 命</w>
岩 田</w>
山 脈</w>
尊 敬</w>
察 知</w>
孔 雀</w>
大和 郡山</w>
大 菩薩</w>
多 治
増 強</w>
基 熙</w>
四 宮</w>
名 和</w>
吉 沢</w>
史 学</w>
古 義</w>
勧 告</w>
券 売</w>
八 千代</w>
僧 尼</w>
倒 壊</w>
信 綱</w>
作 事</w>
伏見 宮</w>
亡 く</w>
五 穀</w>
争 乱</w>
両 名</w>
不 便</w>
三 船</w>
三 品</w>
一 目</w>
ル イス</w>
ライ ブ</w>
ビ タミン</w>
バ ン</w>
ニュー ヨーク</w>
ツ ク
ッピ ング</w>
ジ ー</w>
エネ ルギー</w>
んじ ん</w>
もっ と</w>
もち 米</w>
つ る</w>
ざ し</w>
かえ って</w>
お かし</w>
18 22</w>
16 32</w>
118 6</w>
116 8</w>
1 10</w>
鬼 神</w>
高 額</w>
順 慶</w>
雲 居</w>
隠 遁</w>
陛 下</w>
重 層</w>
酒 粕</w>
遺 領</w>
遠 慮</w>
遠 因</w>
退 任</w>
赤 兄</w>
貞 応</w>
象 二郎</w>
豆 乳</w>
読 め</w>
詩 人</w>
要 件</w>
西 塔</w>
襲 来</w>
表 門</w>
蒲 池</w>
若 しくは</w>
芥 川</w>
良 経</w>
脇 差</w>
聖 宝</w>
縁 者</w>
練 り</w>
経 房</w>
細 部</w>
紀 伊
筆 記</w>
穏 やか</w>
秋 山</w>
直 江</w>
監 物</w>
白 鳥</w>
由 良
玄 室</w>
漢 書</w>
洛 北</w>
泰 衡</w>
治 暦</w>
河 竹</w>
気 味</w>
歳 月</w>
武 断</w>
歓 喜</w>
木 刀</w>
朝 夕</w>
月 曜</w>
月 光</w>
旧 臣</w>
旋 律</w>
教 通</w>
操 作</w>
挿 入</w>
押 勝</w>
投 降</w>
房 総</w>
慶 勝</w>
急 増</w>
御 坊</w>
弘 徽</w>
康 治</w>
幼 稚</w>
川 村</w>
将 棋</w>
富 裕</w>
実 兄</w>
官 歴</w>
如 何</w>
奪 回</w>
大 韓</w>
大 番</w>
大 浦</w>
南 条</w>
半 蔵</w>
十 王</w>
劇 団</w>
副 葬</w>
初 位</w>
刑 法</w>
兼 良</w>
光 明寺</w>
元 彌</w>
元 信</w>
儒 者</w>
倉 敷</w>
他 家</w>
乳 酸</w>
久 松</w>
世 の中</w>
一 念</w>
ヵ 月</w>
ヨ ミ</w>
ユ リ
ヤマト タケル</w>
ポ イント</w>
ブル ー</w>
スーパー マーケット</w>
ガ ン
ガ ケ</w>
エクス プレス</w>
アフ リカ</w>
ゆ っくり</w>
みや こ</w>
ば ら
の こ</w>
と き
だ んじ
た ど
そう めん</w>
く す
か ぜ</w>
い 手</w>
18 33</w>
160 8</w>
10 8</w>
（ 株
（株 ）</w>
鶴 屋</w>
雨 月</w>
隆 家</w>
陪 臣</w>
陀 羅
陀羅 尼</w>
銀 杏</w>
野 洲</w>
部 類</w>
邦 良</w>
邦 楽</w>
通 詞</w>
返 答</w>
車 体</w>
請 願</w>
誓 願</w>
観 音
親 藩</w>
行 宮</w>
藤 間</w>
藤 村</w>
薄 れ</w>
落 胤</w>
落 人</w>
荒 神</w>
茄 子</w>
臼 杵</w>
老 舗</w>
義 秀</w>
終 日</w>
神 将</w>
磐 座</w>
碑 文</w>
目 撃</w>
盛 子</w>
百 貨</w>
源 姓</w>
温 暖</w>
水 平</w>
殖 産</w>
死 傷</w>
架 橋</w>
望 まし</w>
暦 道</w>
春 嶽</w>
春 分</w>
断 簡</w>
文 室</w>
放 射</w>
攻 防</w>
撤 回</w>
挑 発</w>
意 気</w>
怪 し</w>
応 徳</w>
御 幸</w>
得 宗家</w>
後 光明</w>
引き 渡</w>
帰 順</w>
師 家</w>
尊 崇</w>
将 兵</w>
専 横</w>
宣 命</w>
宋 代</w>
孝 高</w>
女 児</w>
天 竜</w>
大 神宮</w>
変 革</w>
垂 迹</w>
回 遊</w>
商 工業</w>
同 法</w>
同 人</w>
召 還</w>
叛 乱</w>
勝 ち
加 筆</w>
加 勢</w>
出 資</w>
冷 凍</w>
公 人</w>
元 春</w>
傾 斜</w>
伽 耶</w>
伝 習</w>
付 加</w>
仏 事</w>
人 身</w>
乗り 場</w>
久留 米</w>
ール ド</w>
ワ カ
ベ ツ</w>
ピ ア</w>
ヒ ンド
ツ ミ</w>
スペ ース</w>
アワ ビ</w>
れ れ</w>
ぼ く</w>
ぼ う
は ま</w>
ど き</w>
たく さん</w>
そ ば
じ けん</w>
さ る</w>
い こ</w>
18 04</w>
17 79</w>
16 85</w>
16 84</w>
16 40</w>
16 28</w>
15 66</w>
15 55</w>
14 41</w>
13 00</w>
馴染 み</w>
香 道</w>
首 級</w>
飲 み
青 春</w>
阿 修羅</w>
部 署</w>
遠 藤</w>
送り 火</w>
賑 わ</w>
調 和</w>
記 憶</w>
要 人</w>
蕪 村</w>
蒲 焼</w>
葛 飾</w>
茶 道具</w>
自 覚</w>
緒 嗣</w>
糖 化</w>
立 体</w>
福 沢</w>
福 助</w>
祖 師</w>
礼 法</w>
知 らせ</w>
盛 政</w>
町 屋</w>
無 二</w>
点 前</w>
満 祐</w>
測 定</w>
法 橋</w>
永 平
永平 寺</w>
永 和</w>
水 害</w>
民 党</w>
武 揚</w>
武 市</w>
植 木</w>
柿 本</w>
柘 植</w>
村 山</w>
曲 線</w>
時 行</w>
日 日</w>
文 正</w>
敦 盛</w>
敦 明</w>
攻 城</w>
支 払い</w>
拝 命</w>
成 形</w>
意 次</w>
恵 美</w>
恒 例</w>
必 死</w>
徂 徠</w>
延 若</w>
左 團
左團 次</w>
山 国</w>
屋 町</w>
尾 形</w>
尺 貫</w>
寄 人</w>
宮 号</w>
実 母</w>
安 子</w>
学 長</w>
奥 義</w>
太 守</w>
天 安</w>
大 胆</w>
士 気</w>
国 防</w>
商 船</w>
和 親</w>
名 作</w>
吉 政</w>
号 令</w>
取り 囲</w>
及 川</w>
勿 論</w>
動 詞</w>
前 行</w>
切り 離</w>
出 回</w>
公 営</w>
倫 子</w>
信 貴</w>
作 り出</w>
両 派</w>
一 進</w>
ワン マン</w>
レ ール</w>
ベ ン
フィ ルム</w>
フィ クション</w>
ヒンド ゥー</w>
ソ ウル</w>
ジャ ポ
シ ウム</w>
コノ ハナ
ク リ</w>
ガ イ</w>
オ ル
イ セ</w>
ア イ</w>
まと ま</w>
は ち</w>
だい ら</w>
だ ら</w>
ず っと</w>
じゅ ん</w>
あ や</w>
u n
o s
6 86</w>
20 1</w>
18 24</w>
160 4</w>
16 83</w>
16 69</w>
16 26</w>
120 4</w>
高 氏</w>
高 まり</w>
養 母</w>
風呂 敷</w>
願 文</w>
須 恵</w>
集 合</w>
陶 芸</w>
重 宝</w>
都 督</w>
転 居</w>
軍 議</w>
趣 向</w>
越 中国</w>
谷 町</w>
警 固</w>
請 求</w>
語 句</w>
詞 書</w>
証 如</w>
言 論</w>
見 聞</w>
被 葬</w>
華 頂</w>
群 書</w>
結 核</w>
紋 付</w>
篠 笛</w>
県 庁</w>
直 実</w>
盟 友</w>
発 案</w>
田 租</w>
用 地</w>
燃 え</w>
濾 過</w>
洒 落</w>
法 勝</w>
氷 川</w>
民 謡</w>
梁 川</w>
根 幹</w>
書 類</w>
時 刻</w>
改 宗</w>
推 移</w>
持 明院</w>
手 厚</w>
戒 め</w>
徳 利</w>
御 行</w>
役 小角</w>
引き 揚げ</w>
延 命</w>
幸 徳</w>
年 紀</w>
帰 参</w>
川 町</w>
岩 村</w>
山 鹿</w>
屋 川</w>
屈 指</w>
寝 屋川</w>
宝 徳</w>
宝 冠</w>
安 国</w>
学 界</w>
威 力</w>
天 野</w>
天 草</w>
大 抵</w>
報 復</w>
国 外</w>
囲 炉
商 法</w>
和 食</w>
呪 詛</w>
君 が代</w>
名 産</w>
同 上</w>
吉 兵衛</w>
古 流</w>
助 言</w>
割 譲</w>
冊 立</w>
円 満</w>
八 橋</w>
倭 館</w>
例 え</w>
伊 集
仏 門</w>
今 宮</w>
仁 賢</w>
京 職</w>
予 言</w>
中 根</w>
上 巻</w>
一 味</w>
ラ ジオ</w>
ボ ー
ブ リ
ノ ー
ト ロ
ト ウ
シ ュー</w>
コン ピュー
キャ ベツ</w>
み ち
み ず</w>
は なし</w>
ぬ し</w>
な め</w>
ど んな</w>
たち ばな</w>
そ ろ
さ て</w>
さ き
いち 早く</w>
い け
r a
T O
A R
8 59</w>
4 000</w>
15 63</w>
116 5</w>
鳥 山</w>
頒 布</w>
隋 書</w>
長 暦</w>
銭 湯</w>
重 頼</w>
郎 右衛門</w>
遵 守</w>
軍 功</w>
賛 成</w>
責 め</w>
貞 宗</w>
豊 穣</w>
許 し</w>
言 継</w>
蓄 え</w>
聖 堂</w>
羅 什</w>
綴 喜</w>
竹 刀</w>
竜 田</w>
私 財</w>
白 梅</w>
町 家</w>
田 植</w>
牛 鬼</w>
漢 語</w>
清 衡</w>
法 門</w>
正 嘉</w>
檀 家</w>
桐 紋</w>
曼 殊</w>
暮 らし</w>
是 非</w>
日 産</w>
日 出</w>
旅 籠</w>
新 造</w>
新 線</w>
新 橋</w>
新 帝</w>
政 敵</w>
攻め 入</w>
支 部</w>
掛け 声</w>
掃 部</w>
手 勢</w>
成 務</w>
慰 霊</w>
慈 悲</w>
御 世</w>
従 前</w>
後 伏見</w>
役 料</w>
建 前</w>
平 凡</w>
干 拓</w>
岡 部</w>
容 貌</w>
客 観</w>
子 太郎</w>
奉 じ</w>
大 般若</w>
大 晦日</w>
坪 内</w>
地 中</w>
因 み</w>
回 想</w>
善 悪</w>
名 塩</w>
同 藩</w>
司 祭</w>
古 麻呂</w>
古 城</w>
原 町</w>
印 相</w>
南 京</w>
匡 房</w>
勝 敗</w>
副 島</w>
制 御</w>
別 曹</w>
判 定</w>
分 化</w>
分 け
円 筒</w>
円 滑</w>
共 演</w>
公 議</w>
余 裕</w>
余 地</w>
何 故</w>
伺 候</w>
伍 長</w>
伊集 院</w>
代 え</w>
仏 閣</w>
与 兵衛</w>
上 郡</w>
上 申</w>
一 統</w>
ラ リア</w>
ミ コト</w>
ペ ン
ベ ルト</w>
フォ ル
ニ エンス</w>
ツ マ</w>
ステ ーション</w>
コンビ ニエンス</w>
クロ ス</w>
クリ ス
よ ろ
ば い</w>
ど ぶ
で ん
つ ぼ</w>
ち り
そ り</w>
す み</w>
しっ かり</w>
が っ
かき 氷</w>
い ため</w>
い ただ</w>
a l</w>
J ap
7 49</w>
16 98</w>
16 82</w>
15 32</w>
119 2</w>
0 km</w>
麻 布</w>
鳴 滝</w>
高 遠</w>
飛 来</w>
霊 廟</w>
銅 造</w>
釣 り</w>
釈 放</w>
郎 左衛門</w>
逃げ 込</w>
転 出</w>
貝 塚</w>
諸 本</w>
誤 記</w>
話 し
解 剖</w>
覚 書</w>
裕 福</w>
蜻 蛉</w>
藤 十郎</w>
荷 物</w>
良 雄</w>
良 子</w>
良 兼</w>
脅 か</w>
羅 山</w>
縦 貫</w>
空 也</w>
種 継</w>
祝 賀</w>
石 段</w>
短 冊</w>
畝 傍</w>
甲 子太郎</w>
田 城</w>
璋 子</w>
現 金</w>
王 位</w>
特 筆</w>
牛 乳</w>
焼き 払</w>
演 者</w>
満 ち</w>
混 ぜ
氏 直</w>
毘 売</w>
殿 下</w>
歯 黒</w>
横 田</w>
横 断</w>
概 略</w>
板 橋</w>
松 岡</w>
松 宮</w>
松 下</w>
条 里</w>
有 田</w>
書き 残</w>
書 房</w>
景 気</w>
政 令</w>
推 奨</w>
授 戒</w>
払 い
所 謂</w>
忠 房</w>
後 亀山</w>
形 容</w>
康 正</w>
広 重</w>
工 部</w>
川 口</w>
小 五郎</w>
寒 天</w>
家 祖</w>
宮内 省</w>
実 物</w>
宗 忠</w>
安 心</w>
学 舎</w>
奈 良
奄 美</w>
大 洲</w>
大 本</w>
囲炉 裏</w>
因 縁</w>
味 わ</w>
同 門</w>
召 抱え</w>
厳 重</w>
刑 事</w>
出 航</w>
出 動</w>
准 母</w>
内 人</w>
公 募</w>
免 職</w>
優 等</w>
俸 禄</w>
修 二</w>
信 友</w>
保 科</w>
作 り上げ</w>
伯 母</w>
伊 都</w>
人 頭</w>
二 千</w>
久 野</w>
中 等</w>
並 木</w>
下 文</w>
一 転</w>
一 同</w>
モ ー
メ ロ
ミ ミ</w>
フ グ</w>
パー クス</w>
パ ク</w>
パ イ
ハ ル
ッ キ</w>
ジ ット</w>
サ ッカー</w>
ガ イド</w>
イ オン</w>
る し</w>
や き</w>
め ざ</w>
へ い</w>
と ん
と ろ
っ 子</w>
す か</w>
く ぐ</w>
き 込</w>
16 97</w>
16 94</w>
16 68</w>
16 58</w>
15 61</w>
15 59</w>
15 52</w>
15 51</w>
12 13</w>
館 林</w>
頭 上</w>
院 内</w>
鑑 評</w>
造 詣</w>
逍 遥</w>
輪 郭</w>
軍 備</w>
身 辺</w>
足 利
財 界</w>
豊 作</w>
谷 口</w>
語 り</w>
西 尾</w>
袱 紗</w>
芦 屋</w>
自 力</w>
終 着</w>
紹 鴎</w>
紫 衣</w>
精 通</w>
窺 え</w>
神 学</w>
着 せ</w>
登 城</w>
田 井</w>
王 仁</w>
渡 島</w>
流 祖</w>
油 揚げ</w>
水 上</w>
気 温</w>
正 勝</w>
横 領</w>
本 阿弥</w>
本 宗家</w>
木 幡</w>
朝 彦</w>
曰 く</w>
暦 法</w>
景 季</w>
旧 蔵</w>
於 け</w>
教 訓</w>
探 幽</w>
抽 出</w>
投 票</w>
技 芸</w>
忠 信</w>
従 八</w>
後 朱雀</w>
当 道</w>
引き 連れ</w>
幸 福</w>
少 弁</w>
実 如</w>
官 衙</w>
宗 祇</w>
宗 光</w>
安 閑</w>
失 墜</w>
大 枝</w>
外 見</w>
外 山</w>
士 分</w>
堀 内</w>
土 壌</w>
国 臣</w>
同 格</w>
台 子</w>
古 伝</w>
反 り</w>
危 篤</w>
半 跏</w>
勘 三郎</w>
加 古川</w>
凝 ら</w>
冷 遇</w>
六 朝</w>
公 表</w>
入 港</w>
体 調</w>
予 め</w>
乗 馬</w>
中 継ぎ</w>
中 型</w>
両 界</w>
下 手</w>
三 村</w>
一 節</w>
ペ ル
ヘ ン</w>
プ ール</w>
ナ ス</w>
シー ボルト</w>
シ ック</w>
ゲ ン</w>
イン ド
もの がたり</w>
ぼ こ</w>
ひ き
ば ね</w>
な じ</w>
とう じ</w>
だんじ り</w>
たこ 焼き</w>
ぞ う
す く
さ く</w>
こ り</w>
く り
き た</w>
いて は</w>
u t
9 95</w>
18 23</w>
17 04</w>
15 62</w>
120 2</w>
117 5</w>
黒 船</w>
馬 廻</w>
顕 宗</w>
霊 魂</w>
隠 し</w>
陣 中</w>
阪 和</w>
郡 代</w>
運 び</w>
連 邦</w>
退 出</w>
貞 元</w>
護 国寺</w>
解 禁</w>
融 和</w>
蜷 川</w>
華 美</w>
自 社</w>
脂 肪</w>
習 い</w>
羽 左衛門</w>
義 父</w>
義 治</w>
義 兼</w>
練 り
編 制</w>
総 監</w>
組 閣</w>
素 朴</w>
管 内</w>
稲 目</w>
石 仏</w>
白 木</w>
異 父</w>
田 野</w>
用 心</w>
生き 残り</w>
牛 車</w>
版 本</w>
焼 け
然 草</w>
浮 か</w>
水 無瀬</w>
氏 清</w>
正 八</w>
栄 西</w>
束 ね</w>
望 楼</w>
有 岡</w>
暴 力</w>
春 門院</w>
早 良</w>
新 見</w>
斬 り</w>
敬 意</w>
撰 集</w>
掛 川</w>
手 裏</w>
戯 作</w>
息 女</w>
応 挙</w>
心 情</w>
復 権</w>
復 旧</w>
徒 然草</w>
後 堀河</w>
弁 才</w>
建 春門院</w>
廟 堂</w>
差 し</w>
小 谷</w>
小 紋</w>
宇 合</w>
天 心</w>
夕 顔</w>
変 形</w>
増 田</w>
墓 石</w>
堀 越</w>
基 調</w>
垂 ら</w>
国 友</w>
固 辞</w>
四 女</w>
唐 草</w>
和 同</w>
合 図</w>
取り 扱い</w>
千 秋</w>
医 科</w>
匂 い</w>
利 便</w>
円 覚</w>
八 重
僧 籍</w>
信 吉</w>
供 用</w>
供 出</w>
井 原</w>
事 柄</w>
事 典</w>
乙 巳</w>
主 殿</w>
三 の丸</w>
丈 夫</w>
マ ー</w>
ペ ーン</w>
ハ ヤ
ナ ポ
ツク ヨミ</w>
ッ セ
タバ コ</w>
シ ナ
サ ル
コノハナ ノ</w>
グ ラス</w>
キャン ペーン</w>
ウ ンド</w>
わざ わざ</w>
もて なし</w>
ま る</w>
ぶ き</w>
ふん どし</w>
ふ く
どぶ ろく</w>
と こ
で き
じ み</w>
さ り</w>
ぐ ん</w>
おか ず</w>
おか げ</w>
い き
い か</w>
あ だ
r e
d e
7 20</w>
7 000</w>
6 60</w>
17 01</w>
16 65</w>
16 24</w>
16 20</w>
15 21</w>
14 93</w>
13 08</w>
12 19</w>
116 9</w>
龍 安</w>
鬼 門</w>
高 瀬</w>
飼 い</w>
風 刺</w>
青 銅</w>
露 天</w>
雇 い</w>
隆 季</w>
酒 宴</w>
配 分</w>
邦 家</w>
還 任</w>
道 風</w>
質 素</w>
貴 山</w>
象 山</w>
豊 原</w>
諫 言</w>
論 功</w>
読み 上げ</w>
読 誦</w>
草 薙</w>
花 子</w>
脱 退</w>
義 鎮</w>
義 栄</w>
置 き</w>
締 め
経 基</w>
紅 梅</w>
立 た</w>
空 席</w>
社 員</w>
石 棺</w>
目 前</w>
盛 り込</w>
由 利</w>
田 町</w>
独 断</w>
特 記</w>
無 礼</w>
漂 着</w>
湖 南</w>
江 南</w>
汚 染</w>
歌 風</w>
欠 点</w>
検 定</w>
森 田</w>
桔 梗</w>
校 異</w>
村 人</w>
村 井</w>
月 山</w>
最 寄</w>
曲 げ</w>
明 正</w>
明 恵</w>
文 物</w>
文 京</w>
扶 余</w>
憲 仁</w>
急 逝</w>
思い 出</w>
忠 邦</w>
忠 行</w>
忍 術</w>
征 東</w>
形 勢</w>
当 たり
延 ば</w>
康 頼</w>
庶 家</w>
山 路</w>
封 鎖</w>
寺 地</w>
定 紋</w>
定 朝</w>
奪 い
奥 平</w>
天 童</w>
天 永</w>
大 鳥</w>
夜 襲</w>
壮 大</w>
塔 婆</w>
在 籍</w>
在 所</w>
喪 神</w>
同 家</w>
右 翼</w>
単 語</w>
単 立</w>
勘 兵衛</w>
前 記</w>
前 漢</w>
別 表</w>
切 れ
出来 上が</w>
全 成</w>
僧 綱</w>
修 築</w>
信 じ</w>
伊 能</w>
仕 様</w>
亡 霊</w>
云 々</w>
乗 船</w>
与 党</w>
上 り
ル ー
ホ ン</w>
ト ウ</w>
コ ロ
ケ 谷</w>
ギリ シャ</w>
カ ラ</w>
イ ノ
んじ ゅう</w>
ふ み</w>
ひ ど</w>
なお この</w>
し ち</w>
し た</w>
し ごと</w>
さん じょう</w>
く じょう</w>
かま ぼこ</w>
お よ</w>
う なぎ</w>
o c
T he
9 60</w>
7 52</w>
7 08</w>
18 25</w>
18 20</w>
18 02</w>
18 01</w>
17 10</w>
16 95</w>
16 43</w>
16 35</w>
120 1</w>
116 7</w>
10 2</w>
高 梨</w>
高 師</w>
高 地</w>
駕 籠</w>
顔 料</w>
隣 国</w>
閲 覧</w>
野 井</w>
邸 内</w>
遊 園</w>
進 化</w>
通 告</w>
軍 票</w>
軌 間</w>
賢 門院</w>
財 務</w>
豚 カツ</w>
請 け</w>
行 楽</w>
藩 庁</w>
藩 兵</w>
蔵 元</w>
萩 原</w>
菖 蒲</w>
続 出</w>
範 疇</w>
砂 漠</w>
県 主</w>
直 流</w>
皇 霊</w>
番 役</w>
画 集</w>
用 例</w>
生 類</w>
生 計</w>
無 地</w>
灯 篭</w>
漏 れ</w>
源 融</w>
派 兵</w>
河 井</w>
水 面</w>
橋 姫</w>
根 岸</w>
枕 詞</w>
東 大阪</w>
東 人</w>
来 訪</w>
村 々</w>
朝 顔</w>
暫 定</w>
晴 賢</w>
晋 作</w>
明 代</w>
既 婚</w>
新 七</w>
斉 藤</w>
政 派</w>
放 出</w>
拍 車</w>
忠 長</w>
忠 光</w>
復 讐</w>
待 賢門院</w>
引 揚</w>
廻 り</w>
川 西</w>
封 戸</w>
實 川</w>
実 盛</w>
宗 茂</w>
天 女</w>
大 道</w>
大 気</w>
大 刀</w>
増 鏡</w>
塩 分</w>
堂 内</w>
呼 吸</w>
十 河</w>
公 暁</w>
偽 造</w>
伎 楽</w>
仏 性</w>
京 方</w>
五 味</w>
乱 入</w>
久 保田</w>
中 絶</w>
不 当</w>
三 室戸</w>
三 五郎</w>
丁 寧</w>
一 変</w>
メ キ
マグ ロ</w>
ポ ール</w>
バ ン
タ コ</w>
ストー リー</w>
ア ート</w>
ア ー</w>
ア イス</w>
ん こ</w>
わ ん</w>
ひ いては</w>
と み</w>
じ つ</w>
し ら
か ざ</w>
か き</w>
お の</w>
お し</w>
お い</w>
い よ</w>
あ ま</w>
7 10</w>
18 31</w>
18 11</w>
16 87</w>
16 62</w>
15 54</w>
15 08</w>
13 68</w>
119 1</w>
117 6</w>
116 1</w>
馳 せ</w>
頭 巾</w>
離 別</w>
陸 海軍</w>
防 人</w>
門 左衛門</w>
鋼 索</w>
逃げ 出</w>
転 落</w>
貸 し
貞 成</w>
豆 板</w>
調 節</w>
託 宣</w>
計 らい</w>
西 町</w>
行 え</w>
肥 料</w>
聡 明</w>
義 敏</w>
義 定</w>
織 り</w>
絵 馬</w>
絵 本</w>
統 帥</w>
紡 績</w>
笠 懸</w>
立て 直</w>
窮 乏</w>
突 撃</w>
突 出</w>
神 泉</w>
砲 撃</w>
相 応
相応 し</w>
疲 弊</w>
疑 わし</w>
由良 之助</w>
甘 み</w>
王 墓</w>
狂 歌</w>
焼 成</w>
無 常</w>
漁 港</w>
渋 滞</w>
清 浦</w>
混 在</w>
海 部</w>
沈 静</w>
永 延</w>
気 圧</w>
桂 宮</w>
松 木</w>
条 坊</w>
未 婚</w>
望 み</w>
日 大</w>
新 庄</w>
斜 め</w>
散 位</w>
攻め 寄せ</w>
支 出</w>
採 取</w>
持 国</w>
招 待</w>
抽 象</w>
手 伝</w>
所 望</w>
戦 中</w>
成 し
懐 紙</w>
意 外</w>
恩 赦</w>
御 名</w>
崇 伝</w>
岡 倉</w>
山 木</w>
履 中</w>
尾 根</w>
小 手</w>
尊 仁</w>
寄 棟</w>
官 立</w>
安 来</w>
天 気</w>
大 蛇</w>
大 堰</w>
外 祖父</w>
地 謡</w>
国 粋</w>
唱 歌</w>
周 濠</w>
吊 る</w>
合 致</w>
台 北</w>
卜 定</w>
南 口</w>
化 生</w>
冷 た</w>
冥 加</w>
円 心</w>
内 膳</w>
入 閣</w>
克 上</w>
元 祖</w>
優 勝</w>
備 考</w>
倭 人</w>
俵 屋</w>
伊 勢
人 足</w>
京 丹波</w>
事 代
丹波 橋</w>
下 克上</w>
下 ル</w>
上 ル</w>
ー スト</w>
レ ッ
リー ダー</w>
ポ スト</w>
ピ ー</w>
ハン バー
ハ リ
ニ ーズ</w>
ド ン</w>
タン パク</w>
ソ バ</w>
ス プ
ジャ ー
グリ ーン</w>
カツ オ</w>
カ ナ
カ ット</w>
カ タ</w>
り 着</w>
もて な</w>
む ぎ</w>
ま め</w>
ふ と</w>
ひた すら</w>
と なり</w>
つ け
ち ょ</w>
た ら
す き</w>
し げ
さ け</w>
ぎ ょう
き た
い 事</w>
あ い
an d
a n</w>
9 86</w>
7 58</w>
17 99</w>
17 30</w>
16 91</w>
16 0</w>
14 87</w>
13 26</w>
12 38</w>
119 3</w>
115 0</w>
風 情</w>
頼 り</w>
頓 挫</w>
霊 亀</w>
鉄 剣</w>
金 葉</w>
金 太郎</w>
金 光</w>
量 産</w>
野 原</w>
重 点</w>
郷 社</w>
部 材</w>
進 藤</w>
通 訳</w>
送 り出</w>
返 事</w>
近 所</w>
迎え 撃</w>
軍 令</w>
論 説</w>
読 書</w>
西 鶴</w>
西 田</w>
襦 袢</w>
衣 冠</w>
行 賞</w>
蔚 山</w>
葉 山</w>
落 慶</w>
聞 書</w>
翌 々</w>
義 就</w>
縦 横</w>
緑 茶</w>
経 書</w>
納 得</w>
竹 千代</w>
直 家</w>
目 論</w>
皇 親</w>
百 錬</w>
発 句</w>
留 意</w>
生 後</w>
火 入れ</w>
漬け 込</w>
演 能</w>
源義 忠</w>
満 洲</w>
波 羅蜜</w>
汚 れ</w>
永 遠</w>
毎 時</w>
武 智
正 座</w>
模 刻</w>
朱 鳥</w>
更 なる</w>
暴 動</w>
時 事</w>
拳 法</w>
払い 下げ</w>
手 形</w>
戦 局</w>
我 々</w>
成し 遂げ</w>
慣 行</w>
情 緒</w>
恥 じ</w>
恒 貞</w>
従 弟</w>
従 七</w>
徒 然</w>
後 土御門</w>
待 合</w>
役 員</w>
庚 申</w>
平 間</w>
平 井</w>
師 長</w>
岩 屋</w>
山 椒</w>
官 田</w>
官 報</w>
大 院</w>
大 身</w>
大 観</w>
大 家</w>
塗 り
堀 尾</w>
城 壁</w>
図 柄</w>
四 谷</w>
囃 子方</w>
嚆 矢</w>
和 弓</w>
后 妃</w>
召 し出</w>
半 生</w>
千 歳</w>
創 価</w>
刺 客</w>
初 め
分 部</w>
出 会い</w>
冬 季</w>
冊 子</w>
内 町</w>
共 謀</w>
公 伝</w>
全 身</w>
信 義</w>
侘 び</w>
人 文</w>
事 相</w>
中 腹</w>
下 絵</w>
下 座</w>
三 后</w>
一 掃</w>
一 口</w>
メキ シコ</w>
マ ッ
ヘ ク
ヘク タール</w>
パ ラ
ニコ ライ</w>
タン ク</w>
セ リ</w>
ステ ー
ジ ュ</w>
ショ ー</w>
コー ナー</w>
コンピュー タ</w>
ク ロ</w>
キ リ</w>
オロ チ</w>
イ ル</w>
わ さ</w>
な ま
づ き</w>
せ っ
す ず
け つ</w>
き ょ
おお え</w>
い よ
い つ
い そ
7 40</w>
7 29</w>
18 21</w>
17 38</w>
17 03</w>
16 89</w>
16 63</w>
15 57</w>
13 32</w>
13 24</w>
12 47</w>
117 0</w>
1 12</w>
高 松宮</w>
馬 楽</w>
顛 末</w>
頻 度</w>
除 去</w>
間 人</w>
銘 柄</w>
銅 鏡</w>
配 布</w>
都 心</w>
道 理</w>
過 酷</w>
通 し
辺 郡</w>
路 上</w>
講 座</w>
誇 り</w>
試 衛</w>
被 災</w>
行 法</w>
藤 九郎</w>
葬 式</w>
草 稿</w>
草 書</w>
苦 しみ</w>
羂 索</w>
維 摩</w>
結 束</w>
終 生</w>
納 付</w>
策 略</w>
空 白</w>
秤 量</w>
秀 満</w>
禰 宜</w>
禁 令</w>
禁 じ</w>
研 修</w>
石 材</w>
白 村
白村 江</w>
略 伝</w>
町 並み</w>
片 方</w>
無 双</w>
漆 塗り</w>
混 入</w>
混 じ</w>
海 舟</w>
浴 場</w>
浅 間</w>
流 浪</w>
泰 綱</w>
永 代</w>
武智 麻呂</w>
檀 林</w>
楼 閣</w>
植 生</w>
東 岸</w>
本 曲</w>
書 生</w>
時 氏</w>
早 々</w>
施 工</w>
数 値</w>
改 装</w>
掘 立</w>
手 首</w>
手 元</w>
所 以</w>
怪 異</w>
思 え</w>
忠 直</w>
応 天門</w>
御 代</w>
後 嗣</w>
広 間</w>
常 時</w>
帰 途</w>
市 原</w>
岩 松</w>
少 丞</w>
富 国</w>
宮 前</w>
嫡 孫</w>
妹 子</w>
如 是</w>
大 船</w>
大 聖</w>
大 権</w>
大 掾</w>
大 審</w>
売 り出</w>
墨 田</w>
塩 冶</w>
垣 間
在 学</w>
土 田</w>
図 像</w>
喜 び</w>
品 目</w>
吹 き</w>
取り締 まり</w>
単 式</w>
十 津川</w>
助 力</w>
利 権</w>
兵 学</w>
公 案</w>
全 通</w>
入 院</w>
入 選</w>
先 導</w>
催 馬楽</w>
供 御</w>
仮 託</w>
仏 寺</w>
二 神</w>
亀 鑑</w>
乗 換</w>
主 命</w>
主 任</w>
不 備</w>
不 信</w>
丁 稚</w>
ロ ープ</w>
ロ ード</w>
マイ ル</w>
マ ネ
プラ スチ
プラスチ ック</w>
サン ガ</w>
サ ギ</w>
グ ランド</w>
ウズ メ</w>
ウ メ</w>
イン フ
アカ デ
み そ</w>
ま ね</w>
ひ や</w>
の ぼり</w>
な べ</w>
な ぞ
つ の</w>
こ い</w>
き ゅう
おお きみ</w>
あ しら</w>
あ か</w>
m g</w>
6 84</w>
20 10</w>
18 27</w>
17 14</w>
17 0</w>
17 05</w>
16 88</w>
16 60</w>
15 48</w>
13 48</w>
12 42</w>
119 8</w>
117 3</w>
117 1</w>
116 2</w>
鴻 臚</w>
高 安</w>
飾 り
頭 角</w>
霊 園</w>
電 信</w>
除 外</w>
開 珎</w>
長 盛</w>
長 益</w>
鍛 錬</w>
量 衡</w>
邪 魔</w>
逼 迫</w>
通し 矢</w>
身 近</w>
貞 世</w>
豊 受</w>
視 覚</w>
蒐 集</w>
葉 室</w>
芳 年</w>
船 舶</w>
能 信</w>
胴 体</w>
羲 之</w>
義 綱</w>
総 じて</w>
続 編</w>
素 性</w>
米 飯</w>
立 案</w>
科 挙</w>
秀 久</w>
禅 竹</w>
硬 貨</w>
真 珠</w>
盛 行</w>
盛 綱</w>
白 髪</w>
白 雉</w>
発 起</w>
猪 熊</w>
版 木</w>
熨 斗</w>
湯 浅</w>
清 閑</w>
海 防</w>
海 神</w>
浮 き
水 引</w>
気 付</w>
民 政</w>
横 井</w>
模 範</w>
槍 術</w>
楽 譜</w>
梅 干</w>
格 上げ</w>
根 源</w>
柚 子</w>
柄 杓</w>
枯 れ</w>
朝 長</w>
昼 夜</w>
昇 任</w>
新 助</w>
斬 殺</w>
文 麿</w>
敦 康</w>
教 部</w>
救 出</w>
掘 削</w>
捜 査</w>
招 き</w>
担 い手</w>
折 衝</w>
手 軽</w>
手 掛け</w>
手 の
成 熟</w>
愛 国</w>
応 じ</w>
復 刻</w>
強 兵</w>
度 量衡</w>
幸 い</w>
干 城</w>
帳 台</w>
帰 路</w>
席 次</w>
布 都</w>
山 鉾</w>
審 理</w>
富 本</w>
家 職</w>
宝 篋</w>
宝 山</w>
安 居</w>
宇治 田原</w>
婚 礼</w>
好 機</w>
太 陰</w>
天 日</w>
大 岡</w>
大 學</w>
多 羅</w>
器 物</w>
問 い
唐 様</w>
吟 味</w>
吉 継</w>
吉 本</w>
取 調</w>
即 座</w>
印 塔</w>
則 宗</w>
分 配</w>
凱 旋</w>
入 寂</w>
兌 換</w>
先 手</w>
値 段</w>
修 士</w>
企 図</w>
付 着</w>
人 望</w>
中 岡</w>
両 部</w>
上 卿</w>
三 神</w>
三 沢</w>
三 尊</w>
一 夫</w>
ー リ
レ ート</w>
ル フ</w>
ラン ク</w>
ユリ ウス</w>
ム ズ</w>
ミュージ アム</w>
ミカ ヅチ</w>
マ リア</w>
マ シュー</w>
ピ ア
ノ コ</w>
ニ ク</w>
ナン バー</w>
ツ チ</w>
チョ ウ</w>
ダイ コン</w>
タケ ミカヅチ</w>
ズ キ</w>
コン サ
カメ ラ</w>
オ チ</w>
エ ド
イ ラ
イ チ
もろ み</w>
み かん</w>
べ い</w>
へ い
ふ じ</w>
のみ や
な ぎ
だい じ</w>
たま たま</w>
たい てい</w>
から くり</w>
いよ いよ</w>
いっ そう</w>
い ん
あっ さり</w>
あ ふれ</w>
a g
8 77</w>
7 81</w>
16 67</w>
16 66</w>
16 50</w>
16 44</w>
16 31</w>
15 64</w>
15 50</w>
13 18</w>
12 41</w>
116 4</w>
1 16</w>
鹿 ケ谷</w>
高 浜</w>
高 城</w>
飼 育</w>
集 大成</w>
隆 信</w>
関 税</w>
銚 子</w>
銀 札</w>
郷 司</w>
進 路</w>
連 行</w>
退 職</w>
退 官</w>
辛 口</w>
資 産</w>
諸 司</w>
調 弦</w>
覚 め</w>
見 得</w>
藤 森</w>
花 魁</w>
良 知</w>
良 源</w>
聖 書</w>
老 職</w>
義 疏</w>
繁 華</w>
紫 香
立て 籠も</w>
秘 蔵</w>
禁 色</w>
神 領</w>
神 号</w>
直 方</w>
監 査</w>
益 次郎</w>
留 置</w>
画 図</w>
焼き 鳥</w>
焼 香</w>
無 罪</w>
溢 れ</w>
洋 学</w>
泰 平</w>
法 難</w>
法 王</w>
汁 粉</w>
永 祚</w>
永 治</w>
氏 親</w>
次 兄</w>
植 松</w>
村 社</w>
本 城</w>
未 遂</w>
未 明</w>
木 田</w>
智 顗</w>
智 積</w>
日 用</w>
日 比
攻め 落と</w>
改 葬</w>
損 傷</w>
換 算</w>
投 獄</w>
戯 画</w>
愛 妾</w>
忠 次</w>
忠 恒</w>
忠 吉</w>
徴 発</w>
徳 一</w>
御 用</w>
従 道</w>
彰 義</w>
弾 丸</w>
引き 換え</w>
弓 射</w>
年 表</w>
年 々</w>
常 住</w>
帝 室</w>
対 称</w>
官 印</w>
宍 戸</w>
安 曇</w>
宇 多野</w>
天 候</w>
外 題</w>
墨 蹟</w>
土 用</w>
国 々</w>
善 政</w>
名 将</w>
同 線</w>
叱 責</w>
古 人</w>
勝 ち</w>
動 産</w>
加 入</w>
割り 当て</w>
刈 田</w>
出 迎え</w>
再 三</w>
八 尺</w>
優 雅</w>
債 務</w>
伝 馬</w>
伊 吹</w>
他 力</w>
今 鏡</w>
予 測</w>
亀 甲</w>
世 田
三 和</w>
三 十郎</w>
一 女</w>
ラ リー</w>
モ リ</w>
マン ション</w>
ポ ン</w>
ホ ー
ホ オリ</w>
ベ ー
ヒ ノキ</w>
ノ ロ
ト リ</w>
ティ ン</w>
スト ン</w>
ショウ ガ</w>
シ ベ
シ カ</w>
ゴ ム</w>
ガ ー</w>
わ り
ま ぶ</w>
つ くり</w>
さ わ</w>
さ し
く だり</w>
く じ
が わ</w>
かた ど</w>
お り
いわ く</w>
c h
8 50</w>
7 94</w>
3 50</w>
3 5
18 26</w>
18 06</w>
17 48</w>
17 47</w>
17 36</w>
17 13</w>
16 78</w>
16 73</w>
16 53</w>
16 51</w>
16 42</w>
16 30</w>
15 46</w>
15 43</w>
14 66</w>
14 0</w>
13 50</w>
12 35</w>
12 12</w>
115 7</w>
龍 之介</w>
麺 類</w>
鳥 獣</w>
高 層</w>
香 木</w>
雑 煮</w>
開 口</w>
開 元</w>
門 真</w>
長 沼</w>
鎌 田</w>
銭 座</w>
酢 飯</w>
酒 母</w>
遅 く</w>
通 夜</w>
辺 境</w>
跡 継ぎ</w>
貫 通</w>
貢 納</w>
裁 可</w>
表 裏</w>
茶 席</w>
良 田</w>
老 朽</w>
老 女</w>
義 広</w>
美 味
美味 し</w>
綏 靖</w>
箕 作</w>
立 役</w>
神 秘</w>
神 皇</w>
祈 念</w>
磨 製</w>
盛 時</w>
皆 伝</w>
百 川</w>
留 袖</w>
町 衆</w>
玉 串</w>
片 道</w>
熱 湯</w>
熱 帯</w>
煙 草</w>
灌 漑</w>
源 蔵</w>
源 太郎</w>
済 み</w>
清 助</w>
清 凉</w>
浮 橋</w>
派 閥</w>
注 連
泣 き
法 成</w>
毛 利家</w>
栄 一</w>
果た せ</w>
松 緑</w>
村 岡</w>
木 の
書 法</w>
曲 が</w>
晴 らし</w>
明 朝</w>
新 鮮</w>
政 則</w>
押し 切</w>
手 水</w>
憲 顕</w>
悪 霊</w>
恭 仁</w>
忠 親</w>
後 花園</w>
強 度</w>
引き 立て</w>
座 頭</w>
帚 木</w>
帆 布</w>
巡 査</w>
山 脇</w>
山 人</w>
寛 子</w>
実 効</w>
宗 純</w>
字 体</w>
奉 公衆</w>
天 部</w>
大 福</w>
大 物
大 史</w>
多 発</w>
多 武
多 々</w>
外 郭</w>
堂 塔</w>
埋め 立て</w>
園 芸</w>
四 条
器 量</w>
善 男</w>
唐 津</w>
命 中</w>
同 窓</w>
同 然</w>
吉 崎</w>
叢 書</w>
南 画</w>
北 川</w>
勃 興</w>
刻 印</w>
初 陣</w>
分 担</w>
出 島</w>
冷 蔵</w>
内 観</w>
入 山</w>
入 国</w>
信 行</w>
仲 裁</w>
仏 式</w>
五 稜</w>
了 承</w>
乙 女</w>
久 坂</w>
不 敬</w>
三 弦</w>
ビ ジョン</w>
ド ウ</w>
タカ ミムスビ</w>
スト ラ</w>
サン トリー</w>
コン コース</w>
クレ ジット</w>
カ リ</w>
オ ム
わ たし</w>
ら ぎ</w>
ぽ ん</w>
び ょう
な び</w>
た る</w>
すぐ さま</w>
か り
あ わ
r i
e t
T E
18 29</w>
18 10</w>
18 08</w>
17 96</w>
17 58</w>
17 11</w>
16 64</w>
16 57</w>
15 42</w>
14 88</w>
13 42</w>
13 37</w>
114 9</w>
10 17</w>
高 綱</w>
馬 琴</w>
香 淳</w>
風 雅</w>
隷 属</w>
開 明</w>
長 歌</w>
遠 国</w>
道 灌</w>
道 安</w>
逸 勢</w>
軽 量</w>
転 覆</w>
警 官</w>
謀 略</w>
諸 隊</w>
諦 め</w>
詰 め
行き 来</w>
螺 鈿</w>
蔵 米</w>
蓮 淳</w>
膠 着</w>
羽 田</w>
絶 望</w>
節 度</w>
箸 墓</w>
竹 製</w>
立 売</w>
稲 垣</w>
福 田</w>
禁 忌</w>
社 前</w>
磨 崖</w>
硫 黄</w>
矢 田</w>
直 正</w>
生 姜</w>
玩 具</w>
玉 子</w>
玄 沢</w>
狭 衣</w>
物 事</w>
煙 管</w>
無 位</w>
準 じ</w>
源 太</w>
清 水谷</w>
清 楽</w>
海 陸</w>
浮 上</w>
浪 速</w>
洞 窟</w>
河原 崎</w>
決 裁</w>
氏 名</w>
殿 中</w>
検 注</w>
桂 昌</w>
柳 田</w>
枯 山水</w>
松 平定</w>
月 読</w>
智 慧</w>
明 仁</w>
新 潮</w>
教 行</w>
政 村</w>
改 鋳</w>
振 舞</w>
押し 寄せ</w>
手 事物</w>
感 銘</w>
律 令制</w>
延 年</w>
幼 年</w>
幸 四郎</w>
差し 向け</w>
嵐 山
山 々</w>
屋 内</w>
小 国</w>
寄 せ
家 学</w>
宣 戦</w>
妙 覚</w>
大 高</w>
大 賞</w>
夏 季</w>
士 官</w>
壁 面</w>
埋 蔵</w>
土 浦</w>
喜 劇</w>
呼び 寄せ</w>
同 区</w>
収 授</w>
即 日</w>
危 う</w>
印 可</w>
南 洋</w>
勇 猛</w>
助 手</w>
前 野</w>
前 夜</w>
削 除</w>
判 然</w>
刀 工</w>
出 し
兼 続</w>
兼 ね
全 羅</w>
元 勲</w>
修 繕</w>
使 役</w>
仮 面</w>
代 数</w>
付き 従</w>
事 象</w>
中 退</w>
丞 相</w>
世 相</w>
上 西</w>
三 間</w>
三 笠</w>
万 物</w>
一 巻</w>
一 子</w>
レ コード</w>
リン ク</w>
リア ン</w>
プ ス</w>
フィリ ピン</w>
ピア ノ</w>
ド ロ</w>
ディ ー
テ ク
ッ ツ</w>
チュ ア</w>
ダ ル</w>
ダ ラ</w>
タ ブ
スタン ド</w>
ス タ</w>
シャ ー
シャ ル</w>
シベ リア</w>
コンサ ート</w>
ゆ で</w>
み だ</w>
ま こと</w>
ふ り</w>
ふ すま</w>
び ら</w>
つ る
っ た</w>
こだ わ</w>
く ち</w>
きょう ごく</w>
いら つめ</w>
あた え</w>
i ll
8 12</w>
6 45</w>
18 19</w>
18 15</w>
17 89</w>
17 86</w>
17 71</w>
17 60</w>
17 45</w>
16 70</w>
16 34</w>
16 2</w>
16 10</w>
15 07</w>
12 72</w>
12 52</w>
12 18</w>
119 5</w>
114 1</w>
龍 造寺</w>
鹿 鳴</w>
髪 形</w>
高 見</w>
高 座</w>
首 班</w>
館 長</w>
青 龍</w>
隠 退</w>
長 吏</w>
鉱 業</w>
金 ヶ崎</w>
配 備</w>
那 智</w>
違 法</w>
過 料</w>
超 然</w>
賢 所</w>
賀 陽</w>
議 奏</w>
語 学</w>
詠 歌</w>
親 王家</w>
見 直し</w>
要 集</w>
西 岸</w>
虎 口</w>
薬 草</w>
蔵 六</w>
草 木</w>
色 合い</w>
腹 心</w>
聞き 入れ</w>
考 えれ</w>
羽 曳
義 廉</w>
義 士</w>
緩 急</w>
紛 失</w>
等 伯</w>
竹 中</w>
矢 野</w>
眷 属</w>
盛 親</w>
皇 孫</w>
登 り</w>
発 刊</w>
甲 子</w>
生 食</w>
特 命</w>
片 手</w>
燃 や</w>
潮 流</w>
湿 度</w>
河 辺</w>
民 事</w>
正 弘</w>
樟 葉</w>
標 的</w>
楕 円</w>
梅 干し</w>
桂 太郎</w>
根 子</w>
架 か</w>
林 業</w>
杉 山</w>
最 多</w>
更 迭</w>
更 級</w>
春 季</w>
旦 那</w>
文 筆</w>
政 経</w>
損 な</w>
揚 げ
探 索</w>
捻 出</w>
拍 手</w>
担 ぎ</w>
懐 柔</w>
憧 れ</w>
愛 用</w>
忠 能</w>
忠 綱</w>
志 願</w>
忌 寸</w>
後 円墳</w>
形 見</w>
弁 明</w>
建 永</w>
度 数</w>
年 譜</w>
常 行</w>
師 通</w>
布 袋</w>
巻 頭</w>
工 法</w>
小 作</w>
寺 門</w>
家 々</w>
宮 跡</w>
宝 殿</w>
官 有</w>
孫 子</w>
姓 名</w>
妻 三郎</w>
女 婿</w>
奏 請</w>
天 延</w>
天 人</w>
大 悲</w>
多治 比</w>
多 宝</w>
堂 々</w>
土 台</w>
固 形</w>
固 ま</w>
唐 風</w>
哀 れ</w>
和 琴</w>
名 張</w>
同 郷</w>
合 法</w>
取 次</w>
反 省</w>
印 章</w>
半 国</w>
勧 業</w>
勅 書</w>
労 役</w>
加 速</w>
別 命</w>
列 藩</w>
円 光</w>
兼 平</w>
兼 好</w>
兵 衛府</w>
光 信</w>
元 永</w>
信 貴山</w>
依 拠</w>
例 年</w>
何 れ</w>
休 憩</w>
伊 奈</w>
任 免</w>
以 蔵</w>
代 償</w>
他 戸</w>
今 治</w>
中 毒</w>
与 三郎</w>
下 水</w>
下 層</w>
万 作</w>
リ ード</w>
ライ ナー</w>
ラ ル</w>
ョ ウ</w>
フ ジ</w>
バ ブル</w>
ナイ フ</w>
ナ マ
ト レ
ディ ス
デ オ</w>
チャ ージ</w>
チ ン
セ ル</w>
スク ール</w>
ス リ
シ ア
ゲ ル</w>
キ ハ
カ ッ
カ ウン
オ ス
イ クラ</w>
れ ん</w>
に ぎ
なぞ らえ</w>
と らわれ</w>
づ か</w>
せん じ</w>
す い</w>
じ ま</w>
ぐ れ</w>
く わえ</w>
か ばね</w>
おぼ ろ</w>
う ら
う と</w>
う つ
x x</w>
u s</w>
e m
I I</w>
8 23</w>
7 62</w>
17 91</w>
17 81</w>
17 68</w>
17 54</w>
17 19</w>
17 18</w>
17 12</w>
16 45</w>
16 22</w>
16 21</w>
14 77</w>
13 91</w>
12 93</w>
12 25</w>
12 11</w>
鳩 摩
鳩摩 羅什</w>
駐 在</w>
馬 車</w>
首 藤</w>
頼 重</w>
露 地</w>
霊 神</w>
雁 金</w>
陥 れ</w>
長 着</w>
野 田川</w>
野 心</w>
重 房</w>
郷 村</w>
選 考</w>
道 行</w>
過 渡</w>
遊 亭</w>
送 還</w>
追い つ</w>
追 物</w>
追 悼</w>
辺 見</w>
貼 り付け</w>
財 力</w>
誹 謗</w>
訂 正</w>
要 塞</w>
西 北</w>
褒 賞</w>
行 進</w>
藩 領</w>
葬 送</w>
落 馬</w>
荷 駄</w>
茶 話</w>
茶 湯</w>
致 仕</w>
能 保</w>
義 助</w>
緒 方</w>
総 崩れ</w>
算 額</w>
稗 田</w>
税 収</w>
秋 成</w>
秀 綱</w>
祭 主</w>
確 固</w>
砲 兵</w>
短 編</w>
直 訴</w>
直 仁</w>
監 禁</w>
百 官</w>
異 なり</w>
画 題</w>
男 色</w>
産 み</w>
玉 露</w>
玄 武</w>
炭 酸</w>
灯 台</w>
渡 御</w>
津 彦</w>
河 上</w>
汽 船</w>
求 婚</w>
永 年</w>
水 泳</w>
残 念</w>
武 野</w>
欧 化</w>
橋 梁</w>
植 林</w>
桑 山</w>
染 料</w>
東 上</w>
月 形</w>
曽 根</w>
書 跡</w>
書 体</w>
智 仁</w>
昨 今</w>
旧 辞</w>
日 明</w>
日 付け</w>
方 位</w>
敵 陣</w>
摩 訶</w>
排 水</w>
掃 除</w>
戦 災</w>
戦 火</w>
懺 悔</w>
後 押し</w>
弾 劾</w>
強 要</w>
広 範</w>
平 曲</w>
帰 朝</w>
師 弟</w>
工 商</w>
寿 司
密 奏</w>
宗 峰</w>
完 結</w>
妊 娠</w>
奉 公人</w>
天 国</w>
墳 墓</w>
国 税</w>
国 母</w>
四 隅</w>
周 忌</w>
吹 上</w>
吉 保</w>
各 省</w>
右 岸</w>
史 家</w>
台 帳</w>
叙 勲</w>
取 締
収 束</w>
参 じ</w>
原 形</w>
千 恵
加 行</w>
利 長</w>
別 当
初 音</w>
刀 自</w>
出 前</w>
冷 房</w>
内 面</w>
内 山</w>
其 の</w>
公 債</w>
何 事</w>
井 沢</w>
井 手</w>
二 階</w>
久 し</w>
主 格</w>
世 帯</w>
世 嗣</w>
三 野</w>
三 遊亭</w>
七 五三</w>
ン グ
ワ イド</w>
ロ ング</w>
レ ーション</w>
フォル ニア</w>
ス キ</w>
サ イ</w>
コ ウ
キ ア</w>
カル シウム</w>
エ リ
イ ネ</w>
アメノ ウズメ</w>
り 入れ</w>
や わ
ひ ゃく</w>
ひ の</w>
は れ</w>
は ば
は ち
のみや つこ</w>
ね こ</w>
く わ</w>
き ち
か わ
お く</w>
s t
9 67</w>
8 24</w>
7 60</w>
18 09</w>
17 85</w>
17 08</w>
16 39</w>
15 53</w>
13 94</w>
120 7</w>
12 74</w>
119 6</w>
10 9</w>
1 15</w>
龍 王</w>
黒 幕</w>
高 辻</w>
顕 光</w>
預 所</w>
露 出</w>
雑 務</w>
雑 事</w>
隙 間</w>
院 長</w>
関 説</w>
間 違え</w>
録 音</w>
錦 織</w>
金 庫</w>
重 厚</w>
酸 味</w>
配 達</w>
郡 内</w>
運 上</w>
逃げ 帰</w>
追い や</w>
返 却</w>
返 り
辞 め</w>
軍 務</w>
赤 字</w>
贔 屓</w>
貞 永</w>
貞 明</w>
豊 橋</w>
讃 え</w>
護 法</w>
課 役</w>
親 政派</w>
西 明石</w>
裁 縫</w>
行 綱</w>
落 雷</w>
草 履</w>
良 沢</w>
自 領</w>
職 権</w>
聞 集</w>
聖 地</w>
耕 地</w>
翻 刻</w>
緩 やか</w>
給 付</w>
結び 付け</w>
紙 屋</w>
競 輪</w>
穴 山</w>
称 制</w>
秋 季</w>
秋 分</w>
祈 り</w>
着 付け</w>
真 意</w>
百 科</w>
白 玉</w>
白 地</w>
疑 惑</w>
生 死</w>
生 卵</w>
玉 造</w>
独 身</w>
狛 犬</w>
狙 い</w>
無 念</w>
炭 鉱</w>
波 及</w>
治 定</w>
永 山</w>
歩 行</w>
武 門</w>
武 蔵
正 覚</w>
歌 論</w>
歌 劇</w>
標 榜</w>
梵 天</w>
果 安</w>
松 阪</w>
昧 耶</w>
明 軍</w>
明 示</w>
新 皇</w>
断 面</w>
断 定</w>
斉 衡</w>
敵 軍</w>
敵 将</w>
改 進</w>
提 言</w>
拡 幅</w>
抜 け出</w>
手 柄</w>
慶 永</w>
惟 康</w>
恒 久</w>
性 別</w>
徳 井</w>
従 六</w>
後 桜町</w>
後 宇多</w>
役 立</w>
当 山</w>
幸 村</w>
幸 徳井</w>
平 た</w>
常 立</w>
常 備</w>
左 翼</w>
山 東</w>
属 国</w>
居 合</w>
小 津</w>
対 戦</w>
寵 臣</w>
家 重</w>
学 び</w>
好 まし</w>
天 福</w>
天 の川</w>
大 逆</w>
大 意</w>
報 い</w>
城 介</w>
城 下町</w>
土 蔵</w>
国 清</w>
和 束</w>
吉 左衛門</w>
各 個</w>
受 理</w>
原 産</w>
千恵 蔵</w>
北 越</w>
加 減</w>
前 橋</w>
前 例</w>
利 子</w>
刀 術</w>
出 場</w>
内 臓</w>
内 国</w>
兵 範</w>
公 立</w>
全 駅</w>
元 応</w>
優 し</w>
伴 造</w>
他 所</w>
仁 木</w>
五 徳</w>
主 戦</w>
不 良</w>
上 中</w>
三 昧耶</w>
一 両</w>
ー チ</w>
ユ ズ</w>
モ ダン</w>
プ リ</w>
ピ ーク</w>
ニャ ク</w>
チ ャ</w>
チ ケット</w>
ジャ パン</w>
ザ ル</w>
コン ビ</w>
コン ニャク</w>
ギ ス</w>
キ ハ</w>
カリ フォルニア</w>
カ ミ</w>
ウ ト</w>
わざ と</w>
やわ らか</w>
も らえ</w>
むす び</w>
ふる さと</w>
に わか</w>
なら ず</w>
そ め</w>
し きり</w>
さら なる</w>
さ ぶ</w>
さ すが</w>
こ ま</w>
くら べ</w>
く め</w>
き よ
かつ ら</w>
かい どう</w>
いか なる</w>
p er
i k
9 40</w>
7 59</w>
18 05</w>
17 56</w>
17 07</w>
16 49</w>
16 38</w>
15 33</w>
15 31</w>
14 71</w>
13 67</w>
12 24</w>
114 2</w>
10 11</w>
1 19</w>
1 11</w>
龍 笛</w>
龍 光</w>
陽 暦</w>
院 司</w>
阿 含</w>
阪 本線</w>
長 編</w>
長 時</w>
重 胤</w>
遺 恨</w>
過 剰</w>
連 枝</w>
造 幣</w>
追い 払</w>
迂 回</w>
農 事</w>
辛 亥</w>
賄 賂</w>
貞 顕</w>
調 略</w>
誇 示</w>
見 世</w>
行 い</w>
蕎麦 粉</w>
葬 祭</w>
菅 沼</w>
荻 生</w>
茶 臼</w>
茶 杓</w>
自 伝</w>
続 々</w>
絶 滅</w>
経 盛</w>
経 国</w>
紛 糾</w>
紀 年</w>
立 身</w>
突 き</w>
空 蝉</w>
種 臣</w>
税 制</w>
福 信</w>
知 人</w>
盲 目</w>
盛 り上げ</w>
病 状</w>
當 麻</w>
異 端</w>
画 法</w>
理 趣</w>
玉 川</w>
玄 奘</w>
父 祖</w>
無 縁</w>
無 く</w>
漢 代</w>
溶 か</w>
港 町</w>
清 寧</w>
洋 装</w>
河 勝</w>
沢 山</w>
沈 め</w>
江 華</w>
江 川</w>
比 喩</w>
母 后</w>
殿 内</w>
殺 菌</w>
果 物</w>
東 近江</w>
村 宗</w>
本 坊</w>
未 完</w>
木 沢</w>
明 瞭</w>
日比 谷</w>
日 宋</w>
新 左衛門</w>
政 情</w>
改 編</w>
手 足</w>
手 習</w>
手 中</w>
懸 け</w>
慎 太郎</w>
慌 て</w>
恩 恵</w>
忠 雄</w>
忠 重</w>
忠 正</w>
御 恩</w>
御 免</w>
彫 像</w>
年 下</w>
年 上</w>
巡 ら</w>
川 路</w>
岩 船</w>
層 塔</w>
届 出</w>
小 社</w>
小 石川</w>
寛 徳</w>
宮 門</w>
姫 君</w>
天 主</w>
大 領</w>
大 沢</w>
大 国主</w>
執 奏</w>
城 兵</w>
地 祇</w>
地 味</w>
國 學</w>
回 帰</w>
唐 衣</w>
名 族</w>
名 優</w>
合 作</w>
口 上</w>
収 公</w>
千 早</w>
勇 士</w>
制 止</w>
初 等</w>
分 流</w>
刀 狩</w>
出 頭</w>
再 起</w>
円 町</w>
内 応</w>
兼 香</w>
公 用</w>
公 然</w>
公 地</w>
八 戸</w>
入 部</w>
僧 坊</w>
信 楽</w>
信 実</w>
信 奉</w>
保 育</w>
休 暇</w>
伊 佐</w>
仲 綱</w>
代 金</w>
付 録</w>
他 者</w>
人 夫</w>
井 田</w>
五 経</w>
五 節</w>
二 手</w>
事代 主</w>
乗り 込</w>
両 脇</w>
世田 谷</w>
世 家</w>
下 郡</w>
三 韓</w>
一 杯</w>
ーリ ズ</w>
ーデ ン</w>
ヴォ ーリズ</w>
ロッ プ</w>
ロッ ケ</w>
ヤマ ツミ</w>
メー ション</w>
ミ ア</w>
ベル リン</w>
ブ ラン</w>
ニ ス</w>
ディ ー</w>
ティ ア</w>
ツ レ</w>
ッ グ</w>
スタ ート</w>
ス ター
ス イ</w>
ジ タル</w>
シン プル</w>
シン トン</w>
シ ソ</w>
コ ウ</w>
キ ッ
オ レンジ</w>
エ ジ
ウ ケ</w>
イワ シ</w>
イスラ ム</w>
ア ナ</w>
む ら
み どり</w>
み し</w>
ま わり</w>
ふ しみ</w>
の ぶ
に わ</w>
に ち</w>
なお かつ</w>
とも ども</w>
っ ぱ</w>
っ か</w>
だ ら
たた かい</w>
すき 焼き</w>
す べ</w>
す い
さ か</w>
こ ども</w>
く ん</w>
かた わら</w>
え び
い と</w>
s i
d a
9 39</w>
8 66</w>
8 42</w>
8 34</w>
7 65</w>
7 24</w>
3 0
20 7</w>
2 60</w>
17 92</w>
17 90</w>
17 64</w>
17 49</w>
17 24</w>
16 56</w>
16 29</w>
15 30</w>
15 01</w>
14 65</w>
14 29</w>
13 30</w>
13 21</w>
118 7</w>
10 6</w>
黙 認</w>
鳴 き
魚 肉</w>
高 村</w>
高 名</w>
駐 留</w>
風 藻</w>
音 曲</w>
長 明</w>
金 品</w>
野 間</w>
部 品</w>
遍 歴</w>
造 成</w>
逃 が</w>
軋 轢</w>
足 柄</w>
貼 り</w>
費 や</w>
象 嵌</w>
豊 山</w>
諸 派</w>
請 来</w>
語 彙</w>
誇 張</w>
詮 房</w>
詣 で</w>
註 釈</w>
褐 色</w>
製 鉄</w>
草 花</w>
花 月</w>
芝 山</w>
良 弁</w>
臣 民</w>
脱 落</w>
脇 屋</w>
職 能</w>
義 維</w>
義 統</w>
義 嗣</w>
羅 刹</w>
紅 白</w>
精 鋭</w>
精 緻</w>
策 定</w>
端 午</w>
種 目</w>
秋 好</w>
確 かめ</w>
硫 酸</w>
県 内</w>
盛 平</w>
的 中</w>
白 壁</w>
玄 以</w>
牛 耳</w>
無 駄</w>
為 平</w>
漢 籍</w>
滋 野井</w>
清 行</w>
海 藻</w>
津 守</w>
注 記</w>
法 堂</w>
法 則</w>
決 まり</w>
江 東</w>
永 田</w>
気 団</w>
武蔵 野</w>
武 州</w>
正 岡</w>
楽 屋</w>
校 合</w>
栖 鳳</w>
栄 子</w>
松 園</w>
本 圀</w>
木 棺</w>
月 次</w>
書 類従</w>
旧 姓</w>
教 説</w>
政 略</w>
採 択</w>
掘 り
招 魂</w>
抜 刀</w>
打ち 込</w>
手 打ち</w>
手 代</w>
懐 風藻</w>
憤 慨</w>
恐 らく</w>
後 桃園</w>
待 ち</w>
往 還</w>
役 柄</w>
年 神</w>
常 駐</w>
希 典</w>
巻 子</w>
山 野</w>
小 児</w>
寝 所</w>
宗 論</w>
宗 良</w>
安 貞</w>
妍 子</w>
如 水</w>
天 文学</w>
天 寿</w>
大 地</w>
大 典</w>
大 仙</w>
外 科</w>
夏 場</w>
墓 誌</w>
塩 津</w>
堀 江</w>
基 壇</w>
地 質</w>
地 誌</w>
土 蜘蛛</w>
四条 畷</w>
商 館</w>
唐 門</w>
唐 人</w>
名 越</w>
吉 記</w>
可 決</w>
古 風</w>
却 下</w>
南 門</w>
南 鐐</w>
南 紀</w>
区 切</w>
北 魏</w>
包 装</w>
勝 海舟</w>
動 植物</w>
別 号</w>
切り 落と</w>
切 符</w>
公 実</w>
公 子</w>
八 男</w>
全 土</w>
光 線</w>
光 子</w>
像 内</w>
借 用</w>
修 了</w>
信 子</w>
信 勝</w>
信 之</w>
侍 医</w>
併 記</w>
会 式</w>
仮 設</w>
代 替わり</w>
仕 舞</w>
人 心</w>
亭 主</w>
京 阪本線</w>
之 内</w>
両 氏</w>
不 能</w>
不 浄</w>
下 さ</w>
上 帝</w>
三 方
三 千代</w>
万 両</w>
ワカ メ</w>
ワ シントン</w>
レン ガ</w>
レ ル</w>
ポ ン
ハンバー グ</w>
ノ 宮</w>
ノ ル
デ ジタル</w>
テ ル
テ ナ
チ キン</w>
スパ ゲ
ジャ ン</w>
シ シ</w>
コ ロッケ</w>
ゲ ート</w>
ガ ヤ</w>
ア サ
もみ じ</w>
め ん
め ぐら</w>
ほう じょう</w>
の び</w>
どん どん</w>
と よ
つ ば</w>
た し
す り</w>
こ ち</w>
げ んじ</w>
け な</w>
くに のみやつこ</w>
く ろ
か 国</w>
か ぐ
か く
か がみ</w>
おお き</w>
お び</w>
i l
e s</w>
8 08</w>
17 76</w>
17 69</w>
17 51</w>
17 44</w>
16 99</w>
16 71</w>
16 41</w>
16 37</w>
15 56</w>
14 55</w>
13 99</w>
13 46</w>
12 85</w>
12 84</w>
12 75</w>
12 53</w>
10 7</w>
鳥 の子</w>
馬 印</w>
除 名</w>
銅 製</w>
重 家</w>
配 列</w>
部 衆</w>
那 珂</w>
還 幸</w>
遺 物語</w>
遊 覧</w>
迷 信</w>
迎 賓</w>
輪 廻</w>
軽 視</w>
路 面</w>
足利 成氏</w>
足 利家</w>
起 訴</w>
赤 井</w>
議 事</w>
詩 吟</w>
観 賞</w>
覚 鑁</w>
要 害</w>
街 路</w>
薬 学</w>
落 合</w>
菊 亭</w>
荼 毘</w>
茶 色</w>
芝 翫</w>
至 り</w>
自 慢</w>
自 信</w>
義 真</w>
義 将</w>
義 国</w>
義 勝</w>
群 書類従</w>
繁 盛</w>
縮 緬</w>
糾 合</w>
算 術</w>
竹 原</w>
端 緒</w>
立ち 並</w>
移 入</w>
石 斧</w>
白 浪</w>
疱 瘡</w>
疎 開</w>
異 称</w>
田 山</w>
生 育</w>
犬 上</w>
牽 引</w>
物 産</w>
物 流</w>
牛 馬</w>
片 側</w>
為 兼</w>
為 光</w>
海 津</w>
海 洋</w>
浮か べ</w>
注連 縄</w>
氷 室</w>
正 貨</w>
正 使</w>
止 観</w>
機 関説</w>
権 能</w>
棒 状</w>
梶 井</w>
校 本</w>
朝 議</w>
朝 比
服 飾</w>
最 寄り</w>
春日 大</w>
明 楽</w>
明 日</w>
旧 称</w>
散 在</w>
放 浪</w>
支 障</w>
揮 毫</w>
挫 折</w>
持ち 上げ</w>
拾 遺物語</w>
抑 圧</w>
打 開</w>
意 休</w>
恐 慌</w>
急 襲</w>
忠 真</w>
心 身</w>
御 霊
待 機</w>
引 継</w>
弊 害</w>
建 ち
建ち 並</w>
市 立</w>
岩 井</w>
小 沢</w>
小 山田</w>
小 一</w>
対 局</w>
寺 名</w>
寄 子</w>
寂 光</w>
家 芸</w>
家 畜</w>
宮 部</w>
実 体</w>
安 泰</w>
姫 神</w>
奨 学</w>
天 上</w>
大 塔</w>
夜 話</w>
夜 久野</w>
多 門</w>
垣間 見</w>
在 世</w>
国 貞</w>
国 力</w>
嘉 保</w>
嗜 好</w>
善 行</w>
商 会</w>
同 郡</w>
吉 次</w>
台 地</w>
可 成</w>
古 書</w>
叙 述</w>
取締 り</w>
北 辰</w>
勉 学</w>
加 佐</w>
力 量</w>
前 座</w>
別 物</w>
処 女</w>
兵 役</w>
八 雲</w>
全 軍</w>
免 官</w>
先 輩</w>
優 婆
儒 家</w>
傾 城</w>
偽 作</w>
住 み
仕 組</w>
仕 業</w>
仕 方</w>
今 回</w>
事 略</w>
乞 い</w>
両 人</w>
不 穏</w>
不 入</w>
下 山</w>
上 段</w>
一 澤</w>
一 山</w>
一 命</w>
・ 下</w>
ヶ 島</w>
レ イ</w>
リ ュ
マ ラ
ペ ラ</w>
ヘ ラ</w>
フォ ー
フェ ノロ
フェノロ サ</w>
フ リ
ピ ュ
バ ック</w>
ニュ ース</w>
ニ ング</w>
ト ス</w>
サ ツマ</w>
コ メント</w>
カ イ
り 合い</w>
ば ち</w>
はし だて</w>
な る
と ら</w>
たっ た</w>
すく ね</w>
す く</w>
こ が</w>
き ら
お んな</w>
お ろ
お だ</w>
いけ ばな</w>
い かん</w>
あ つ</w>
c m
a v
I n
C M</w>
9 77</w>
9 69</w>
9 30</w>
8 84</w>
8 40</w>
8 33</w>
7 71</w>
7 50</w>
6 81</w>
18 07</w>
17 63</w>
17 02</w>
15 26</w>
15 06</w>
15 04</w>
14 00</w>
12 32</w>
12 27</w>
1 14</w>
高 広</w>
香 典</w>
館 主</w>
飛 地</w>
長 英</w>
金 峯山</w>
金 地</w>
里 人</w>
郡 上</w>
郎 兵衛</w>
遼 東</w>
適 宜</w>
遍 照</w>
通り 名</w>
退 学</w>
迫 害</w>
身 代わり</w>
贋 貨</w>
諸 城</w>
論 議</w>
誠 仁</w>
詞 章</w>
解 読</w>
観 月</w>
要 法</w>
被 告</w>
蘭 方</w>
茶 壺</w>
芸 事</w>
舞 姫</w>
興 正</w>
至 徳</w>
翌 朝</w>
義 弟</w>
義 宣</w>
織 豊</w>
総 領</w>
紫 綬</w>
糾 弾</w>
管 弦</w>
種 智</w>
税 率</w>
秀 治</w>
禎 子</w>
禄 高</w>
神 風</w>
神 仙</w>
石 巻</w>
矢 部</w>
省 庁</w>
直 結</w>
目 黒</w>
皇 胤</w>
白 身</w>
異 本</w>
略 式</w>
献 金</w>
献 納</w>
献 策</w>
火 力</w>
湊 町</w>
清 廉</w>
海 産</w>
流 人</w>
洗 濯</w>
決 裂</w>
決 め
汁 物</w>
氾 濫</w>
永 長</w>
水 源</w>
水 晶</w>
武 帝</w>
正 儀</w>
次 ぎ</w>
欠 落</w>
楽 座</w>
楽 市</w>
楽 人</w>
楽 しめ</w>
極 東</w>
栄 誉</w>
柔 軟</w>
枠 組み</w>
来 客</w>
本 間</w>
服 従</w>
有 明</w>
曳 き</w>
景 盛</w>
日 数</w>
文 華</w>
敵 討</w>
散 楽</w>
政 一</w>
握 り</w>
探 検</w>
指 し</w>
拡 充</w>
拝 礼</w>
抜 き
投げ つけ</w>
承 知</w>
戸 川</w>
戦 意</w>
御 定</w>
従 業</w>
後 柏原</w>
弥 左衛門</w>
引き 入れ</w>
度 合い</w>
平 塚</w>
布 衣</w>
就 け</w>
専 属</w>
封 印</w>
寺 社領</w>
密 着</w>
家 具</w>
宮 島</w>
宗 徒</w>
宗 久</w>
安 部</w>
孝 子</w>
孝 元</w>
媒 体</w>
太 陽暦</w>
大 雅</w>
大 西</w>
大 番頭</w>
大 御</w>
多 子</w>
変 容</w>
埋 納</w>
坂 戸</w>
土 橋</w>
名 品</w>
同 作</w>
南 河内</w>
動 力</w>
前 名</w>
刺 し
初 詣</w>
刊 本</w>
円 堂</w>
兼 右</w>
兼 光</w>
典 拠</w>
全 文</w>
修 学院</w>
信 成</w>
保 健</w>
俊 房</w>
依 田</w>
余 生</w>
低 温</w>
任 地</w>
今 村</w>
人 臣</w>
京 奈</w>
九 品</w>
丸 亀</w>
中 小</w>
中 尉</w>
与 一</w>
不 輸</w>
下 司</w>
三 津
三 上</w>
ヴ ァ</w>
ン ク</w>
ロ ーズ</w>
ミ ズム</w>
マン ガ</w>
マ ナー</w>
ブ ドウ</w>
パ ウ
ネ ーズ</w>
ニ ン</w>
ナ ン</w>
ディス カバ
ディスカバ リー</w>
デ ー</w>
デ モ
テー ブル</w>
チャ ップ</w>
ショ ップ</w>
シャ ン</w>
ザ ン
サー クル</w>
サ カキ</w>
ケ チャップ</w>
グ ラン
カ 所</w>
カ ワ</w>
カ オ</w>
め ぐり</w>
まる で</w>
ぼ し</w>
ほと り</w>
ひ ょう</w>
の べ</w>
ち り</w>
そ ろ</w>
し ゅう
さ み</w>
こ ね</w>
こ せ</w>
く ず</w>
き り
き の
か かわり</w>
え 出</w>
う る
い せ</w>
あ し</w>
e c
S L</w>
KT R</w>
9 91</w>
9 90</w>
9 01</w>
7 80</w>
7 74</w>
7 02</w>
17 73</w>
17 35</w>
17 17</w>
16 81</w>
16 74</w>
16 55</w>
15 41</w>
15 28</w>
14 89</w>
14 81</w>
14 73</w>
14 69</w>
13 39</w>
120 6</w>
12 90</w>
12 68</w>
12 49</w>
12 40</w>
110 7</w>
10 4</w>
龍 神</w>
髭 黒</w>
高 瀬川</w>
飲 酒</w>
飛び 出</w>
飛 散</w>
風 説</w>
頼 康</w>
頼 嗣</w>
随 身</w>
阿 衡</w>
防 具</w>
間 に
金 村</w>
金 吾</w>
里 内</w>
酷 似</w>
部 長</w>
適 度</w>
返 済</w>
農 工商</w>
輸 租</w>
輔 仁</w>
転 生</w>
転 化</w>
貞 勝</w>
豊 成</w>
諸 々</w>
詫 び</w>
見 下ろ</w>
要 録</w>
要 地</w>
複 製</w>
製 紙</w>
補 修</w>
袖 口</w>
行 平</w>
血 液</w>
藤 本</w>
葛 木</w>
舞 い
脆 弱</w>
能 久</w>
背 面</w>
翻 弄</w>
羽 越</w>
羽 根</w>
美 濃
美 学</w>
総 社</w>
網 羅</w>
結 実</w>
終 末</w>
細 分</w>
簡 潔</w>
筆 録</w>
稼 ぎ</w>
私 邸</w>
祭 儀</w>
神 国</w>
祝 言</w>
知 り合</w>
真 打</w>
県 道</w>
皇 朝</w>
皇 嗣</w>
皆 無</w>
白 旗</w>
町 民</w>
申 楽</w>
由 紀
生 態</w>
牟 尼</w>
焼 損</w>
温 か</w>
清 子</w>
清 元</w>
液 体</w>
海 野</w>
流 動</w>
流 し
泰 子</w>
決 起</w>
次 長</w>
横 死</w>
桑 原</w>
根 津</w>
染 色</w>
松平 定信</w>
東 夷</w>
景 色</w>
既 成</w>
斬 新</w>
数 正</w>
教 皇</w>
揃 い</w>
憂 い</w>
慢 性</w>
感 染</w>
情 景</w>
忠 国</w>
後 進</w>
張 り出</w>
弥 右衛門</w>
幸 長</w>
年 頃</w>
平 時忠</w>
市 電</w>
嵐山 本線</w>
山 槐</w>
履 物</w>
小 藩</w>
小 石</w>
小 樽</w>
小 幡</w>
小 室</w>
寺 島</w>
富 貴</w>
密 集</w>
宿 曜</w>
宿 所</w>
家 隆</w>
宮 人</w>
定 綱</w>
官 寺</w>
宗 義</w>
宗 二</w>
孫 娘</w>
孝 霊</w>
子 母
婚 儀</w>
妙 超</w>
天 承</w>
大 方</w>
大 勝</w>
外 装</w>
声 聞</w>
堪 能</w>
堅 固</w>
土 神</w>
国 号</w>
呼び 戻</w>
古 学</w>
受け 止め</w>
千 姫</w>
勧 農</w>
勝 成</w>
割 拠</w>
初 心</w>
刀 屋</w>
出 費</w>
出 入</w>
凡 夫</w>
六波 羅蜜</w>
六 百</w>
光 貞</w>
像 容</w>
備 蓄</w>
健 在</w>
信 越</w>
信 親</w>
侍 読</w>
併 せ
佛 教</w>
休 み</w>
任 用</w>
仲 恭</w>
仮名 遣</w>
仮 称</w>
仏 陀</w>
仁 科</w>
人 びと</w>
主 将</w>
中 井</w>
世 継</w>
三津 五郎</w>
一 挙</w>
レ オン</w>
レ イ
ヨ ネーズ</w>
ュー サー</w>
ヤマ タ</w>
メ リ
ム ギ</w>
ミ ナ
マ ヨネーズ</w>
マ ツ
プロデ ューサー</w>
ヒ ト</w>
ハ ン</w>
ナ ショ
ド ライブ</w>
タブ ー</w>
タイ ム</w>
タ リー</w>
ゼ ル</w>
ス イ
コ マ</w>
コ ピー</w>
ガ レ</w>
カ テ
エ チ
ウ リ</w>
ウ ッド</w>
イタ ケ</w>
アニ メーション</w>
ア ラ</w>
り 手</w>
ゆ る
や り</w>
む ろ</w>
まち まち</w>
ぼ れ</w>
ほ そ</w>
べ れ</w>
は ぎ</w>
の 内</w>
ね ぎ</w>
に ょ
に ゅう</w>
な いし</w>
つ かさ
だ ま</w>
こ ころ</w>
ぐ さ</w>
く り返</w>
ぎ れ</w>
か 条</w>
おこ し</w>
お それ</w>
お さ</w>
う め</w>
う ま
い ざ
あ すか</w>
in g
i r
i g
9 84</w>
8 79</w>
7 82</w>
20 13</w>
18 13</w>
17 93</w>
17 84</w>
17 70</w>
16 25</w>
15 45</w>
15 40</w>
15 35</w>
15 27</w>
14 43</w>
13 19</w>
13 02</w>
114 3</w>
10 16</w>
高 祖</w>
騒 乱</w>
香 西</w>
風 姿</w>
顧 み</w>
願 名</w>
頼 宣</w>
霧 島</w>
雑 用</w>
降 格</w>
関 節</w>
関 山</w>
長 重</w>
金 地
野 生</w>
重 箱</w>
重 勝</w>
道 綱</w>
週 刊</w>
造 作</w>
速 やか</w>
追い 詰め</w>
辞 官</w>
足 助</w>
贈 り物</w>
賀 名</w>
貧 困</w>
諸 家譜</w>
論 拠</w>
誘 導</w>
誘 い</w>
設 楽</w>
言 動</w>
観音 寺</w>
親 類</w>
西 門</w>
西 端</w>
製 糸</w>
行 程</w>
虚 空</w>
著 聞集</w>
草 山</w>
茅 葺</w>
苛 政</w>
色 目</w>
舞 鶴
羽 衣</w>
美 保</w>
総 門</w>
絵 伝</w>
経 時</w>
素 行</w>
積 雪</w>
積 み</w>
祭 日</w>
神 野</w>
神 幸</w>
砲 台</w>
知 多</w>
眼 病</w>
真 木</w>
相 伴</w>
直 木</w>
白 丁</w>
生 け
球 場</w>
版 元</w>
無 官</w>
炒 め</w>
満 幸</w>
渡 米</w>
渡 月</w>
清 風</w>
淀 藩</w>
永 手</w>
気 風</w>
段 銭</w>
段 位</w>
残 余</w>
正 次</w>
権 兵衛</w>
條 畷</w>
梅 津</w>
桐 生</w>
東 院</w>
東 漢</w>
朱 熹</w>
本 末</w>
未 熟</w>
有 間</w>
最 長</w>
晴 久</w>
時 代
時 々</w>
春 屋</w>
明 国</w>
昆 陽</w>
方 策</w>
攻 防戦</w>
攻 囲</w>
携 行</w>
所 務</w>
成 道</w>
懲 悪</w>
惟 義</w>
悔 返</w>
恐 ろし</w>
念 珠</w>
忠 成</w>
応 募</w>
忍 性</w>
後 段</w>
彦 人</w>
弥 助</w>
弘 和</w>
康 信</w>
幹 事</w>
帳 簿</w>
左 之助</w>
山 辺</w>
山 幸彦</w>
展 望</w>
尊 良</w>
将 校</w>
寺 跡</w>
宿 直</w>
実 検</w>
定 型</w>
宗 矩</w>
安 寧</w>
守 山</w>
宇 田川</w>
学 年</w>
好 色</w>
女 郎</w>
奥 田</w>
夫 役</w>
太 宰</w>
天神 橋</w>
天 応</w>
天 仁</w>
大 輪</w>
大 まか</w>
外 相</w>
塩 焼</w>
堆 積</w>
土 産物</w>
国 之</w>
四 條畷</w>
器 楽</w>
喫 煙</w>
唐 揚げ</w>
和 暦</w>
向 山</w>
同 音</w>
同 朋</w>
吉 平</w>
吉 子</w>
口 頭</w>
反 響</w>
反 物</w>
去 来</w>
原 動</w>
占 有</w>
半 家</w>
医 術</w>
北 口</w>
副 将</w>
前 衛</w>
前 任</w>
列 格</w>
分 骨</w>
出 馬</w>
出 水</w>
出 入り口</w>
内 戦</w>
兵 農</w>
全 書</w>
入 洛</w>
僧 録</w>
倒 産</w>
伝 存</w>
休 館</w>
代 宗</w>
仏 光</w>
人 体</w>
京 滋</w>
交 点</w>
二 女</w>
乞 食</w>
主 食</w>
中 流</w>
中 佐</w>
不 快</w>
不 定</w>
不 吉</w>
下 治</w>
下 毛野</w>
上 達</w>
上 司</w>
一 段</w>
ー ノ</w>
ヴァ ー
リ ゾ
モ ンド</w>
ミ ルク</w>
ミ ネ
ポ ピュ
ポピュ ラー</w>
ヘ シ</w>
プ ラン</w>
バ ル
デモ クラ
デモクラ シー</w>
タ レント</w>
シェ ア</w>
シ マ</w>
ザ ー</w>
サイ ド</w>
サ バ</w>
サ ケ</w>
コ ク</w>
クラ シック</w>
アカデ ミー</w>
わ た
や う</w>
も れ</w>
む か</w>
み き</w>
べ く</w>
ひ つ</w>
と ん</w>
て ら</w>
づ く</w>
つ ぶ
つ ち
せ り</w>
ず り</w>
し こ</w>
こだ わり</w>
け ら</w>
が ら
お 梅</w>
い や</w>
あ つ
p p
e l
M O
8 58</w>
7 85</w>
7 03</w>
4 50</w>
18 3</w>
18 16</w>
18 12</w>
18 03</w>
17 87</w>
17 55</w>
17 33</w>
16 92</w>
16 90</w>
16 72</w>
13 5</w>
13 58</w>
1 17</w>
龍 谷</w>
高 札</w>
高 揚</w>
駅 員</w>
零 細</w>
雲 隠</w>
雲 母</w>
閉 館</w>
金 本位</w>
重 豪</w>
重 太郎</w>
部 民</w>
遣 欧</w>
遣 使</w>
遠 方</w>
連 動</w>
追い かけ</w>
軍 国</w>
跨 線</w>
赤 飯</w>
賭 博</w>
買い 取</w>
象 牙</w>
詞 花</w>
計 略</w>
計 帳</w>
解 脱</w>
親 宗</w>
見 守</w>
要 略</w>
西 面</w>
西 海</w>
複 々
複々 線</w>
装 着</w>
蘇 生</w>
葵 祭</w>
菅 野</w>
苦 慮</w>
花 散
花散 里</w>
花 伝</w>
良 民</w>
興 世</w>
聖 教</w>
老 婆</w>
義 龍</w>
義 良</w>
義 春</w>
義 成</w>
纏 向</w>
縁 談</w>
綾 小路</w>
結 託</w>
算 出</w>
答 申</w>
筆 画</w>
筆 写</w>
秀 歌</w>
祓 詞</w>
社 務</w>
知 遇</w>
瞬 間</w>
盛り 付け</w>
盛 り返</w>
発 心</w>
疲 労</w>
疲 れ</w>
疎 遠</w>
番 台</w>
畜 生</w>
画 僧</w>
田 彦</w>
生 い
甚 大</w>
甘 辛</w>
玉 依</w>
玄 宗</w>
猿 田彦</w>
猩 々</w>
牢 人</w>
燃 え
炊 飯</w>
湯 治</w>
温 め</w>
渡 良
渡 河</w>
海 中</w>
浮 浪</w>
治 外</w>
永 世</w>
水 稲</w>
殺 傷</w>
正 親</w>
樹 脂</w>
楽 所</w>
楽 園</w>
森 山</w>
梅 雨
梅 原</w>
根 川</w>
果 無</w>
松 代</w>
杵 築</w>
東 詰</w>
東 町</w>
来 朝</w>
本 松</w>
朝 野</w>
書 誌</w>
曲 目</w>
時 房</w>
春 海</w>
明 星</w>
旧 名</w>
日 程</w>
施 政</w>
新 九郎</w>
斉 信</w>
文 句</w>
教 派</w>
政 教</w>
政 弘</w>
撰 銭</w>
揚 巻</w>
持ち 上が</w>
折り 返し</w>
承 徳</w>
手 数</w>
我 家</w>
憲 政党</w>
慣 用</w>
徳 兵衛</w>
得 子</w>
後 続</w>
弔 い</w>
建 言</w>
廃 位</w>
庭 番</w>
平 穏</w>
常 陸
巡 洋</w>
川 勝</w>
川 内</w>
尼 僧</w>
尖 頭</w>
小 春</w>
寿 郎</w>
寺 請</w>
寛 寿郎</w>
寒 冷</w>
家 次</w>
家 久</w>
安 祥</w>
安 治</w>
安 城</w>
学 名</w>
季 長</w>
孟 子</w>
天 覧</w>
天 災</w>
大 舎人</w>
大 磯</w>
売 店</w>
塩 小路</w>
坊 官</w>
坂 本線</w>
地 割</w>
在 番</w>
在 日</w>
国 許</w>
国 内外</w>
図 会</w>
善 神</w>
周 知</w>
周 旋</w>
合 わさ</w>
口 語</w>
原 子</w>
却 って</w>
南 面</w>
南 宗</w>
勧 善</w>
勅 勘</w>
創 出</w>
利 き</w>
刑 務</w>
凝 固</w>
凍 結</w>
典 仁</w>
兵 粮</w>
公 平</w>
入 地</w>
光 広</w>
元 旦</w>
催 促</w>
倉 山田</w>
修 道</w>
信 清</w>
便 器</w>
位 記</w>
会 戦</w>
会 堂</w>
休 業</w>
人 別</w>
亮 政</w>
二 俣</w>
下 津</w>
下 宿</w>
上 町</w>
上 山</w>
上 士</w>
上 原</w>
万 騎</w>
万 象</w>
一 躍</w>
一 翼</w>
ロ ス</w>
モ ハ
モ ノ
ミ ニ</w>
ミ ス</w>
バ ナ
バナ ナ</w>
ハ イ</w>
ダ ー
タ ネ</w>
ソ フト</w>
ジャ ガ
ゴ ン</w>
ケ ン
ケ ガレ</w>
カ ロ
オースト ラリア</w>
イワ ナ</w>
イ ル
みや つこ</w>
ふり かけ</w>
ふ つう</w>
ひ そか</w>
の ぎ</w>
ね ん
ね り</w>
なる べく</w>
つかさ ど</w>
し ぶ
さ え
ご ま</w>
か や</w>
か む</w>
う ん
う い
あだ 名</w>
あ ち
あ お</w>
u l
es t
en t
9 87</w>
9 70</w>
7 43</w>
6 85</w>
17 95</w>
17 83</w>
17 75</w>
17 46</w>
17 41</w>
17 28</w>
17 23</w>
17 22</w>
16 93</w>
16 86</w>
15 47</w>
13 56</w>
13 40</w>
119 4</w>
117 2</w>
115 3</w>
114 8</w>
10 86</w>
麾 下</w>
高 畠</w>
高 津</w>
高 屋</w>
騎 乗</w>
飯 盛</w>
飯 尾</w>
食 卓</w>
飛び 込</w>
風 神</w>
頼 隆</w>
順 子</w>
面 倒</w>
隠 れ
間 近</w>
閉 ざ</w>
長 刀</w>
錯 乱</w>
銕 之丞</w>
鉱 物</w>
金地 院</w>
遮 断</w>
遥 か</w>
遠 忌</w>
道 雄</w>
過 度</w>
運 河</w>
運 び
遊 興</w>
遊 佐</w>
追 分</w>
近 現代</w>
近 接</w>
近 づけ</w>
辛 味</w>
転 向</w>
踏み 切</w>
赤 染</w>
赤 子</w>
賛 否</w>
買い 上げ</w>
貴 子</w>
貝 殻</w>
谷 崎</w>
谷 中</w>
護 憲</w>
議 決</w>
談 話</w>
訓 点</w>
角 度</w>
補 充</w>
蛋 白</w>
蓬 莱</w>
落 成</w>
荒 魂</w>
若 江</w>
芸 名</w>
芳 春</w>
胎 内</w>
胆 沢</w>
老 齢</w>
義 円</w>
縁 故</w>
総 勢</w>
総 務</w>
給 田</w>
終 止</w>
細 菌</w>
累 代</w>
素 晴らし</w>
素 早</w>
素 戔
篠 山口</w>
笑 福
笑福 亭</w>
神 父</w>
祓 い</w>
磐 余
石 像</w>
相 州</w>
皐 月</w>
皇 祖</w>
百 合</w>
登 美
症 状</w>
異 議</w>
画 壇</w>
特 許</w>
無 限</w>
無 論</w>
澄 之</w>
演 武</w>
溶 け</w>
湿 気</w>
清 秀</w>
清 掃</w>
清 代</w>
海 底</w>
派 祖</w>
法 科</w>
法 事</w>
治 長</w>
油 断</w>
決 済</w>
池 泉</w>
水 質</w>
水 干</w>
比 羅</w>
横 目</w>
権 頭</w>
楽 宮</w>
桟 橋</w>
桃 太郎</w>
東 野</w>
本 記</w>
本 流</w>
末 吉</w>
木 屋町</w>
期 成</w>
朝 堂</w>
朝 原</w>
有 用</w>
曲 尺</w>
暴 風</w>
智 光</w>
晩 期</w>
昼 行</w>
明 雲</w>
新 駅</w>
教 相</w>
招 き
打ち 立て</w>
打 破</w>
手 術</w>
懐 仁</w>
憐 れ</w>
慈 光</w>
感 状</w>
感 動</w>
息 災</w>
急 ぎ</w>
思 惟</w>
忠 昌</w>
忠 世</w>
志 野</w>
当て 字</w>
弥 三郎</w>
廻 船</w>
廃 車</w>
広 綱</w>
平 維</w>
帝 位</w>
市 域</w>
巻 末</w>
巡 拝</w>
巡 察</w>
島 村</w>
屈 服</w>
少 庵</w>
小 唄</w>
寺 域</w>
寝 返り</w>
宿 舎</w>
定 数</w>
宗 旨</w>
宗 方</w>
宗 子</w>
守 仁</w>
学 友</w>
子 嶋</w>
威 仁</w>
奥 行き</w>
奥 村</w>
太 宗</w>
天 児</w>
大物 主</w>
大 泊</w>
大 東亜</w>
大 屋</w>
夜 中</w>
多 量</w>
多 分</w>
壬 午</w>
墨 染</w>
城 攻め</w>
地 金</w>
国 芳</w>
国 策</w>
和 訓</w>
吸い 物</w>
名 城</w>
名 取</w>
召し 上げ</w>
反 故</w>
及 第</w>
原 稿</w>
原 敬</w>
卸 売</w>
南 院</w>
卒 塔婆</w>
千 恵</w>
勘 違い</w>
力 強</w>
前 回</w>
刻 み</w>
利 三</w>
別 宮</w>
分 子</w>
出 で</w>
内 訳</w>
兼ね 備え</w>
公 験</w>
入 り込</w>
保 司</w>
伝 い</w>
伊 織</w>
仕 置</w>
仏 前</w>
亘 理</w>
了 翁</w>
乱 闘</w>
之 長</w>
久 子</w>
主 水</w>
中 町</w>
中 条</w>
中 之
中 ごろ</w>
下 生</w>
上 棟</w>
上 州</w>
上 古</w>
三方 ヶ原</w>
万 歳</w>
一 手</w>
一 千</w>
一 位</w>
リ ラ</w>
リ タン</w>
ミ リ
マ イ</w>
ボ ー</w>
プロ テ
ブ ン</w>
ピ ール</w>
ビ デオ</w>
ノ ン</w>
ネ コ</w>
ニ カ</w>
ド ー</w>
ド リ</w>
ト ロン</w>
ディー ゼル</w>
テン ポ</w>
ツ ィ
チ ュー
シ イタケ</w>
コン テ
グラ ウンド</w>
ク ター
カナ ダ</w>
オー ケ
オ シ</w>
エジ プト</w>
エ ン</w>
ウ オ</w>
イノ シシ</w>
イ ヤ
やり とり</w>
や ら</w>
や ぐら</w>
み よ</w>
み かど</w>
ま り
ほ と</w>
ふ ね</w>
ふ け</w>
ひ な</w>
は がき</w>
と じ</w>
と げ</w>
つく ば</w>
つ ぼ
そ が</w>
さ かい</w>
こ っ
ぐ い</w>
き れい</w>
か の</w>
お いし</w>
あ や
あ ぶ
あ て
あ え</w>
u c
t er
o d
e g
an t
C T</w>
C D</w>
9 98</w>
3 67</w>
2 21</w>
19 0</w>
18 14</w>
17 97</w>
17 78</w>
17 50</w>
17 32</w>
16 77</w>
16 18</w>
15 18</w>
14 83</w>
13 79</w>
13 11</w>
12 83</w>
12 51</w>
12 36</w>
117 4</w>
115 1</w>
10 96</w>
10 74</w>
黒 色</w>
麹 菌</w>
鳴き 声</w>
魚 類</w>
高 須</w>
高 志</w>
高 低</w>
駅 鈴</w>
養 生</w>
頼 元</w>
頼 み</w>
音 写</w>
院 家</w>
関 門</w>
関 宿</w>
開 闢</w>
鉄 刀</w>
金 峯</w>
重 能</w>
重 病</w>
重 然</w>
重 治</w>
適 合</w>
進 物</w>
進 入</w>
連 帯</w>
送 付</w>
迅 速</w>
農 奴</w>
辛 酉</w>
軍 用</w>
軍 学</w>
跡 目</w>
賤 民</w>
賎 民</w>
諸 王</w>
諸 寺</w>
諸 堂</w>
語 録</w>
認 証</w>
解 け</w>
角 屋</w>
観 経</w>
観 心</w>
見 当た</w>
見 分け</w>
要 約</w>
褒 め</w>
藩 論</w>
藩 医</w>
薦 め</w>
葡 萄</w>
若 水</w>
若 柳</w>
良 継</w>
船 橋</w>
自 生</w>
膨 ら</w>
能 面</w>
胡 粉</w>
老 い</w>
義 堯</w>
置 屋</w>
縁 側</w>
編 み出</w>
絹 糸</w>
結 縁</w>
経 子</w>
経 俊</w>
納 経</w>
節 用</w>
笛 吹</w>
端 的</w>
竜 宮</w>
突き 出</w>
福 王</w>
祗 候</w>
磯 野</w>
磐 津</w>
破 格</w>
瞑 想</w>
着 任</w>
直 孝</w>
皮 革</w>
白 鳳</w>
番 町</w>
番 所</w>
町 制</w>
由紀 夫</w>
用 達</w>
甘 酒</w>
玄 瑞</w>
玄 人</w>
熟 練</w>
熊 毛</w>
焼 亡</w>
無 線</w>
無 数</w>
源 三郎</w>
満 月</w>
湖 北</w>
渡 戸</w>
渓 谷</w>
浜 村</w>
決 闘</w>
水 神</w>
殿 舎</w>
正 家</w>
檜 皮
植 え
案 件</w>
根 室</w>
架 線</w>
枚 数</w>
松 鶴</w>
朱 色</w>
本 稿</w>
本 戦</w>
朝比 奈</w>
月 琴</w>
最 小</w>
曲 水</w>
智 証</w>
星 野</w>
明 倫</w>
旺 盛</w>
旬 報</w>
早 速</w>
日 枝</w>
施 薬</w>
新 渡戸</w>
整 合</w>
敦 成</w>
散 策</w>
救 助</w>
政 清</w>
放 逐</w>
支 族</w>
撤 兵</w>
指 物</w>
愛 子</w>
忠 良</w>
忠 利</w>
忘 れ
形 作</w>
当 人</w>
引 換</w>
廻 し</w>
康 行</w>
度 会</w>
府 庁</w>
店 頭</w>
広 東</w>
広 小路</w>
広 報</w>
常 磐津</w>
崇 め</w>
屋敷 神</w>
尚 書</w>
少 々</w>
小 村</w>
小 十郎</w>
専 務</w>
家 老職</w>
家 宝</w>
実 相</w>
定 評</w>
官 戸</w>
宗 厳</w>
安 富</w>
子 守</w>
妙 見</w>
奢 侈</w>
奠 都</w>
天 才</w>
天 かす</w>
大 流行</w>
大 手
大 宅</w>
変 名</w>
壷 井</w>
増 長</w>
増 員</w>
国 男</w>
品 物</w>
和 知</w>
呼 べ</w>
名 曲</w>
同 駅</w>
同 化</w>
吉 水</w>
右 方</w>
台 本</w>
古 寺</w>
印 字</w>
単 一</w>
勝 沼</w>
勝 久</w>
効 能</w>
加 護</w>
劇 的</w>
前 庭</w>
利 点</w>
切り 身</w>
切り 取</w>
分 銅</w>
分 校</w>
分 別</w>
刃 物</w>
内 舎人</w>
共 鳴</w>
入れ 替わ</w>
入 封</w>
入 信</w>
兄 妹</w>
元 首</w>
僧 形</w>
保 皐</w>
保 憲</w>
併せ 持</w>
体 力</w>
伸 張</w>
伊 行</w>
伊 庭</w>
仏 頂</w>
人 脈</w>
井 口</w>
五 箇条</w>
二 本松</w>
世 良田</w>
不 祥</w>
不 法</w>
不 況</w>
下 馬</w>
上 行</w>
三 権</w>
七 尾</w>
ール ディ
リア ル</w>
メー ター</w>
マー ティン</w>
ポー ツ
ポーツ マス</w>
ポ ート</w>
ホ ト
ベ ルギー</w>
ヘ ビ</w>
ナ ルド</w>
ト マ
デ モ</w>
ティ ング</w>
チ ック</w>
スタ ジ
スタジ アム</w>
ジ ー
ジ ア</w>
シナ リオ</w>
ゴ ー
コ シ</w>
クリス マス</w>
ク マ
ク イ
カ ール</w>
カ フェ</w>
カ グ
オーケ ストラ</w>
エ ス
アー バン</w>
ア ヘン</w>
ア ピール</w>
ア オ
わ さび</w>
やま しろ</w>
ほん の</w>
ぶ つ
ひ こ
の 手</w>
に し</w>
で ら</w>
ち く</w>
ち ぎ</w>
たど り着</w>
た ね</w>
ぜん ざい</w>
すっ かり</w>
す け
こう えん</w>
けい はん</w>
く ろう</w>
が ん
が な</w>
か ならず</w>
おお さか</w>
お どり</w>
i m
a b
J CT</w>
IC A</w>
E S
C h
A S
9 89</w>
9 85</w>
8 87</w>
8 64</w>
8 11</w>
8 05</w>
7 56</w>
17 82</w>
17 25</w>
16 52</w>
16 27</w>
15 25</w>
15 11</w>
14 44</w>
14 40</w>
14 32</w>
13 17</w>
12 65</w>
12 56</w>
12 16</w>
114 5</w>
113 0</w>
10 75</w>
10 20</w>
龍 田</w>
麹 町</w>
鷲 尾</w>
鮮 明</w>
首 席</w>
館 内</w>
顕 教</w>
顔 見世</w>
頼 春</w>
頼 宗</w>
音 域</w>
青 葉</w>
集 解</w>
阿 国</w>
阿 保</w>
間に 合</w>
間 部</w>
長 等</w>
長 押</w>
長 可</w>
金 戒</w>
配 所</w>
配 合</w>
遣 明</w>
遠 隔</w>
遠 ざけ</w>
進 駐</w>
連 綿</w>
追い 返</w>
追い 出</w>
農 作</w>
辛 う
辛う じて</w>
輪 違</w>
転 身</w>
身 頃</w>
贈 与</w>
諸 宗</w>
調 製</w>
説 教</w>
記 号</w>
視 野</w>
見 込み</w>
見 抜</w>
見 いだ</w>
西 野</w>
裁 断</w>
表 彰</w>
衣 類</w>
衣 料</w>
行 違い</w>
蒸 し
蒲 田</w>
苦 難</w>
若 紫</w>
苗 代</w>
船 団</w>
舟 橋</w>
肉 食</w>
耐 久</w>
群 像</w>
羅 生</w>
纒 向</w>
総 額</w>
継 母</w>
絵 具</w>
素 養</w>
紀伊 国</w>
穢 多</w>
積 も</w>
科 白</w>
福 地</w>
禁 煙</w>
神 保</w>
磐余 彦</w>
相 性</w>
直 広</w>
直 ぐ</w>
白 井</w>
異 記</w>
田 安</w>
田 原本</w>
生 酒</w>
犬 士</w>
片 仮名</w>
熊 襲</w>
熊 手</w>
焦 げ</w>
災 厄</w>
濡 れ</w>
満 家</w>
湯 川</w>
温 州</w>
淡 彩</w>
浦 賀</w>
浙 江</w>
法 起</w>
法 権</w>
水 素</w>
武 彦</w>
正 子</w>
正 元</w>
櫛 笥</w>
極 力</w>
検 察</w>
植 村</w>
格 別</w>
松 坂</w>
東 門</w>
東 洞</w>
本 福</w>
朝 経</w>
晴 れ
昔 話</w>
昆 虫</w>
日 田</w>
旅 立</w>
旅 所</w>
新 館</w>
新 派</w>
敵 方</w>
政 知</w>
政 光</w>
採 集</w>
挙 が</w>
折 口</w>
打 診</w>
打 刀</w>
手 引き</w>
戸 口</w>
戦 役</w>
成 経</w>
感 激</w>
惣 菜</w>
恒 良</w>
恒 興</w>
恒 常</w>
念 願</w>
忠 教</w>
忠 度</w>
心 学</w>
御 製</w>
後 悔</w>
往 時</w>
庶 務</w>
幾 何</w>
平 松</w>
平 常</w>
平 助</w>
常 楽</w>
常 典</w>
巨 匠</w>
左 方</w>
岩 城</w>
少 属</w>
寄 親</w>
宮 邸</w>
定 次</w>
孫 一</w>
子 院</w>
妙 蓮</w>
奥 山</w>
失 態</w>
天 秤</w>
天 治</w>
大 赦</w>
大 溝</w>
大 御
大 叔父</w>
大 丸</w>
夜 半</w>
墨 俣</w>
増 援</w>
塑 像</w>
在 国</w>
土 壁</w>
嘆 き
唯 識</w>
和 魂</w>
和 装</w>
咋 神</w>
吹 雪</w>
同 系</w>
受け 持</w>
取り締 ま</w>
参 上</w>
印 明</w>
十 条</w>
加 冠</w>
劇 中</w>
前 段</w>
利 秋</w>
別当 職</w>
初 版</w>
列 席</w>
列 伝</w>
兼 学</w>
公 私</w>
八 丈</w>
入 線</w>
元 秀</w>
優 劣</w>
催 し</w>
健 全</w>
信 隆</w>
信 尹</w>
信 三郎</w>
侠 客</w>
伝 教</w>
今 上帝</w>
仁 義</w>
仁 斎</w>
京 枡</w>
井 上流</w>
乗 っ
主 教</w>
下 谷</w>
下 敷き</w>
下 り
上 月</w>
万 三郎</w>
一 氏</w>
一 概</w>
・ フォン</w>
ヴァ リ
レ ース</w>
リ スク</w>
ム チ</w>
ミ ック</w>
ホ ールディ
ホ イ
フレ ーズ</w>
フ ード</w>
フ ライ
フ ラ
パ レ
パ ック</w>
バ ンド</w>
ハ リス</w>
ネ ーム</w>
ニン ジン</w>
ニ ホン</w>
ッ ティ</w>
チャン バラ</w>
タマ ヨリ</w>
タ ッチ</w>
ジ ル</w>
サ ロン</w>
ケ ン</w>
ギャ ラリー</w>
キ ツ
カグ ツチ</w>
オースト リア</w>
ウ ガヤ</w>
アレ ルギー</w>
ア リ</w>
ア ド
り ん
やま し</w>
や く
ま かせ</w>
ほ り</w>
ぱ く</w>
は し</w>
の う
に じょう</w>
つ よ</w>
つ まみ</w>
つ と</w>
っ たり</w>
だん ご</w>
たい へん</w>
そ ちら</w>
じ ょ
ざ え</w>
ご も</w>
こ わし</w>
こ ぶ
き ょ</w>
かき 混ぜ</w>
か ろ</w>
おの の</w>
おお ともの</w>
おお く</w>
え り</w>
うい ろう</w>
い 知</w>
あら し</w>
あ し
u d
Y O
H Q</w>
G HQ</w>
8 07</w>
7 67</w>
7 33</w>
7 30</w>
7 28</w>
7 15</w>
3 60</w>
17 61</w>
17 06</w>
14 78</w>
14 68</w>
13 25</w>
13 01</w>
12 97</w>
12 57</w>
113 2</w>
10 94</w>
10 5</w>
10 01</w>
高 望</w>
香 里</w>
香 宮</w>
顕 定</w>
霊 異記</w>
雛 祭り</w>
雑 色</w>
雑 徭</w>
雅 子</w>
降 ろ</w>
間 仕切り</w>
開 帳</w>
開 削</w>
銃 撃</w>
釧 路</w>
金 魚</w>
重 秀</w>
酒 田</w>
配 偶</w>
郎 等</w>
遠 縁</w>
進 攻</w>
連 川</w>
転 属</w>
軍 需</w>
車 輪</w>
超 越</w>
賽 銭</w>
賃 金</w>
貫 首</w>
貞 久</w>
豊 浦</w>
豊 川</w>
護 屋</w>
講 釈</w>
謀 議</w>
諸 士</w>
語 呂</w>
誘 致</w>
診 療</w>
規 程</w>
見 通し</w>
見 世
要 員</w>
行 雄</w>
融 資</w>
虚 構</w>
落と し</w>
荒 事</w>
英 霊</w>
苦 悩</w>
苦 境</w>
艦 長</w>
舗 装</w>
自 決</w>
脱 線</w>
胡 蝶</w>
義 絶</w>
美 子</w>
纏 め</w>
縫 い</w>
綴 じ</w>
統 監</w>
納 戸</w>
粗 末</w>
立ち 去</w>
立ち 上げ</w>
穂 波</w>
稲 穂</w>
秘 法</w>
秋 篠</w>
秀 哉</w>
神 示</w>
祀 り</w>
磐 城</w>
石 炭</w>
眺 望</w>
真 筆</w>
県 立</w>
看 護</w>
直 筆</w>
