#version: 0.2
t h
th e</w>
i n
a n
e d</w>
e r
o f</w>
a t
h i
a r
e n
an d</w>
o r
i n</w>
a s</w>
o n
r e
t o</w>
e r</w>
i t
o n</w>
s t
r o
a m
in g</w>
u r
s h
a l
w as</w>
o r</w>
u n
a k
e s</w>
a l</w>
a n</w>
e c
i s</w>
i on</w>
e n</w>
a s
m p
i c
l y</w>
a t</w>
a c
s u
l e</w>
h e</w>
e s
o m
o u
a i
o s
o k
a d
a g
a p
u s
o w
o l
i s
c h
en t</w>
c e</w>
r i
e l
er e</w>
c h</w>
er i
th at</w>
t i
e m
b y</w>
w h
i l
i g
y o
i d
at ion</w>
n o</w>
e t
a b
f or</w>
en t
T he</w>
i v
c l
S h
c on
it h</w>
hi s</w>
c o
e v
b u
am e</w>
w ith</w>
ro m</w>
t ed</w>
d i
o v
i r
f rom</w>
i t</w>
e i
f or
w hi
h a
u m
o d</w>
er s</w>
o p
u d
j i</w>
' s</w>
a r</w>
t er</w>
n o
re s
p ro
e mp
th er</w>
u g
w ere</w>
J ap
b e
o g
sh i</w>
a in
r in
i on
e x
y o</w>
at ed</w>
it y</w>
whi ch</w>
t ur
t h</w>
l i
s o</w>
I n</w>
t r
ar e</w>
o c
a y</w>
l ed</w>
wh o</w>
o d
f f
u k
a w
e st
b ec
a i</w>
u l
i st
p l
at e</w>
es e</w>
a in</w>
eri od</w>
i m
f am
o t
e ar
a y
u c
b e</w>
ar y</w>
i ly</w>
o un
d e
s e
in ce</w>
E mp
er or</w>
u t
c al
th e
p eriod</w>
or d
on e</w>
a st
re f
v e</w>
emp le</w>
er n
hi m
H e</w>
K yo
al ly</w>
i k
f ter</w>
t s</w>
l e
o -
s t</w>
fam ily</w>
q u
o o
m ent</w>
C h
eri al</w>
Emp eror</w>
o b
P ro
m an
ha d</w>
Kyo to</w>
r an
s u</w>
p ar
p er
en d
t ion</w>
mp erial</w>
no t</w>
th is</w>
al so</w>
bu t</w>
c hi
tur e</w>
p o
a -
p os
h e
I t</w>
ag e</w>
in g
ti m
d o</w>
ow n</w>
j o</w>
re c
cl an</w>
h t</w>
i z
1 9
m e
Jap an
s hi
os hi
a d</w>
s p
at ion
at t
S t
es t</w>
w or
ou t</w>
Japan ese</w>
as s
Pro v
ic e</w>
Jap an</w>
cal led</w>
T emple</w>
o ther</w>
st r
ov ern
i es</w>
in e</w>
K A
e d
l d</w>
c om
s ec
er ed</w>
r it
Prov ince</w>
I mperial</w>
i f
ad e</w>
ok u</w>
R A</w>
a fter</w>
an g
em b
n ame</w>
s on</w>
bec ame</w>
or i</w>
p e
1 8
h i</w>
S hi
us ed</w>
ev er</w>
d er</w>
p res
al l</w>
or y</w>
p ri
i al</w>
ref ec
ol l
T h
C ity</w>
k e</w>
o ff
ou s</w>
g overn
i y
co mp
an d
om e</w>
us e</w>
am a</w>
it ion</w>
s id
s e</w>
on g</w>
t er
ak u
su ch</w>
a v
e ar</w>
K an
aw a</w>
ow ever</w>
H I
in to</w>
e p
ac e</w>
P refec
re g
for m
be en</w>
at er</w>
d es
sh ed</w>
u n</w>
ur ing</w>
er n</w>
k i</w>
f ir
o ur
er v
ha ve</w>
ak a</w>
tim e</w>
b o
th ere</w>
d is
w e
Prefec ture</w>
T ak
wh en</w>
i -
g e</w>
ur a</w>
ei r</w>
an t</w>
iv e</w>
i c</w>
B ud
sh u</w>
ol d</w>
u e</w>
ou g
sh o</w>
l es</w>
Bud d
r ed</w>
e a</w>
ar d</w>
ar a</w>
l oc
e t</w>
ent s</w>
ak e</w>
ak u</w>
d uc
es s
con t
T ok
it s</w>
t ing</w>
the y</w>
emb er</w>
rin e</w>
g en
K am
ic al</w>
es s</w>
st e
s erv
ar d
e -
en ce</w>
e ly</w>
m on
th eir</w>
c i
t en</w>
I n
m in
ai d</w>
f l
n e
s ur
o to</w>
a z
u b
at su
in c
Y oshi
A M
- ji</w>
P rin
a use</w>
os e</w>
cl ud
ac t
en g
m ade</w>
c c
u p</w>
d uring</w>
M in
am i</w>
n ed</w>
k n
oo l</w>
op le</w>
f e
fir st</w>
h as</w>
govern ment</w>
W A
Sh in
St ation</w>
oun d</w>
f u</w>
s y
s un
ou ld</w>
p or
ch ool</w>
o y
e i</w>
E do</w>
on g
b el
off ic
in clud
ak i</w>
H is</w>
s el
b et
pe ople</w>
b ro
S HI
c ri
s aid</w>
t w
0 0
Budd hi
H owever</w>
t y</w>
O T
po in
s i
co un
y ear</w>
u s</w>
an ce</w>
ig ht</w>
re l
ag a</w>
J un
ar m
re e</w>
th oug
S an
ast le</w>
il l
hi g
oo k</w>
o f
al s</w>
kn own</w>
co ur
p r
T A
ow er</w>
h er</w>
pro v
ur e</w>
est ab
for e</w>
sh in
r u
ch i</w>
e g
ti on
o od</w>
k o</w>
ear s</w>
bec ause</w>
w ay</w>
as hi
ac hi</w>
W A</w>
ation s</w>
we en</w>
li shed</w>
Ch in
Prin ce</w>
K U
bet ween</w>
or ig
i or</w>
w rit
a ther</w>
F U
st or
r y</w>
or s</w>
yo shi</w>
D ai
J I
com m
M I
ok u
f oll
i ous</w>
p re
in t
bu il
ar i</w>
G en
on d</w>
ay s</w>
S U
di ed</w>
g ro
su b
ing s</w>
b as
T his</w>
k s</w>
as t</w>
ab le</w>
sh og
ste m</w>
l ater</w>
om ain</w>
1 5
m or
Y am
O n</w>
d ai
os t</w>
g r
he ad</w>
T ai
re as
ap p
un der</w>
ai l
i mp
WA RA</w>
ch ar
on ly</w>
s ame</w>
foll ow
el l</w>
ch o</w>
c ent
it ion
N o
ain s</w>
d ec
gen er
sid e</w>
man y</w>
ac k</w>
ov er</w>
sy stem</w>
f ac
ug h
st at
an k</w>
it ed</w>
at a</w>
er e
or d</w>
k ed</w>
FU JI
Sh rine</w>
un d
A l
ab out</w>
u re
el d</w>
e y
H ei
r on
s ome</w>
ar ri
en d</w>
tw o</w>
str uc
su m
g o</w>
K o
1 6
su cc
c er
N i
ation al</w>
c ur
S A
an s</w>
an s
t ic
e k
A fter</w>
a u
th ro
f i
t ri
y ears</w>
FUJI WARA</w>
p ol
st y
ak ura</w>
il it
D A</w>
at h</w>
f ather</w>
e ac
v is
e f</w>
v er
re t
il l</w>
em ent</w>
G A
N ag
ch ang
hi r
ac c
s chool</w>
cour t</w>
at su</w>
ec t</w>
c ap
w i
o w</w>
ad d
thoug h</w>
ap poin
us t</w>
a shi</w>
M as
Y or
T O
orig in
f u
estab lished</w>
ig n
c es</w>
C astle</w>
re m
u p
wh ere</w>
u ro
the m</w>
aku fu</w>
y u</w>
t emple</w>
l it
al l
a j
su p
OT O</w>
as a</w>
sty le</w>
t o
ist er</w>
f t</w>
d ay</w>
pos ition</w>
t ain</w>
hi m</w>
writ ten</w>
n am
m o
e b
N A
Buddhi st</w>
d a
l ine</w>
U n
ord er</w>
di ff
st ar
iv ed</w>
C our
R ank</w>
ad a</w>
ord ing</w>
H id
ig h
att le</w>
n ing</w>
j in</w>
th en</w>
mor e</w>
wi th
or t
uk i</w>
c ul
O s
g re
ok i</w>
em on
d ing</w>
l et
par t</w>
sp ec
ord s</w>
as u</w>
da ugh
j in
th ree</w>
K or
th ern</w>
ac hi
m at
v ar
de ath</w>
T en
h ou
ic hi</w>
t e</w>
al ace</w>
b akufu</w>
su ke</w>
tur al</w>
E n
whi le</w>
M A
includ ing</w>
an y</w>
g iv
l and</w>
S u
O k
ar ea</w>
th an</w>
w ell</w>
iy a</w>
iz ed</w>
ev en</w>
in d
ran k</w>
su g
di rec
ic hi
appoin ted</w>
g o
con sid
h eld</w>
A s</w>
tim es</w>
ilit ary</w>
u -
Th ere</w>
pro duc
om o</w>
S en
b le</w>
be ing</w>
as e</w>
sel f</w>
c an</w>
k a</w>
m ov
sec ond</w>
C hi
M ei
des cri
g u
th ose</w>
loc ated</w>
v i
ent ly</w>
M ar
daugh ter</w>
er a</w>
A r
s ed</w>
arm y</w>
f in
ain ed</w>
at ing</w>
t y
Kam akura</w>
serv ed</w>
O n
sh e</w>
1 7
ar ound</w>
ug h</w>
ec ted</w>
H I</w>
r ice</w>
ure s</w>
b l
j a</w>
c ed</w>
st ory</w>
p rin
L ine</w>
li ke</w>
h o</w>
sh a</w>
be g
ou r</w>
A m
s it
J u
sh o
shi p</w>
T an
ri g
p ub
u m</w>
m ilitary</w>
d o
c re
Cour t</w>
for m</w>
T o
tr ans
N or
a w</w>
C on
ne w</w>
AM OTO</w>
t emp
j o
m is
ear ly</w>
em s</w>
t it
s ince</w>
el l
b or
h on
D omain</w>
iv er
an e</w>
A n
W h
res s</w>
ai r
i ed</w>
er red</w>
lit er
l ord</w>
thro ugh</w>
shog un</w>
yo un
1 2
d ev
h a</w>
at es</w>
k ing</w>
c ame</w>
in v
MI N
1 0
ec tion</w>
an ts</w>
am ur
u t</w>
e l</w>
pl ac
giv en</w>
F u
T SU
eac h</w>
pl ace</w>
sh rin
h owever</w>
i p
al e</w>
W ar</w>
is h</w>
N O
offic ial</w>
p le</w>
res id
if e</w>
tion s</w>
ev er
d r
ul ar</w>
l ar
T ad
um b
ist r
res p
cer emon
Mei ji</w>
o th
y u
MIN AMOTO</w>
su l
t ook</w>
op er
Sh og
Os aka</w>
2 00
i w
G r
bas ed</w>
h o
N ara</w>
c oll
follow ing</w>
s m
1 3
k yo</w>
ci ent</w>
pri est</w>
fu l</w>
Jun ior</w>
ard s</w>
F uk
th ir
d ue</w>
Wh en</w>
ion s</w>
ti v
m ost</w>
s ion</w>
ar u</w>
th ese</w>
at o</w>
a ve</w>
r ap
Chin ese</w>
be fore</w>
con struc
l d
loc al</w>
f oun
d own</w>
diff er
end ed</w>
c ar
H ig
os him
H i
bro ther</w>
var ious</w>
s on
t su
O m
h er
um i</w>
Y o
is hi
consid ered</w>
at ive</w>
w ife</w>
a f
m ain</w>
i mperial</w>
s om
de p
M or
GA WA</w>
p ower</w>
tr ad
s ou
amur ai</w>
M it
l in
P alace</w>
K in
bel i
id ed</w>
ak ing</w>
it su</w>
chi ef</w>
ac h
jin ja</w>
pres ent
iver s
buil t</w>
S him
Hei an</w>
K I</w>
Y AM
s ol
form ed</w>
le ft</w>
Tok yo</w>
ar o</w>
wor d</w>
p p
Shi g
S ak
v ed</w>
ov e</w>
sh rine</w>
ere fore</w>
A s
g ran
y ama</w>
ig n</w>
as s</w>
p ass
k oku</w>
d s</w>
reg ion</w>
is t</w>
cur r
an c
per son</w>
i shed</w>
oc i
the ory</w>
ex p
n umb
ad op
s en
ain st</w>
m other</w>
C oun
e yoshi</w>
d e</w>
pos t</w>
b ed</w>
w ould</w>
ic t</w>
H O
m achi</w>
an u
id ent</w>
W ard</w>
he ad
star ted</w>
di d</w>
ag ainst</w>
sec t</w>
u st
G A</w>
ty p
A k
fe ud
ou s
ut e</w>
A pri
Apri l</w>
Mar ch</w>
b ir
st ation</w>
1 4
p ain
o z
T su
S ad
N ob
ort ant</w>
re n</w>
feud al</w>
n or
el op
ol og
pol it
H A
od s</w>
en ti
b ack</w>
ok a</w>
K ei
un i</w>
le g
re tur
s amurai</w>
him self</w>
tit le</w>
k an
u al</w>
bo th</w>
Al though</w>
e ther</w>
t ers</w>
g er</w>
O t
m ain
bor n</w>
am oto</w>
t re
r a</w>
form er</w>
l o
on o</w>
R e
k ami</w>
k u</w>
Yoshi t
A cc
t a
it ies</w>
succ ess
hig h
c ess</w>
ail way</w>
anu ary</w>
J anuary</w>
y n
pres ent</w>
w ent</w>
est iv
ic s</w>
di st
d oc
c t
A t</w>
H on
ig ned</w>
c or
ex c
ti es</w>
re qu
st ud
ur y</w>
e w</w>
pl ay
an o</w>
Gen ji</w>
K I
t en
an cient</w>
o m</w>
m ar
i b
S ai
M on
0 0</w>
t e
S ei
yn ast
00 0</w>
r ing</w>
wor k</w>
s m</w>
K ag
u ally</w>
m yo</w>
ret ain
ex ist
c ould</w>
S chool</w>
o shi</w>
m od
cont ro
ex am
id d
un e</w>
emp eror</w>
t ro
am ong</w>
in ter
Buddhi sm</w>
id e</w>
it al</w>
K O
i e</w>
H ok
s ist
Chin a</w>
D ec
us hi
ceremon y</w>
in u
c ro
t ec
rec e
b ook</w>
ter rit
con f
m oun
of ten</w>
Y as
ivers ity</w>
un d</w>
s ch
dev elop
st it
som e
is su
g an
ur o</w>
o- ji</w>
chi ld
add ition</w>
w ar</w>
ep t</w>
k an</w>
v ing</w>
O ct
Ju ly</w>
numb er</w>
chang ed</w>
beli ev
re sul
adop ted</w>
ti ve</w>
ti l</w>
ob er</w>
s es</w>
Oct ober</w>
n er</w>
M t</w>
v ol
er ing</w>
us ing</w>
o jo</w>
ex t</w>
hi stor
ep t
l ong</w>
prov inc
chi ld</w>
en ed</w>
un ate</w>
bec ome</w>
us a</w>
h and
re et</w>
J O</w>
a m</w>
d ays</w>
ition al</w>
comp let
sup por
A ug
I RA</w>
at ure</w>
b ur
y ing</w>
t ea</w>
Nob un
gro up</w>
Aug ust</w>
t ly</w>
F eb
Feb ru
Acc ording</w>
Febru ary</w>
an -
app ear
a h
thir d</w>
ed ed</w>
M ik
d ed</w>
N O</w>
N ak
con c
ag on</w>
M ay</w>
M us
Dec ember</w>
b attle</w>
st and
H an
sun e</w>
ob u</w>
No bu
him a</w>
is ion</w>
idd le</w>
at ely</w>
om i</w>
d iv
li c</w>
st ate</w>
it e</w>
18 6
t og
or t</w>
o j
p op
a ff
T he
succ e
differ ent</w>
KA WA</w>
Nobun aga</w>
ynast y</w>
un til</w>
Yo shin
S ept
d omain</w>
Sept ember</w>
oth ers</w>
d en</w>
if th</w>
S ou
P eriod</w>
T A</w>
v ass
d et
M ot
sec tion</w>
c as
1 0</w>
K ok
N ov
h al
TO KU
M uro
m us
no w</w>
ard ed</w>
Hid eyoshi</w>
K i
s ake</w>
Min ister</w>
K aw
m er
fam il
fl u
, 000</w>
with out</w>
W ak
m ast
K en
um e</w>
cent ury</w>
h and</w>
li f
K it
i d</w>
c ol
Nov ember</w>
i f</w>
hou se</w>
i ally</w>
Y oshim
N ational</w>
temp les</w>
par tic
ar e
il led</w>
e w
me di
u chi</w>
et su</w>
b re
liter ally</w>
hi story</w>
no -
an other</w>
is m</w>
ad v
p ur
e ki</w>
Un iversity</w>
gre at</w>
arri ed</w>
U RA</w>
A SHI
ain ing</w>
des c
f our</w>
g ed</w>
char act
or o</w>
ab ove</w>
off ice</w>
in d</w>
estiv al</w>
or gan
me ans</w>
Yor it
our th</w>
t su</w>
bir th</w>
pr act
em on</w>
m an</w>
est ern</w>
b ar
e f
Sh into</w>
re ad
cont inu
et s</w>
fac t</w>
rig ht</w>
gener al</w>
Muro machi</w>
Jun e</w>
b us
z o</w>
in flu
min istr
beg an</w>
k ai
iv er</w>
op s</w>
t or</w>
Gr ade</w>
b ran
18 7
air s</w>
atsu m
TOKU GAWA</w>
il ed</w>
G overn
ag es</w>
tr y</w>
Budd ha</w>
ion al</w>
m emb
sh ap
mo ted</w>
d ic
il ity</w>
t ow
l ived</w>
K on
B attle</w>
m et
Fu j
M I</w>
sh ould</w>
H ou
le ad
al ong</w>
ok s</w>
hig h</w>
s l
Hi ro
cri p
se t</w>
c astle</w>
ey asu</w>
youn ger</w>
ti red</w>
e um</w>
des ign
E x
imp ortant</w>
un known</w>
an a</w>
t ak
d a</w>
ent h</w>
i qu
a th
in ed</w>
w ater</w>
au th
j u</w>
i sh
ex pres
w om
ow ed</w>
w ill</w>
R ailway</w>
ai -
cap ital</w>
en -
a o</w>
memb ers</w>
M un
v ill
famil ies</w>
tog ether</w>
tr ains</w>
S HI</w>
lar ge</w>
est s</w>
stat ue</w>
c y</w>
acc ording</w>
C HI
ou t
I z
aw ay</w>
plac ed</w>
no b
R iver</w>
K E
S e
b a</w>
ik o</w>
T sun
Emp ress</w>
d om
pro moted</w>
lif e</w>
shrin es</w>
m ake</w>
F or</w>
h ol
c il
od o</w>
serv ice</w>
r ak
d u
uc hi
origin al</w>
od ay</w>
v er</w>
m it
d ori</w>
M iy
T om
int ro
ter m</w>
o p</w>
li sh
h an</w>
m ember</w>
ic ally</w>
m en
S um
or ies</w>
I k
pri v
m on</w>
KA GA</w>
resid ence</w>
ver y</w>
ha ving</w>
believ ed</w>
h n
ur i</w>
ag i</w>
ASHI KAGA</w>
C HI</w>
ron t</w>
T am
wor ld</w>
child ren</w>
cal end
aj or</w>
Y O
i l</w>
ag ed</w>
doc um
l ate</w>
S O
e qu
ug ht</w>
w n</w>
f ive</w>
ad ministr
descri bed</w>
om iya</w>
j o-
dai myo</w>
r o</w>
1 5</w>
hir o</w>
st ill</w>
per son
S ince</w>
ug awa</w>
s o
buil ding</w>
R A
o od
Mit su
rece ived</w>
s c
H ar
2 0</w>
uk u</w>
p ut</w>
intro duc
h all</w>
polit ical</w>
s il
Sh o
Sen ior</w>
e y</w>
resp on
trad itional</w>
thoug ht</w>
f ound</w>
m e</w>
I eyasu</w>
n ational</w>
l aw</w>
k illed</w>
ition s</w>
trans f
h or
cl ass
pub lic</w>
ug o</w>
c a
hi to</w>
iz ation</w>
K at
g awa</w>
gran d
N an
typ e</w>
p at
r ai
S he</w>
OT O
calend ar</w>
l l
sm all</w>
B un
ic ation</w>
ic ul
od ai
govern or</w>
ap er</w>
cil or</w>
z uk
G u
succe eded</w>
contro l</w>
b i
in -
nam ed</w>
f ront</w>
K um
F us
p i
shi n</w>
s ent</w>
nam es</w>
with in</w>
ak o</w>
mov ed</w>
sum ed</w>
p ow
gr ad
h old</w>
Tok ugawa</w>
und er
k ai</w>
p h
The y</w>
St reet</w>
y ok
K ai
' t</w>
H ist
i an</w>
e as
ap pro
re ad</w>
desc end
histor ical</w>
ach ed</w>
coun try</w>
t ures</w>
ar t</w>
ex t
yo -
t ai
g od</w>
comm on</w>
yo u</w>
I w
18 8
er y</w>
exam ple</w>
inc reas
t ment</w>
w ords</w>
Shog un</w>
st u
i shi</w>
K iy
rel ig
bran ch</w>
y or
ist ry</w>
et y</w>
S uk
d est</w>
Yorit omo</w>
D uring</w>
D A
includ ed</w>
com man
ik i</w>
pass ed</w>
o ji</w>
resul t</w>
a- jo</w>
m s</w>
ch ed</w>
N I
19 9
ad o</w>
ol s</w>
ob a</w>
ut su</w>
dep end
y a</w>
im a</w>
er al</w>
og e</w>
h y</w>
a e</w>
produc ed</w>
y -
per formed</w>
al ity</w>
sur yo</w>
de fe
S ec
MA TSU
C om
bo oks</w>
I s
g ave</w>
ref erred</w>
p ic
construc tion</w>
b u</w>
M i
is e</w>
char ge</w>
s k
Yam ato</w>
tec hn
s oci
v al
shi k
p s</w>
wor ks</w>
Al so</w>
os ed</w>
z en</w>
design ated</w>
appear ed</w>
are as</w>
m iddle</w>
chang e</w>
3 0</w>
um a</w>
l at
Th erefore</w>
po st
p ec
g ood</w>
P ar
in s</w>
olog y</w>
l ec
A d
m aking</w>
NA KA
in ess</w>
TA IRA</w>
cent r
C o
u shi</w>
c ase</w>
ut ion</w>
Sh ing
1 2</w>
m u</w>
ic es</w>
tr a</w>
pro per
ri d
in oge</w>
ay ing</w>
continu ed</w>
tr ain</w>
him e</w>
hi de</w>
t ake</w>
retur ned</w>
an n
head ed</w>
K un
od y</w>
ai r</w>
G o
Tai ra</w>
L e
play ed</w>
K A</w>
origin ally</w>
M atsu
18 9
In c
ri bu
O DA</w>
w ard</w>
se en</w>
issu ed</w>
Sou thern</w>
mod ern</w>
19 4
N ar
t oday</w>
1 1</w>
pos ed</w>
bel ong
f ul
tion ed</w>
A z
sit u
cre ated</w>
m ent
et ry</w>
l and
pop ular</w>
on -
D ynasty</w>
Prin cess</w>
u su
Coun ty</w>
main ly</w>
Kor ea</w>
l ess</w>
M an
l ost</w>
L ower</w>
ov er
K yu
B A
eri es</w>
s ing</w>
C ul
Nor thern</w>
m ag
r one</w>
a ut
hal f</w>
se qu
territ ory</w>
k en</w>
F am
iv ing</w>
n ext</w>
M URA</w>
w ar
F ur
shog unate</w>
m y</w>
en shrin
w est</w>
Y A
gro und</w>
O ff
ref ers</w>
s im
T O</w>
ab e</w>
se i</w>
mast er</w>
s ever
1 8</w>
develop ed</w>
fam ous</w>
ent ered</w>
g l
po ems</w>
s ai</w>
n ec
R I</w>
e m</w>
2 1</w>
r en
in ning</w>
L ater</w>
m i</w>
M A</w>
D ain
r y
Min istry</w>
sol di
pi ec
oug ht</w>
em ents</w>
g un</w>
e ast</w>
c ir
comp an
w a</w>
some times</w>
moun tain</w>
sun a</w>
ag ain</w>
1 3</w>
iv es</w>
J in
rel ation
am b
mus ic</w>
c ust
con duc
for e
D e
hir a</w>
th erefore</w>
ro le</w>
k e
un c
youn g</w>
G re
b an
p aper</w>
M ur
me an
me th
YAM A</w>
um ul
D iv
si ble</w>
on om
for ces</w>
cl ass</w>
if ied</w>
hi s
or ed</w>
I chi
z ur
w ays</w>
tiv ely</w>
coun cilor</w>
ay ama</w>
sit e</w>
c ity</w>
2 5</w>
tic le</w>
l ear
ch u</w>
No h</w>
t own</w>
a it
H all</w>
as aki</w>
K az
p ed</w>
o h
i als</w>
im i</w>
reas on</w>
r ul
provinc ial</w>
m u
st one</w>
ic h
S ek
on ce</w>
j ust</w>
s word</w>
f ur
ord in
d em
ab ol
s ev
j ect</w>
Y uk
19 8
M ai
on s</w>
of f</w>
K u
ok o</w>
G on</w>
or ial</w>
hi b
t eac
ay a</w>
ro ad</w>
pl es</w>
pub lished</w>
ed a</w>
l ast</w>
nob les</w>
a yoshi</w>
2 8</w>
h on</w>
w id
1 7</w>
iz e</w>
men tioned</w>
B E</w>
re v
estab lish
ir o</w>
f il
e an</w>
og rap
y am
wh ose</w>
dis ci
S eng
N ew</w>
re st
cl ose</w>
K ur
1 6</w>
Fus him
ac ked</w>
fir e</w>
con sist
K ar
pl ay</w>
at ari</w>
2 4</w>
Om i</w>
retain er</w>
az u</w>
charact ers</w>
N a
offic ials</w>
Co mp
p rec
pre v
th ing</w>
s et
al though</w>
D i
sever al</w>
H e
tro ops</w>
en ing</w>
th er
h an
oy a</w>
auth or
1 4</w>
enshrin ed</w>
sug u</w>
m ay</w>
Hig ashi
R ec
Kan n
v es</w>
ist ered</w>
poin t</w>
d en
no ble</w>
curr ent</w>
ut es</w>
ac t</w>
iqu e</w>
rel ated</w>
M ichi
descri p
F ifth</w>
introduc ed</w>
ac ter</w>
z u</w>
h ar
ug a</w>
for man
as sumed</w>
YAM A
re al</w>
Fam ily</w>
R y
an -ji</w>
ste ad</w>
B ec
J I</w>
m en</w>
K om
Fuj iw
prin ci
e p</w>
di str
ac k
Kan to</w>
oper ation</w>
iv ely</w>
R o
F rom</w>
ab uki</w>
R it
J R</w>
S ect</w>
th em
Chi k
soldi ers</w>
for ce</w>
2 3</w>
pol ic
m ed</w>
to p</w>
priv ate</w>
ood en</w>
a- cho</w>
Div ision</w>
char acter</w>
Govern or</w>
ir a</w>
w arri
spec ial</w>
19 0
or ation</w>
m ajor</w>
cal l
O g
construc ted</w>
D O</w>
cul tural</w>
Cul tural</w>
rak awa</w>
v ic
ir ed</w>
th rone</w>
an t
ord ered</w>
reg arded</w>
M yo
n s</w>
K og
i x
in aga</w>
ang o</w>
bus iness</w>
Ni hon
s er
ear ch</w>
Mus eum</w>
o suke</w>
Kei han</w>
achi ev
Kiy om
com e</w>
per forman
relation ship</w>
si x
T hir
n ess</w>
o ols</w>
stat us</w>
re stor
Hou se</w>
T r
19 5
u es</w>
T oshi
Hist ory</w>
1 9</w>
beg inning</w>
ous ly</w>
direc t</w>
M O
J i
re co
st age</w>
ern al</w>
On e</w>
19 7
retain ers</w>
orig in</w>
en v
tri es</w>
19 6
dai jin</w>
pl an
h ara</w>
c r
pro t
qu ar
cas es</w>
Kyu shu</w>
2 7</w>
all owed</w>
at ur
H o
S ome</w>
Ko j
i ri
b r
bec om
Inc ident</w>
re tired</w>
g et</w>
s al
z an</w>
b ody</w>
stud y</w>
ent er</w>
tak en</w>
transf erred</w>
foun ded</w>
Bec ause</w>
z e</w>
sim il
sc en
b an</w>
K as
p alace</w>
f ood</w>
vass al</w>
Fujiw ara</w>
r yo</w>
is ional</w>
H or
ro om</w>
l aw
y ak
ne w
f ourth</w>
en s
vi ew</w>
par tment</w>
oc hi
g ate</w>
Seng oku</w>
in stead</w>
Gre at</w>
sou th</w>
C ap
stand ing</w>
j i-
ok an</w>
gener ation</w>
N ishi
on es</w>
A c
Tan g</w>
H ong
r e</w>
plac es</w>
mean ing</w>
in ation</w>
k uni</w>
en cy</w>
ast ern</w>
a u</w>
wh at</w>
l ev
cent er</w>
Fuk u
ed uc
jo ined</w>
W est</w>
et c</w>
F ir
form s</w>
met ers</w>
re present
t al
sch ools</w>
r un
po etry</w>
w ing</w>
li ed</w>
s an
oy ama</w>
d ri
bro ught</w>
se hold</w>
u ji</w>
g u</w>
Mai zur
2 6</w>
op ened</w>
comp any</w>
2 2</w>
m ik
Gu ards</w>
2 9</w>
ug o
re por
w ro
iw a</w>
p er</w>
C l
ud o</w>
fi ed</w>
Min amoto</w>
se par
m ents</w>
ar ro
S atsum
si x</w>
ro ku</w>
H ak
ro und
ed it
ind ic
vill age</w>
k et</w>
at s</w>
K e
B us</w>
coun tries</w>
I m
ul ar
coll ection</w>
og atari</w>
inc ident</w>
en se</w>
pro f
ow ing</w>
ever y</w>
man ag
en ces</w>
Ch o
tri c</w>
l ords</w>
end ai</w>
W or
E chi
wro te</w>
relig ious</w>
cul ture</w>
ta x</w>
d est
bu n</w>
e ff
TO Y
ow s</w>
on in</w>
O r
d el
mit ted</w>
min ister</w>
foun der</w>
N ai
rem ains</w>
ent ed</w>
nor th</w>
h ome</w>
M e
m ot
K uro
I se</w>
im age</w>
eri als</w>
el s</w>
situ ation</w>
av es</w>
se as
pro c
pp er</w>
Thir d</w>
inv ol
complet ed</w>
att ack</w>
oun t</w>
influ ence</w>
m arried</w>
f ought</w>
d ate</w>
Off ice</w>
os a</w>
oc cur
meth od</w>
t ot
simil ar</w>
Y A</w>
TA KE
de ity</w>
docum ents</w>
di es</w>
19 3
Z A
ass igned</w>
l ong
comman der</w>
F estival</w>
form ation</w>
W hi
H os
umul us</w>
st op</w>
w aka</w>
t le</w>
dec ided</w>
W estern</w>
an i</w>
pain ting</w>
defe ated</w>
ron ic
o e</w>
m yo
s en</w>
Th ese</w>
rid ge</w>
H ik
OTO MI</w>
K ot
j i
iz u</w>
Sec ond</w>
Maizur u</w>
up on</w>
li m
TOY OTOMI</w>
t or
read y</w>
f estival</w>
S et
s crip
provinc es</w>
En g
Satsum a</w>
for ced</w>
S ang
con fl
a emon</w>
vass als</w>
u -ji</w>
am ed</w>
co v
p refec
w estern</w>
tr ac
aff airs</w>
x im
sequ ently</w>
H it
sh es</w>
cer tain</w>
HO SO
wom en</w>
I I</w>
c rit
tri ed</w>
k ind</w>
en ced</w>
yo t
Tsu k
z a</w>
N in
ut y</w>
mat erials</w>
ag o</w>
ass oci
ol der</w>
sh oki</w>
g yo</w>
enti al</w>
eng th</w>
oper ated</w>
s qu
o chi</w>
bel l
Shi k
R eg
r an</w>
f ol
en s</w>
U CHI</w>
C ro
kai do</w>
N ichi
dr aw
L t
ir i</w>
f ish</w>
Kor ean</w>
- day</w>
follow s</w>
bu s</w>
th ers</w>
rec ord</w>
ig rap
se e</w>
he av
partic ip
cl o
str ong</w>
ir e</w>
curr ently</w>
de f
at eg
od e</w>
em y</w>
T ale</w>
Le ft</w>
ent ion</w>
l ing</w>
high est</w>
H ir
s ei
re p
n in
me as
end ing</w>
M ain</w>
Dain agon</w>
vis ited</w>
Ro ad</w>
c arried</w>
P ri
H yo
F or
establish ment</w>
g ing</w>
er -
R oku
f ace</w>
teac h
occur red</w>
f ri
po em</w>
p un
Con f
ti c</w>
com mon
R ou
1 18
k ok
rai sed</w>
it a</w>
r yu</w>
in her
um es</w>
Y u
ay ed</w>
B o
conduc ted</w>
t ings</w>
k oku
h um
Rou te</w>
n ight</w>
h ood</w>
Fir st</w>
l l</w>
ru le</w>
mon k</w>
l ower</w>
t reas
wor ked</w>
an ces</w>
s ign
ard en</w>
in o</w>
g ods</w>
re i</w>
lat ter</w>
l un
all s</w>
f ifth</w>
t aking</w>
produc tion</w>
centr al</w>
ther more</w>
sur v
Su tra</w>
pri ests</w>
ow ned</w>
ard ing</w>
shap ed</w>
prin ce</w>
e ight</w>
cl oth
si mp
m ak
Yoshit sune</w>
th um
pl at
i ans</w>
N A</w>
ro y
Z en
con v
e igh
Nihon shoki</w>
pos e</w>
U k
R ight</w>
H is
i i</w>
f em
au ce</w>
Pro per
Th en</w>
al ready</w>
lin es</w>
bu tsu</w>
E lec
par ty</w>
at ic</w>
J o
ro und</w>
offic er</w>
am ount</w>
whi te</w>
ing u</w>
ic ho</w>
ca used</w>
HOSO KAWA</w>
vol ume</w>
op in
R I
F ourth</w>
d era</w>
w ooden</w>
es cap
Ch u
s auce</w>
er ful</w>
J ugo
go t</w>
g n
al ized</w>
gran ted</w>
con n
diff icul
fi eld</w>
Z en</w>
t om
s hima</w>
g a</w>
am p
ail s</w>
ac y</w>
est ed</w>
shap e</w>
let ter</w>
expres s</w>
R est
rec ords</w>
his a</w>
d ings</w>
p e</w>
or por
exist ed</w>
ac tiv
gener ations</w>
Rit suryo</w>
ition ally</w>
aku -
ac h</w>
Sh u
K y
S o
z ei</w>
c ast
Whi le</w>
div ided</w>
serv ing</w>
ec ts</w>
lead ing</w>
f arm
ec tively</w>
temp or
ic k</w>
achi -
ar s</w>
sch ol
s ay</w>
a shin
j ud
gener ally</w>
TA KA
I mp
s cal
it im
in st
oug h</w>
ing u
es pec
of uk
C o</w>
us an
sp read</w>
s w
i an
includ e</w>
f r
f o
author ity</w>
ac qu
s even</w>
polic y</w>
abol ished</w>
el ds</w>
HO JO</w>
15 8
res t</w>
car s</w>
ow a</w>
f av
su ff
ow n
att acked</w>
a- jinja</w>
add ed</w>
b o</w>
espec ially</w>
vi ew
M a
call igrap
wom an</w>
sur round
P o
G I</w>
aku -ji</w>
end s</w>
prov ince</w>
SA I
s aying</w>
T og
Kann on</w>
B ure
comp iled</w>
performan ce</w>
pres s</w>
h el
Y ok
th us</w>
os atsu</w>
ab uro</w>
p att
fe w</w>
ug yo</w>
se a</w>
grad ually</w>
con d
ad vis
E v
l oy
h ow</w>
a shu</w>
Elec tric</w>
distr ict</w>
as ed</w>
C oll
suppor t</w>
ran king</w>
le t</w>
h ear
k ept</w>
u str
f ig
Ch ronic
mu ch</w>
direc tly</w>
5 0</w>
ac compan
Shog unate</w>
Cro wn</w>
sp e
mon ey</w>
ass ist
V ill
y aku</w>
reg ions</w>
d ance</w>
ai g
administr ation</w>
fl o
a k</w>
c el
co ok
tr av
Fushim i</w>
g old</w>
descrip tion</w>
I ts</w>
U ji</w>
pow erful</w>
xim ately</w>
sp ring</w>
m em
Gr and</w>
i a</w>
hou ses</w>
edit ary</w>
av ing</w>
present -day</w>
pract ice</w>
p aku</w>
e al
n ear</w>
ran ked</w>
s ays</w>
cl ear</w>
B A</w>
tre at
in side</w>
stu died</w>
ref er</w>
ci l</w>
pre par
sp ir
ran ce</w>
t an
fore ign</w>
k ata</w>
in depend
e over</w>
reco gn
M om
G oshi
l ic
fem ale</w>
ug e</w>
ab in
liter ature</w>
S ag
M at
l igh
retur n</w>
her editary</w>
l iving</w>
Rest oration</w>
uk o</w>
pos thum
Tak eda</w>
N ik
stit ution</w>
J odo</w>
A t
Z U
Ch un
lin e
cl ai
c an
b att
Fur thermore</w>
Bure au</w>
leg itim
quar ters</w>
nec ess
ast e</w>
Ni hon</w>
l ad
uk ai</w>
g ri
ic k
K ik
l os
im e</w>
sh ort</w>
proper ty</w>
bas e</w>
usu ally</w>
lev el</w>
writ ing</w>
ty -
bell ion</w>
W ith</w>
if ic</w>
yor ai</w>
sel ected</w>
lim ited</w>
S U</w>
Mon ogatari</w>
K int
mis sion</w>
el dest</w>
Sh ot
ar ily</w>
R es
m a
conc ern
Tak am
l ow
cl ans</w>
en th
im ono</w>
gre at
n atur
hi ko</w>
o le</w>
cov ered</w>
s ister</w>
ro ute</w>
follow ed</w>
acc ep
t un
oc cas
se ems</w>
m a</w>
d on</w>
tur ed</w>
ex pl
as c
DA IRA</w>
su k
piec es</w>
p eri
dis pat
R yo
descend ants</w>
scal e</w>
invol ved</w>
f -
f all</w>
s ing
as ked</w>
K oku
m er</w>
develop ment</w>
k yu</w>
b on</w>
ac him
sel ves</w>
do m</w>
charact eri
ic ip
w ide</w>
un it</w>
prof ess
an no
vis it</w>
P e
M ak
d on
St ate</w>
R ik
Cap tain</w>
suppor ted</w>
post s</w>
k ar
at or</w>
var i
od a</w>
al most</w>
j u
Shin k
ic ts</w>
i yo</w>
ac red</w>
Conf uc
p o</w>
aw a-
tot al</w>
om a</w>
ta x
ashi ro</w>
Comp any</w>
appro ximately</w>
t ation</w>
id a</w>
dist ingu
d -
them selves</w>
l ight</w>
B e
pl an</w>
up s</w>
ser ve</w>
ent ary</w>
st ed</w>
pr is
bu sho</w>
t a</w>
Sh on
ot s</w>
ar ch
ap pe
um o</w>
hand ed</w>
do es</w>
an g</w>
common ly</w>
T o</w>
p ag
h app
cro s
S ub
I f</w>
ilit ies</w>
comp ar
aw ara</w>
thro ugh
bro thers</w>
Imp ortant</w>
ol dest</w>
oc ial</w>
it self</w>
belong ed</w>
O w
z ai</w>
bel ow</w>
organ ization</w>
me i</w>
f ell</w>
G ok
abin et</w>
stud ents</w>
exc ept</w>
to o</w>
oc c
15 9
rem ained</w>
im medi
hig her</w>
Re tired</w>
B osatsu</w>
pos itions</w>
organ ized</w>
stat ues</w>
r is
ar ticle</w>
h eir</w>
ei ther</w>
eb r
K atsu
person s</w>
olog ical</w>
es th
ed ly</w>
T or
MATSU DAIRA</w>
oo t</w>
k ei</w>
S E
out side</w>
mov ement</w>
oku -
mik oto</w>
Wor ld</w>
sug g
app ears</w>
ah ara</w>
M OTO</w>
prov ided</w>
o- in</w>
ex ec
vol umes</w>
Chun agon</w>
t ained</w>
De partment</w>
ribu ted</w>
ch es</w>
A ff
cir c
buil dings</w>
m y
bi g</w>
k o
six th</w>
ab ly</w>
Lt d</w>
mer ch
K abuki</w>
l led</w>
ev ent</w>
ar ran
ai led</w>
U j
g e
et su
legitim ate</w>
fur ther</w>
T er
um ent</w>
col or</w>
k y
anc est
S on
3 1</w>
cour se</w>
au ji</w>
z ane</w>
land s</w>
ag awa</w>
T ot
L and</w>
H er</w>
Ar my</w>
lar g
comm un
d ynasty</w>
An d</w>
success ion</w>
r end
ev al</w>
er ors</w>
re vis
mon th</w>
he i</w>
res igned</w>
pain tings</w>
n ation</w>
ok oro</w>
a ur
St ates</w>
sil ver</w>
if ication</w>
Goshi rakawa</w>
uchi -
s we
o y</w>
Hong an-ji</w>
cel ebr
HA RA</w>
Coll ection</w>
origin ated</w>
Sh os
p al</w>
wh ole</w>
Gen eral</w>
15 7
tr an
s eries</w>
fin ally</w>
T ei
am bo
Yor im
As soci
inher ited</w>
through out</w>
e astern</w>
10 0</w>
h aru</w>
I CHI
B u
l ength</w>
stit ute</w>
Dai g
ec onom
at ives</w>
Vill age</w>
h ak
Min o</w>
Kam i</w>
ar chi
U E
w al
ex ist</w>
er ence</w>
becom ing</w>
T own</w>
shi ps</w>
Koj iki</w>
r un</w>
r i</w>
success or</w>
act or</w>
tion al</w>
set t
pro b
go ing</w>
line age</w>
Kiyom ori</w>
vi a</w>
pro cess</w>
t ext</w>
u ted</w>
high -
2 0
T ango</w>
In ner</w>
t ern
par ts</w>
o t</w>
l s</w>
of un</w>
comm it
co p
Y ear</w>
us es</w>
t ree</w>
em ori</w>
com b
re ign</w>
odai -ji</w>
Kam ig
m ura</w>
esth ood</w>
ei -
Hou sehold</w>
Aff airs</w>
det ails</w>
w ards</w>
serv ices</w>
am aro</w>
z u
pri esthood</w>
e at</w>
direc tor</w>
l ain</w>
in k</w>
accep ted</w>
SA KA
th ology</w>
Ev en</w>
T reas
M utsu</w>
s ess
Shin s
i ble</w>
et ada</w>
co ins</w>
confl ict</w>
a ji</w>
tr aining</w>
ograp hy</w>
increas ed</w>
fi elds</w>
cust om
us ol
ov ed</w>
h om
ev ents</w>
y en</w>
no od
Associ ation</w>
st reet</w>
st re
n ever</w>
t ain
m ary</w>
T sur
K ak
eri or</w>
sen se</w>
stat es</w>
g arden</w>
en emy</w>
an ti
E ast</w>
ri st
ey ama</w>
E duc
s ocial</w>
Nichi ren</w>
sev enth</w>
z ed</w>
st ations</w>
Yam at
struc ture</w>
M iddle</w>
wh ether</w>
r ailway</w>
it ing</w>
att emp
comp osed</w>
pos sible</w>
Prefec tural</w>
t ains</w>
w e</w>
sp iri
s old</w>
d ou
ch ap
ar ies</w>
spiri t</w>
k aku</w>
f un
ar ts</w>
activ ities</w>
s o-
ac tive</w>
Tak auji</w>
princi pal</w>
lun ar</w>
crit ic
oc r
pur pose</w>
nor thern</w>
m id
conf erred</w>
No .</w>
ran ks</w>
An cient</w>
ub o</w>
M is
R ok
Mor eover</w>
ho t</w>
ai jin</w>
KU RA</w>
J ushi
Hig h</w>
th re
t ar
fil m</w>
de fin
ular ly</w>
ot e</w>
oshi n</w>
g s</w>
in it
gro ups</w>
gen d</w>
A n</w>
w ell
pr on
ordin ary</w>
h ai
S un
trans l
m ight</w>
arro w</w>
amb er
S aga</w>
Ow ari</w>
j iro</w>
c ut</w>
ambo o</w>
rest aur
Tan ba</w>
H ojo</w>
act ors</w>
su per
tran sp
Cho shu</w>
reg ul
sug i</w>
K U</w>
I shi
requ ired</w>
R us
Mus ashi</w>
E uro
y ori</w>
M ich
Kan sai</w>
soci ety</w>
imp ro
disci ple</w>
dis c
18 5
T endai</w>
Shing on</w>
wid ely</w>
cl os
ab les</w>
T SU</w>
A shik
gu ar
cor respon
an ced</w>
N yorai</w>
M O</w>
L aw</w>
Ad d
warri ors</w>
the ories</w>
et ing</w>
j ingu</w>
est ate</w>
G os
Fuk uchi
w ear</w>
d eri
dic ated</w>
Yam ag
Am ong</w>
tre ated</w>
in es</w>
ing ly</w>
form al</w>
educ ation</w>
b ack
ad s</w>
4 0</w>
w at
sen ior</w>
i o</w>
di an</w>
de ities</w>
Sh un
er u</w>
b ound</w>
ang u
G I
su ka</w>
ous and</w>
ord ed</w>
M any</w>
f ight</w>
am achi</w>
th ings</w>
si b
enth ron
le d
co de</w>
h at
am i-
difficul t</w>
b and</w>
act ually</w>
Sh ok
prov isional</w>
po et</w>
ak i-
Shig a</w>
h y
g oku</w>
j un
am asa</w>
leg al</w>
ec tive</w>
w ood</w>
res earch</w>
Th ree</w>
z en
s an</w>
id es</w>
gu ard</w>
env oy</w>
ch in
dom ains</w>
att ers</w>
p ref
lit tle</w>
h ere</w>
posthum ous</w>
comm and</w>
administr ative</w>
Tak a
m ir
ast er</w>
o ted</w>
r ather</w>
er ry</w>
s or
pro mot
occ up
descri b
partic ular</w>
l em
uk e</w>
A ri
ter ms</w>
p ass</w>
B ut</w>
run ning</w>
rec orded</w>
high ly</w>
Chi ef</w>
icip al</w>
Jugo inoge</w>
E d
Sang i</w>
O da</w>
ut a</w>
ak ira</w>
t ell
in formation</w>
coun t</w>
scen e</w>
s acred</w>
loc ation</w>
g ive</w>
in str
3 3</w>
sh ow</w>
rit suryo</w>
n ov
d ation</w>
si a</w>
clo th</w>
Yas u
Ch rist
produc ts</w>
i to</w>
amber lain</w>
Ashik aga</w>
ro s
po t</w>
Proper ty</w>
tre es</w>
und red</w>
squ are</w>
lear ned</w>
U pper</w>
mon ks</w>
R O
NAKA MURA</w>
Educ ation</w>
di shes</w>
G un
6 0</w>
tr ade</w>
docum ent</w>
pp ed</w>
op p
Sh owa</w>
ur ed</w>
th s</w>
son s</w>
proper ties</w>
us crip
tow ard</w>
re ached</w>
on ed</w>
Fukuchi yama</w>
con tr
Mas am
K ob
if ic
H achim
ix ed</w>
com ing</w>
techn ique</w>
ent al</w>
tow ns</w>
in ated</w>
I TO</w>
wh ere
um ents</w>
Yoshi k
r ic
act ual</w>
m ale</w>
av ed</w>
H im
sh or
opin ion</w>
rul ing</w>
in ner</w>
Mik oto</w>
present ed</w>
ofuk u-ji</w>
k u
H at
ik u</w>
form ing</w>
ok e</w>
id ea</w>
b en
g en</w>
f requ
T odai-ji</w>
Ar t</w>
ud e</w>
l ow</w>
el led</w>
b amboo</w>
D an
territ ories</w>
e ing</w>
av ail
medi eval</w>
ef for
characteri st
dest roy
typ es</w>
s ion
re di
natur al</w>
aw arded</w>
NO E</w>
1 1
oc k</w>
eri c</w>
eng umi</w>
offic ers</w>
min utes</w>
om on</w>
iv al
iv id
shi ki</w>
g ained</w>
dis p
ay u</w>
h us
rig h
p ast</w>
inv est
G or
t o-
me d
f oot</w>
ere after</w>
c ateg
bu shi</w>
op en</w>
Mas ak
C lo
sil k</w>
man uscrip
t -
mem orial</w>
G odai
qu ality</w>
id ing</w>
YO SHI
sec ret
s ize</w>
ro r</w>
m ul
hor se</w>
f und
Y ak
Shins engumi</w>
h un
T a
stor ies</w>
pos sess
con s
av y</w>
MO RI</w>
wor n</w>
uk a</w>
st and</w>
ac ted</w>
str ong
destroy ed</w>
nood les</w>
ci ence</w>
3 6</w>
avail able</w>
Shin shu</w>
Chronic les</w>
piec e</w>
om m
lead er</w>
inter pre
di ary</w>
dec or
O KA</w>
f igh
Yam ashiro</w>
M U
sho en</w>
man u
descend ant</w>
B an
f ic
o- jinja</w>
man or</w>
le gend</w>
det er
M iya</w>
w r
sur rend
f unc
um n</w>
J usan
equ ival
st ip
d am
To yot
k ind
id o</w>
ic ide</w>
d rin
m ust</w>
in struc
assist ant</w>
Coun cil</w>
ass ass
Ar ticle</w>
wh y</w>
tw ent
S ur
Am ida</w>
ur a-
st s</w>
includ es</w>
ch ing</w>
O rig
M ajor</w>
o- jo</w>
er c
ut ting</w>
od ai</w>
av o
yo shu</w>
dis h</w>
Kan paku</w>
Hok kaido</w>
C ol
ot su
law ful</w>
ind ivid
en in</w>
an ori</w>
Cour ts</w>
sur i</w>
o- gawa</w>
it su
ing redi
equival ent</w>
tsu k
l ish</w>
K a
read ing</w>
R in
s ak
peri ods</w>
f re
distingu ished</w>
u als</w>
sh ing</w>
g ath
as him
Is land</w>
de ep
d re
ish ment</w>
fin anc
child hood</w>
San jo</w>
m un
Shig e
wor ship</w>
v ir
Ac t</w>
s ions</w>
o- cho</w>
Ot su</w>
Mitsu hide</w>
I SHI
st ri
S og
Sh ugo</w>
R en
Govern ment</w>
reg ent</w>
lo t</w>
at en</w>
M ochi
de par
bro ke</w>
hum an</w>
gre en</w>
gen cy</w>
d ai</w>
su icide</w>
por tr
pic ture</w>
em itsu</w>
el der</w>
recogn ized</w>
mat erial</w>
m ess
el ed</w>
U E</w>
D o
Clo istered</w>
issu e</w>
sub j
rec omm
ort ation</w>
k m</w>
iqu es</w>
yu -ji</w>
t old</w>
os en</w>
in ojo</w>
T umulus</w>
SU GI</w>
D az
in sul
ro of</w>
sub ject</w>
resp ectively</w>
exist ence</w>
cust om</w>
c m</w>
bu gyo</w>
ut en
sid es</w>
el ev
Yor i
al ways</w>
Hei ke</w>
rit ual</w>
immedi ately</w>
ent er
complet ely</w>
Kaw achi</w>
Add itionally</w>
ow led
ke ep</w>
end o</w>
ap prov
usol eum</w>
us ion</w>
tr ue</w>
m ing</w>
is en</w>
escap ed</w>
Echi zen</w>
rec ent</w>
bo ard</w>
Kint etsu</w>
Jusan mi</w>
Godai go</w>
so on</w>
P ure</w>
Nag a
C enter</w>
financ ial</w>
az aki</w>
P l
iz en</w>
B ank</w>
w ak
up per</w>
polit ics</w>
ok awa</w>
w an
grand son</w>
d ro
ac ros
te enth</w>
sou thern</w>
oshim a</w>
op ped</w>
exist ing</w>
er ation</w>
ch o
appear ance</w>
acros s</w>
T osa</w>
NO UE</w>
sh ugo</w>
ans en</w>
independ ent</w>
Higashi yama</w>
As sist
new ly</w>
i le</w>
ha shi</w>
dispat ched</w>
San et
G y
hus band</w>
D istr
tr ack</w>
ful ly</w>
K ai</w>
G O</w>
warri or</w>
b ashi</w>
Par ty</w>
st ayed</w>
pass eng
iz o</w>
st ood</w>
h ard</w>
e ase</w>
direc tion</w>
ad ed</w>
16 0
f ar</w>
R ei
pol ice</w>
kn owled
eigh th</w>
reg ular</w>
pr ay
f if
conv en
ab ility</w>
Ni jo</w>
I t
ch u
Ch ug
og en</w>
be i</w>
A suka</w>
re t</w>
pro hib
manag ement</w>
emp loy
e o</w>
am s</w>
manu fac
ent ually</w>
n a</w>
lin ed</w>
grand father</w>
exp eri
de ad</w>
gr ave</w>
am p</w>
KA N
Assist ant</w>
re bellion</w>
can not</w>
be h
P er
ear th
bl ack</w>
Tad a
186 8</w>
ill s</w>
Yoshim itsu</w>
K E</w>
emp ress</w>
arri age</w>
w on</w>
s cro
is c
g un
b ow
O b
s le
ag re
Nobu t
L ib
re s</w>
re al
at ively</w>
por t</w>
person al</w>
ist s</w>
disc us
L oc
l ive</w>
k imono</w>
ic ed</w>
calligrap hy</w>
c ou
archi tec
se -
pe ace</w>
fac ilities</w>
c ar</w>
T w
techn iques</w>
ren amed</w>
offic es</w>
K ashi
att ached</w>
G ot
necess ary</w>
Mich inaga</w>
no t
ik e</w>
comp et
Y od
B y</w>
vic e-
N DO</w>
treas ure</w>
sou p</w>
le aves</w>
ful l</w>
Mit sun
200 6</w>
zuk uri</w>
k am
ib u</w>
es e-
en insul
S i
18 4
su d
au ti
sh ows</w>
s ong</w>
ed s</w>
sh u
s eri
ed ition</w>
Tak ak
NA GA
op posed</w>
m ur
d ers</w>
cloth es</w>
un ique</w>
me at</w>
ar ti
on e-
estiv als</w>
ceremon ies</w>
id enti
U r
plat form</w>
o i</w>
ent rance</w>
dep uty</w>
atsu -
am a-
val ue</w>
er age</w>
eng aged</w>
ment al</w>
man aged</w>
bur ied</w>
s oba</w>
bar bar
W ar
S a
M ing</w>
Ex press</w>
ic a</w>
com es</w>
Nag asaki</w>
200 7</w>
s our
em ed</w>
d one</w>
st ly</w>
h ong
concern ing</w>
Hyo go</w>
t our
eas ed</w>
Shot oku</w>
Distr ict</w>
pr ai
particip ated</w>
ai t</w>
Sh or
Mun icipal</w>
id ence</w>
el ec
let ters</w>
iv il</w>
b un
Tai sho</w>
tur ned</w>
sy m
sh aku</w>
l a
d ono</w>
lo ok
Q ing</w>
M iz
ear ing</w>
depend ing</w>
bu re
B i
sh o-
s ura</w>
mag istr
coll ected</w>
Iz umo</w>
requ est</w>
represent ative</w>
k awa</w>
Set tsu</w>
m iya</w>
et sugu</w>
eninsul a</w>
Tak at
S A</w>
B a
ic ted</w>
r al</w>
acc ord
g es</w>
Ko be</w>
G ate</w>
3 5</w>
k i-
ishi ki</w>
emp erors</w>
disci ples</w>
s words</w>
beh ind</w>
reg arding</w>
moun tains</w>
l ove</w>
k yo
b ot
surround ing</w>
ne l</w>
li es</w>
j utsu</w>
deter min
adv oc
S ug
fig ure</w>
em er
du ce</w>
sing le</w>
r ad
Mas at
sur e</w>
im asa</w>
adv anced</w>
U e
0 ,000</w>
ot eric</w>
foun dation</w>
exc av
y i
le -
Yoshin obu</w>
E s
ne go
nego ti
me t</w>
kind s</w>
e ge</w>
commit ted</w>
O KU
s cre
pres erv
jo in</w>
Sh ug
p et
le ad</w>
ai l</w>
Yam ashin
Toyot omi</w>
op ening</w>
G O
su sp
St u
Am er
ri ver</w>
qu est
hol ding</w>
ex hib
cul tiv
p ot
it ation</w>
g ok
and s</w>
Rec ords</w>
N I</w>
m al</w>
UE SUGI</w>
Hig ashi</w>
y uki</w>
w are</w>
ver sion</w>
cl osed</w>
Shink ansen</w>
Prov isional</w>
stand ard</w>
rem ain</w>
e ful</w>
F ac
w an</w>
tic les</w>
h ei
deri ved</w>
c y
Har ima</w>
Dai j
stit u
inc orpor
Mom oyama</w>
ul ty</w>
offic ially</w>
fl ow
pag oda</w>
n i</w>
n ation
figh ting</w>
prev ious</w>
estab lish</w>
poin ted</w>
c him
con qu
long er</w>
d es</w>
draw n</w>
Shin ano</w>
B ridge</w>
teach ings</w>
er ature</w>
de dicated</w>
ti al</w>
sum mer</w>
o o</w>
er ship</w>
b est</w>
du ties</w>
t umulus</w>
f er
compan ies</w>
ag r
M and
us ai</w>
m ill
accompan ied</w>
n ature</w>
SA N
H achi
c en
Yoshim asa</w>
bo w</w>
7 0</w>
us o</w>
sy ll
bre w
at ures</w>
sh ar
ashi ge</w>
G on
rin gs</w>
om atic</w>
describ es</w>
l ay
U m
exam ples</w>
ac tion</w>
re duc
off ered</w>
o be</w>
an im
su shi</w>
r on</w>
pe as
me eting</w>
k ill</w>
ar ist
ai do</w>
Or der</w>
KA WA
t at
st able</w>
p aid</w>
lad y</w>
ey ori</w>
ev entually</w>
chang es</w>
appe ar</w>
T ran
Sh ak
O ther</w>
ord ers</w>
cir cul
S ot
star t</w>
ong s</w>
belong ing</w>
Yoshin aka</w>
t u
mo chi</w>
aj ima</w>
Un ited</w>
us hima</w>
spec i
sh owed</w>
oun ced</w>
doc t
di pl
ag er</w>
K ugyo</w>
K os
K ing
k in
cal l</w>
Wak ashu</w>
ever y
ens ive</w>
bas is</w>
Ten mu</w>
ro c
at ory</w>
T oy
val u
Sum mary</w>
mor ning</w>
grad u
circ um
ab i</w>
Yas ut
y our</w>
ur b
tempor ary</w>
prec inc
barbar ians</w>
al es</w>
ab a</w>
R ep
B en
s per
ov ere
il i
f estivals</w>
eg r
ad em
Sek ig
15 6
ot ing</w>
j u-
gr ade</w>
transf er</w>
t ai</w>
reas ons</w>
be auti
Confuc ian
w in
s em
loc k</w>
arm s</w>
wor king</w>
well -
Mik awa</w>
wor shi
re pe
el ing</w>
arri ved</w>
i ent</w>
pe i</w>
ul ation</w>
sib ility</w>
l ab
8 0</w>
star ting</w>
ir on</w>
TAKE DA</w>
P ol
7 2</w>
h as
Z U</w>
S es
Kar as
tom b</w>
or u</w>
adv ant
Shi chi
J ok
3 8</w>
oku -ji</w>
l angu
ill ness</w>
H ai
A SA
1 15
Yoshi aki</w>
D es
ust ri
exc ell
h oku</w>
b es
Y a
U daijin</w>
mid -
guar dian</w>
dri ed</w>
S ar
3 2</w>
su n</w>
restor ed</w>
min d</w>
influ enced</w>
ei sha</w>
M ori</w>
zuk e</w>
me ant</w>
- g
cont ains</w>
class ified</w>
Ue sugi</w>
arist ocr
V ol
sec ts</w>
h air</w>
farm ers</w>
dr ama</w>
conn ected</w>
al led</w>
D en
te en</w>
pl ays</w>
patt ern</w>
partic ularly</w>
le m</w>
follow ers</w>
eal og
contro lled</w>
iz ing</w>
R ail
K is
trad ition</w>
s pl
a p</w>
Tad at
Sh oshi
Par k</w>
schol ar</w>
Un der</w>
fu ture</w>
a uc
J ing
1 17
si an</w>
ran ge</w>
fac tion</w>
st ated</w>
ern s</w>
Hi ei</w>
En ry
A b
w s</w>
w all</w>
t able</w>
curr ency</w>
1 16
sh ops</w>
s ound</w>
for c
p up
Shi rakawa</w>
flo or</w>
and ed</w>
af f</w>
K us
A tsu
A round</w>
enti re</w>
d an</w>
K iz
t aste</w>
restor ation</w>
mat ernal</w>
iy ama</w>
co st
occas ion</w>
dou b
des ign</w>
k en
chap ter</w>
bu tsu
z aemon</w>
some thing</w>
m ae</w>
li ance</w>
ess es</w>
b a
M oun
shog un
g on</w>
e ating</w>
S E</w>
G ak
- -
increas e</w>
in ally</w>
enthron ement</w>
Ok in
N en
B akufu</w>
h undred</w>
g et
ch a</w>
C er
Al l</w>
s ent
nin th</w>
lear ning</w>
id ent
frequ ently</w>
Sekig ahara</w>
Sad aijin</w>
Prov inc
ou th</w>
hel p</w>
becom es</w>
batt les</w>
tic ket</w>
stu dies</w>
j oy
hand s</w>
clai med</w>
d id
bre wing</w>
Yoshin o</w>
K ofuku-ji</w>
su i</w>
er ly</w>
al th</w>
pres ident</w>
m arriage</w>
ingredi ents</w>
gro und
il gri
ei e</w>
Hist or
th ousand</w>
li k
defe at</w>
K ong
pro sper
i- jo</w>
i yoshi</w>
al ty</w>
Kit a</w>
wh om</w>
vill ages</w>
os eki</w>
j ik
fi x
au di
K ing</w>
repor ted</w>
id e
g ar
M im
Echi go</w>
sh am
princi ple</w>
Sh om
Ki yo
o l</w>
N e
pro gr
ic ial</w>
did n</w>
influ ential</w>
SHI MA</w>
1 19
- cho</w>
k ofun</w>
con nec
circum st
c it
San e
SHI BA</w>
E m
D oshi
C orpor
in e
al co
res sed</w>
play ing</w>
koku shi</w>
differ ence</w>
auth or</w>
M aster</w>
qu ite</w>
ke ep
es hi
Confucian ism</w>
wal k</w>
sub mitted</w>
ot us</w>
hon or
class ical</w>
Kuro do</w>
H yak
s at
os o</w>
ZA WA</w>
ne igh
g ir
eff ect</w>
cap tured</w>
ak ami</w>
Shing en</w>
Shim ot
be an</w>
Pe ople</w>
unc le</w>
ud ai</w>
rul es</w>
add itional</w>
plan ned</w>
merch ants</w>
SHI MA
Enry aku-ji</w>
spec ific</w>
de ep</w>
as hima</w>
meas ures</w>
k atsu</w>
i- jinja</w>
g aku</w>
OTO MO</w>
Me an
o in</w>
em asa</w>
ear li
Tai wan</w>
ru led</w>
giv ing</w>
fl av
app lied</w>
Th at</w>
li sted</w>
gr and</w>
e aten</w>
Dai go</w>
A gency</w>
sum i</w>
sm all
ish ing</w>
excell ent</w>
p u</w>
m ound</w>
eg et
dis mis
con fir
Kan e
ur ban</w>
tro op</w>
re le
comp il
att end
atsu k
ac adem
M od
sign ific
sh own</w>
beauti ful</w>
ast ed</w>
H am
D ue</w>
int egr
appoin tment</w>
H in
A BE</w>
tw el
th in</w>
l y-
Euro pe</w>
so y</w>
n ine</w>
ligh ten
hal f-
cri bed</w>
cook ing</w>
ay uki</w>
Th us</w>
Ot omo</w>
pain ted</w>
j ima</w>
sp ace</w>
agr icul
y s
j aku</w>
f are</w>
tit les</w>
mov e</w>
complet e</w>
Ch ok
vari ety</w>
ut su
sho p</w>
ob j
inv ited</w>
int ern
in sist
di a</w>
ak usa</w>
1 .
is ions</w>
fl ower</w>
bu t
t ex
k ak
it ems</w>
in f
flow ers</w>
f our
ex change</w>
b on
aku shi</w>
S at
re form</w>
pron ounced</w>
atsu ko</w>
Kag ami</w>
Az uchi-
ub lic</w>
tim et
and ai</w>
TA NA
Han kyu</w>
F un
sh oku</w>
sec ret</w>
resp ect</w>
beli ef</w>
1 00
exc ep
ess ion</w>
e tic</w>
con ver
Yamashin a</w>
y et</w>
t ok
ow ager</w>
ill ing</w>
i sho</w>
hou sehold</w>
f uk
d ar
amb er</w>
achiev ements</w>
y asu</w>
sup posed</w>
rin es</w>
ec hi</w>
dist ance</w>
200 5</w>
sup p
prepar ed</w>
invest ig
I yo</w>
z umi</w>
m age</w>
k now</w>
in spec
equ al</w>
an obu</w>
k ot
ind ustr
fun eral</w>
exist s</w>
G oz
3 7</w>
vir t
l acqu
inst alled</w>
c amp
Sak yo</w>
Sak ur
Fuku oka</w>
or e</w>
mo stly</w>
j ust
cri min
S y
A izu</w>
s ongs</w>
k abuki</w>
dom in
d an
anc ing</w>
3 9</w>
industr y</w>
C ode</w>
Kag oshima</w>
v eget
t ory</w>
su tra</w>
run s</w>
Tok aido</w>
Rik yu</w>
P eninsula</w>
af ter
TA CHI
G yo
C abinet</w>
w earing</w>
transp ortation</w>
so- called</w>
relig ion</w>
k on
consist s</w>
co in</w>
ar ticles</w>
Mot ot
J ik
Hiro shima</w>
Doshi sha</w>
Corpor ation</w>
ribu tion</w>
respon sible</w>
knowled ge</w>
g ame</w>
cro p</w>
I se-
separ ated</w>
al a</w>
Res earch</w>
Kat sur
3 4</w>
sur face</w>
sub du
n yo</w>
go ods</w>
N JI</w>
swe et</w>
restaur ants</w>
imp lem
B O</w>
in- law</w>
T oba</w>
N am
magistr ate</w>
kan ji</w>
KO NOE</w>
ushi n</w>
re vol
on y
dec lined</w>
c rest</w>
In ter
j uro</w>
em oto</w>
b ad</w>
Hit achi</w>
territ orial</w>
tempor arily</w>
r ail
cond ition</w>
YO SHI</w>
Nag oya</w>
In stitute</w>
tak es</w>
t ang
o yo</w>
succe ed</w>
prin cess</w>
k az
ichi i</w>
dec reas
T on
KU JO</w>
seas on</w>
h arm
determin ed</w>
associ ation</w>
T re
t op
clud ed</w>
associ ated</w>
ac tively</w>
as h</w>
anno un
D ew
mak es</w>
S o</w>
C ent
b ridge</w>
anti -
0 s</w>
sh ort
k oji</w>
de b
comp os
aut y</w>
ad ul
Mean while</w>
H ot
vice- councilor</w>
se eing</w>
righ ts</w>
oj i-
ed ing</w>
cul p
am ori</w>
a ft</w>
T E
N yo
Japan ese-
sur name</w>
langu age</w>
gl ish</w>
cast les</w>
Kum ano</w>
En glish</w>
16 8
To yo
S om
200 8</w>
prev ent</w>
he ight</w>
consist ing</w>
circumst ances</w>
Treas ure</w>
Q u
M ost</w>
win ter</w>
st ab
some one</w>
en joy
T at
K ukai</w>
su e</w>
TACHI BA
th y</w>
passeng ers</w>
mill ion</w>
az a</w>
ta ught</w>
rem oved</w>
k ab
Vol ume</w>
reg ional</w>
m il
ext ended</w>
en ough</w>
chu jo</w>
Emp ire</w>
t ale</w>
rem aining</w>
re li
e e</w>
dr am
s ada</w>
hol ds</w>
5 1</w>
5 00</w>
pun ishment</w>
mar tial</w>
indic ates</w>
for t
coll ap
buil d</w>
Y om
6 7</w>
sup pres
prob lem</w>
per mission</w>
ograp hi
law s</w>
Su z
um s</w>
great ly</w>
1 st</w>
s oy
res erv
aut umn</w>
me dic
hear d</w>
cook ed</w>
K aga</w>
Az uma</w>
c are</w>
cr af
c abinet</w>
TACHIBA NA</w>
. .</w>
stud ent</w>
fac ility</w>
cont in
Yoshit aka</w>
simp ly</w>
se al</w>
it ude</w>
ec d
bur ial</w>
bl ood</w>
s overe
liter ary</w>
ec hi
descrip tions</w>
ug i</w>
u ter</w>
n ers</w>
iy ori</w>
in ing</w>
e ous</w>
de partment</w>
compar ed</w>
as k</w>
ha y
dec ision</w>
cond itions</w>
back ground</w>
ancest or</w>
Sou th</w>
schol ars</w>
is land</w>
govern ors</w>
Yoshit omo</w>
U me
T oday</w>
w a
seas on
od des
fil ms</w>
Con stitution</w>
5 4</w>
zuk a</w>
patt erns</w>
War ring</w>
Sak ai</w>
peas ants</w>
mat ter</w>
ent ry</w>
bow l</w>
ar t
T emp
I shik
Dew a</w>
5 8</w>
spir its</w>
regul ations</w>
p hi
nob ility</w>
manuscrip t</w>
cont ributed</w>
ch erry</w>
bu -
K im
bas ic</w>
H y
F ive</w>
4 8</w>
tai sha</w>
or ity</w>
l ist</w>
eng u</w>
en -ji</w>
S pec
4 3</w>
ug aku</w>
t oku</w>
st ones</w>
f ailed</w>
div ision</w>
conn ection</w>
c ause</w>
Rec ord</w>
4 9</w>
s aw</w>
main tained</w>
gath ered</w>
en lighten
Fac ulty</w>
0 1</w>
suff ered</w>
stor e</w>
le aving</w>
gen ealog
SA KI</w>
M ir
Di rec
k ag
fix ed</w>
ev il</w>
Shin -
Shi gen
wh eat</w>
tur ing</w>
sum o</w>
ro ads</w>
head quarters</w>
ex iled</w>
conc ub
at a-
Shi n</w>
G UCHI</w>
p ite</w>
ob o</w>
los op
head s</w>
fav or
col ored</w>
ashi ra</w>
Di ary</w>
sub sequently</w>
sett led</w>
le ave</w>
enter tain
bo iled</w>
auc r
arm ed</w>
Tak e
urb ance</w>
st ic
or a</w>
n on-
k a
dis covered</w>
ashi -
Yam an
Ki i</w>
Hos okawa</w>
Con t
ru m</w>
n i
Mas a
mast er
conc ept</w>
accord ance</w>
K ir
B ook</w>
wan ted</w>
neigh bor
Be fore</w>
4 5</w>
vi ol
u pris
n en
et aka</w>
U kyo</w>
sug ar</w>
ref used</w>
K od
z on</w>
wor k
tax es</w>
simp le</w>
r aw</w>
defin ed</w>
c ard</w>
I chin
Ch amberlain</w>
strong ly</w>
ok ami</w>
cl us
aw ar
an y
D ay</w>
Ar ts</w>
A w
4 2</w>
rap id</w>
h ang
us h</w>
super vis
rit uals</w>
do or</w>
bure aucr
avo id</w>
sub o</w>
str ic
repor t</w>
prefec ture</w>
op pos
happ ened</w>
al ing</w>
AM I</w>
R ak
Ok ayama</w>
Nai daijin</w>
M ag
per c
oshi -
or -
om s</w>
mo on</w>
m id</w>
k oto</w>
gok enin</w>
ess ed</w>
emp has
att v
Mot on
Jushi inoge</w>
H an</w>
tow ards</w>
bo x</w>
Kin ki</w>
n ar
mar ket</w>
incorpor ated</w>
im oto</w>
f ree</w>
effor ts</w>
co des</w>
R U
Cer emon
sh o-ji</w>
per forming</w>
man ner</w>
in omiya</w>
equ ip
audi ence</w>
att ention</w>
U t
Iz umi</w>
186 9</w>
r ate</w>
ol den</w>
Tre at
sle ev
shogun al</w>
me ly</w>
ground s</w>
tre mely</w>
st aff</w>
hong i</w>
con currently</w>
ch an
arran ged</w>
ab and
L it
H ay
pop ular
g am
cro wn</w>
cont ents</w>
an ks</w>
advis er</w>
- in</w>
yok ai</w>
mon ths</w>
l ement</w>
iy uki</w>
ivers ary</w>
exec uted</w>
ex tremely</w>
a oka</w>
Miy azu</w>
Mi to</w>
K oy
yo e</w>
st opped</w>
ret re
am atsu</w>
Shim og
5 2</w>
twent y-
academ ic</w>
O ld</w>
O NJI</w>
G er
A g
rece ive</w>
o s</w>
l ook</w>
in s
ha i</w>
f ar
eas ily</w>
a e
Ichi jo</w>
y oku</w>
we ap
ro k
r ary</w>
poin ts</w>
me an</w>
f a
dom est
Y an
Masam une</w>
MI YOSHI</w>
success ive</w>
m ixed</w>
an ecd
He ad</w>
D ist
prohib ited</w>
den ly</w>
al tern
St at
187 1</w>
r ying</w>
i- cho</w>
en c
9 0</w>
oo m</w>
oddes s</w>
coll ec
Y U
KA TA
ICHI KAWA</w>
I MA
sy st
requ ested</w>
per mitted</w>
og i</w>
identi fied</w>
f usa</w>
c ities</w>
Shi r
Po etry</w>
A p
2 00</w>
s cap
re located</w>
er ring</w>
S ea</w>
Kum amoto</w>
J im
prot ection</w>
p an
or ted</w>
l ives</w>
hak ase</w>
er i</w>
ed ict</w>
econom ic</w>
Shi zu
A mat
3 00</w>
sud denly</w>
st er</w>
rel atively</w>
pro ject</w>
om asa</w>
od his
expres sion</w>
as ion</w>
Sai go</w>
Ok imi</w>
O NO</w>
Mot o
Cl an</w>
4 6</w>
k ey</w>
cloth ing</w>
c at
Sur uga</w>
S endai</w>
Kin ai</w>
E ar
7 5</w>
4 1</w>
od ate</w>
mon o</w>
dre w</w>
I WA
pow ers</w>
oy s</w>
m atters</w>
dec line</w>
conf ron
ashi yama</w>
Kam o</w>
Higashi -
Dai shi</w>
the ater</w>
suppor ting</w>
re ti
pe erage</w>
k ets</w>
f led</w>
ac ks</w>
ud en</w>
ret ained</w>
res ist
bus es</w>
architec ture</w>
SAI ONJI</w>
5 5</w>
k in</w>
expres sed</w>
aku in</w>
T achi
Shon ii</w>
Am en
ur yo</w>
un iversity</w>
str eng
stip end</w>
re in
ma usoleum</w>
er ce</w>
b ri
Ni shi</w>
z oku</w>
mod el</w>
m ai
d own
R u
G an
we ight</w>
th -
se ki</w>
scrip tion</w>
ro se</w>
fol k</w>
Tsun e
stre am</w>
p ill
oper ations</w>
cl im
ap pl
announ ced</w>
Yas um
Sh rines</w>
S ok
Os ak
ter min
k il
k i
ishi n</w>
des igned</w>
I KE
For e
6 8</w>
str ateg
r d</w>
pr ice</w>
ph r
ll s</w>
grand child</w>
fin al</w>
et oki</w>
di o</w>
def ense</w>
dai bu</w>
Coun cilor</w>
w ind</w>
s ive</w>
ob tained</w>
ob ject</w>
min ist
c u
Koku shi</w>
B us
6 5</w>
w alls</w>
ro w</w>
rel ative</w>
pic tures</w>
om ori</w>
mer ged</w>
it able</w>
To hoku</w>
Sh o</w>
t ower</w>
sty les</w>
p en
odhis attv
ill ustr
bl os
SO GA</w>
Mod ern</w>
M ilitary</w>
C ur
A shi
6 4</w>
pr ay</w>
car ry</w>
ann ual</w>
z um
treas ures</w>
teac her</w>
profess ional</w>
pp on</w>
p ul
an omiya</w>
achiev ed</w>
Tad ayoshi</w>
A y
sho oting</w>
prefec tures</w>
mess eng
if u</w>
g ak
dis appeared</w>
approv ed</w>
O I
M u
B as
3 rd</w>
1 -
tr u
r ise</w>
individ ual</w>
ay asu</w>
Sub way</w>
teach ing</w>
fore ign
en aga</w>
advant age</w>
Tw o</w>
S cience</w>
Masak ado</w>
L ake</w>
treat ment</w>
intern ational</w>
eri t</w>
ent ering</w>
desc ended</w>
cons ort</w>
c and
un in</w>
sh all</w>
sal t</w>
ro les</w>
ing -
in a</w>
heav en</w>
h ost</w>
T V</w>
sec tions</w>
lik ely</w>
ear th</w>
af usa</w>
W at
Sak one</w>
Hon no
r are</w>
mul ti
ek atsu</w>
d rum</w>
Kaw ar
v e
thre e-
n ep
ilgri mage</w>
fri ed</w>
N is
4 7</w>
man d
earli er</w>
bir th
Shin ran</w>
O e</w>
Kam e
Chi ba</w>
6 9</w>
treat y</w>
el t</w>
be auty</w>
b ring</w>
G om
AM URA</w>
18 0
organ iz
k o-
dist inc
ann iversary</w>
Orig inally</w>
resul ted</w>
re placed</w>
numb ers</w>
mis sion
introduc tion</w>
critic ized</w>
commun ity</w>
chang ing</w>
a- dera</w>
A sia</w>
12 0
spec ially</w>
m ai</w>
le ge</w>
es ada</w>
t ors</w>
f ication</w>
er ous</w>
coun ter
cl es</w>
bet to</w>
Wak asa</w>
L im
I ga</w>
E astern</w>
A no
prefec tural</w>
distr icts</w>
cont ained</w>
rel atives</w>
pro posed</w>
co pper</w>
ZA KI</w>
MA TSU</w>
Kon oe</w>
A wa</w>
u r</w>
u i</w>
pract iced</w>
po ets</w>
m ist
k or
f oc
daugh ters</w>
characterist ics</w>
sit es</w>
proc ed
p aste</w>
hat amoto</w>
eng yo</w>
d uty</w>
Sec ret
O d
Moun tain</w>
4 th</w>
pro duce</w>
performan ces</w>
m aru</w>
gu ards</w>
d ates</w>
Mitsun ari</w>
Fore ign</w>
Di et</w>
s n
opin ions</w>
igh tly</w>
id en</w>
h ard
c le</w>
am ichi</w>
Mi yoshi</w>
revis ion</w>
li qu
correspon ding</w>
consist ed</w>
Lib rary</w>
nep he
n om
en ori</w>
al u
Shimot suke</w>
K ang
D owager</w>
tai shogun</w>
revis ed</w>
recomm ended</w>
jin -
H aku
D ate</w>
5 3</w>
pre me</w>
il ing</w>
cont ent</w>
YA SHI</w>
K aj
sour ce</w>
k un
in al</w>
bi ological</w>
as sum
ak es</w>
ait ing</w>
S oci
stor es</w>
seri ous</w>
se emed</w>
ok yo</w>
n d</w>
m om
en o</w>
en cour
e z
atsu gu</w>
Iz u</w>
trac ks</w>
t ori</w>
direc ted</w>
dec lar
J izo</w>
G od</w>
v al</w>
res ear
reg istered</w>
re ver
fl our
ch ec
P lat
transl ated</w>
sw ord
merch ant</w>
dis ease</w>
ceremon ial</w>
bur ned</w>
Kit ak
J og
AM A
ig ata</w>
est im
disp ute</w>
dis sol
Th ose</w>
Sun g</w>
Proper ties</w>
N avy</w>
Es oteric</w>
Ar ashiyama</w>
v ement</w>
ur ity</w>
typ ical</w>
surrend ered</w>
promot ion</w>
j uku</w>
g or
am a-jo</w>
ad ing</w>
U chi
S or
Man yoshu</w>
MA E
Ano ther</w>
6 1</w>
5 7</w>
17 0
stand s</w>
op e</w>
D ut
subdu es</w>
sl ightly</w>
pr ing</w>
possess ed</w>
ob i</w>
ky oku</w>
f an</w>
SU GA
S pring</w>
D ait
2 nd</w>
st ep
rec i
mov ie</w>
enlighten ment</w>
a- gun</w>
Ry uk
O shu</w>
5 9</w>
te e</w>
rele ased</w>
pro bl
on ji</w>
ep is
Wak ayama</w>
On in</w>
G ro
16 9
sel f-
secret ary</w>
no thing</w>
ill a</w>
i um</w>
cor rec
attemp ted</w>
al one</w>
Nak amaro</w>
Lim ited</w>
HI RA
Cent ral</w>
A f
view s</w>
sh ou
scro ll</w>
excav ated</w>
San uki</w>
S eries</w>
ru p
Ak i
v en
ach ing</w>
As a
10 th</w>
sub ordin
pray er</w>
nov el</w>
med ical</w>
Nor th</w>
K yo</w>
sh owing</w>
r at
d y
a- gawa</w>
SHIMA ZU</w>
N R</w>
th ere
s him
p utting</w>
over thro
imp os
go es</w>
fac ed</w>
ell ow</w>
domest ic</w>
co ff
In tern
FU KU
ud a</w>
n or</w>
m al
jun ior</w>
Ko zuke</w>
Jin shin</w>
rit es</w>
plat forms</w>
ou ter</w>
int ernal</w>
instr uments</w>
histor ic</w>
ad y</w>
K ichi
st ay</w>
ron ze</w>
it omo</w>
heav y</w>
hai ku</w>
h an-
ac king</w>
T o-ji</w>
Shizu oka</w>
Shik ibu</w>
war ring</w>
pain ter</w>
an thology</w>
al ism</w>
Tok i
Provinc es</w>
J NR</w>
nephe w</w>
n yo
medic ine</w>
g ement</w>
dep icted</w>
b s</w>
K ad
Hei an-
Amat er
surround ed</w>
gr av
ev alu
ed ge</w>
draw ing</w>
Ke icho</w>
Karas uma</w>
In dia</w>
Af ter
6 3</w>
5 6</w>
rel ations</w>
po or</w>
our s</w>
n ear
h ot
gre w</w>
Y ug
Michi zane</w>
Jun ii</w>
B es
8 th</w>
17 8
12 th</w>
w as
vi ously</w>
t aining</w>
ll ing</w>
g if
g eisha</w>
ess or</w>
en obu</w>
confir med</w>
att ended</w>
T os
O ama</w>
G ion</w>
A ko</w>
o be
har v
f ab
escap e</w>
ep ts</w>
F ut
Daij okan</w>
- shaped</w>
profess or</w>
p ay</w>
ist ic</w>
app ed</w>
W ooden</w>
serv ant</w>
resid ents</w>
rel ation</w>
larg est</w>
k e-
foreign ers</w>
al liance</w>
ag on
Mir ror</w>
Mik o</w>
6 2</w>
sho sho</w>
sho in</w>
progr am</w>
per form</w>
p on</w>
mus ical</w>
ik awa</w>
i er</w>
f le
aff ic</w>
Yoshim une</w>
U don</w>
ri c</w>
respon se</w>
por tion</w>
pass ing</w>
par ties</w>
h ab
ex clus
comm is
ar g
M ed
M atters</w>
200 4</w>
s af
resid ent</w>
por tun
occup ied</w>
larg e-
jo b</w>
ho l</w>
div ine</w>
chi ka</w>
as aka</w>
a f</w>
YOSHI DA</w>
Hid etada</w>
B izen</w>
tell ing</w>
main tain</w>
int ended</w>
deep ly</w>
Nishi -
Bu il
priv il
fin ished</w>
an agi</w>
K YO
GO KU</w>
7 1</w>
sh un</w>
s culp
rece iving</w>
n in</w>
m os
m ach
f illed</w>
e er</w>
con fin
an tly</w>
ai e</w>
Tai sha</w>
R el
K O</w>
I NOUE</w>
us en</w>
tro ub
op portun
a- Genji</w>
T ar
Re bellion</w>
O uchi</w>
th in
st ock</w>
r um
odhisattv a</w>
n arrow</w>
int ention</w>
hol id
get ting</w>
ei kan</w>
Y odo</w>
The ater</w>
M y
He ad
HO N
H oz
Fu ji</w>
7 4</w>
w aiting</w>
the ast</w>
phi losop
l uc
im ent</w>
employ ed</w>
dai ra</w>
Kan z
Dut ch</w>
z ushi</w>
to m</w>
t on</w>
se ated</w>
prob ably</w>
establish ing</w>
al lied</w>
Tok it
S ix
Hok ur
F ud
ha v
exp ected</w>
el ess</w>
U da</w>
jo- dori</w>
igh t
hor ses</w>
fig ures</w>
f uku</w>
e ko</w>
S erv
K ab
sham isen</w>
it ai</w>
for est</w>
concub ine</w>
c ous
Yamag uchi</w>
Kan mu</w>
retur ning</w>
reduc ed</w>
hi k
al t
Z u
W om
Sei i</w>
L i
F oll
Dai k
B et
well- known</w>
t end
ev idence</w>
col ors</w>
bel l</w>
Sog a</w>
S H
Nag amasa</w>
pro g
portr ait</w>
pop ulation</w>
manag er</w>
if y</w>
expl ained</w>
co ver</w>
cl am
c ivil</w>
as p
Kam eyama</w>
4 4</w>
0 -
w el
un o</w>
spl it</w>
ph ys
inter est</w>
fav or</w>
d emon
c old</w>
c k
believ e</w>
alco hol</w>
Treat y</w>
O UCHI</w>
K o</w>
th ereafter</w>
sho ji</w>
rev en
n ag
is ed</w>
ch amber</w>
Yoshi ie</w>
W a</w>
N U
MU RA
Ju ichii</w>
17 9
success ively</w>
off er</w>
ob l
ind ustri
eng r
T sug
- do</w>
ut en</w>
ul ated</w>
it ors</w>
ig a</w>
i h
en ly</w>
bro ad
Yoshin ori</w>
Th ereafter</w>
T en</w>
Roku hara</w>
7 th</w>
6 th</w>
5 th</w>
1 ,
re built</w>
prot ect</w>
probl ems</w>
dai ly</w>
an mi</w>
Tad ak
Sy stem</w>
Su ch</w>
Sag ami</w>
SAN JO</w>
N it
t aro</w>
pract ical</w>
meth ods</w>
in j
ch osen</w>
at trac
a ul
King dom</w>
K atsum
I r
Amater asu</w>
t ab
precinc ts</w>
pract ices</w>
mon ument</w>
b lock</w>
usu al</w>
on -ji</w>
ik ado</w>
Re f
r ain</w>
m iko</w>
e k</w>
cer ti
as agi</w>
all ow</w>
Mas ako</w>
11 th</w>
t on
polic ies</w>
p u
iy atsuko</w>
inv asion</w>
implem ented</w>
hon or</w>
Nag at
K ofun</w>
Direc tor</w>
sec on
p ed
i- no-
g est</w>
em entary</w>
San j
S in
HA SHI</w>
Chronic le</w>
A ichi</w>
ric h</w>
m ig
imp osed</w>
great -
dam age</w>
Uk one</w>
TA KE</w>
Sh oku</w>
200 0</w>
ne eded</w>
m it</w>
ev ening</w>
app reci
al ive</w>
ac ting</w>
ab ashi</w>
I emitsu</w>
Chik u
B ased</w>
thir ty-
ro utes</w>
env oys</w>
dipl omatic</w>
dec ree</w>
contr ast</w>
av al</w>
ans w
Sad at
Rei zei</w>
K ira</w>
Azuchi- Momoyama</w>
6 6</w>
to shi</w>
sh u-
ro oms</w>
ne ed</w>
fe atures</w>
em ichi</w>
dismis sed</w>
appro pri
Th ough</w>
S illa</w>
S am
tur n</w>
scre en</w>
is on</w>
aig n</w>
adv ance</w>
Tai ho</w>
Pro duc
M ong
F our</w>
Eng ishiki</w>
A KE
7 7</w>
par ents</w>
p en</w>
c ell
Shim azu</w>
Sh oz
O KA
H ogen</w>
upris ing</w>
ing o</w>
ident ally</w>
ic ian</w>
fa ith</w>
custom s</w>
add ing</w>
ad emy</w>
Shos anmi</w>
ICHI JO</w>
ti li
oz u</w>
l og
don ated</w>
Shi jo</w>
Matsu daira</w>
Kat sura</w>
D is
8 0
re ality</w>
pro pos
play er</w>
Min ami</w>
MI YA
Loc al</w>
K oya</w>
B rit
wid th</w>
tw o-
th ink</w>
pur ch
prov ide</w>
bo shi</w>
arch ery</w>
an o-
Nobu m
f al
ex per
concern ed</w>
be ans</w>
Ni hongi</w>
Foll owing</w>
F um
AKE CHI</w>
th ick</w>
restaur ant</w>
re ment</w>
pur su
i x</w>
her self</w>
foll ow</w>
T E</w>
Kamig ata</w>
I to</w>
1 14
under stood</w>
prin ted</w>
increas ing</w>
fl our</w>
doct rine</w>
T oshim
Secret ary</w>
S as
I mag
- in-law</w>
tr as</w>
sy n
li br
bro ken</w>
ac es</w>
Got oba</w>
187 2</w>
oper ating</w>
met al</w>
integr ated</w>
g i</w>
form erly</w>
ex ten
Ses sho</w>
G i
D ev
7 8</w>
vic tory</w>
to ols</w>
tar get</w>
se as</w>
popular ity</w>
low -
fer ment
ch ur
b ank</w>
Tok u
R yu
NO MI
Dai jo-
s way</w>
j o-ji</w>
j ig
em at
dist ributed</w>
dai sho</w>
craf t
ashi ki</w>
a- ji</w>
V i
Tak as
O uter</w>
M et
Kan rei</w>
Fuku i</w>
A gr
13 th</w>
prai sed</w>
ot es</w>
n ur
et suna</w>
T ob
SA WA</w>
Plat form</w>
Ni shin
Kamig yo</w>
10 ,000</w>
- no-
ref erence</w>
produc t</w>
oh ama</w>
new sp
mat suri</w>
long -
ch amberlain</w>
bas ically</w>
ac ts</w>
Okin awa</w>
MI ZU
M o
L ady</w>
KA TSU
Head quarters</w>
186 7</w>
um oto</w>
se k
ow ner</w>
iv e-
f elt</w>
advoc ated</w>
ab ov
K i</w>
Ise- jingu</w>
om o
ok uni</w>
f all
d ry</w>
D r
B iwa</w>
Agr icul
shi ge</w>
scrip tures</w>
om aru</w>
la un
c .</w>
at ors</w>
Si ege</w>
KI TA
D em
D aj
w rest
veget ables</w>
t al</w>
r aid</w>
en ess</w>
e uten
e ast
dec eased</w>
ch e
Tsu shima</w>
R ap
Om iya</w>
3 .
ug g
u b</w>
sat is
reg ard</w>
mag az
in ance</w>
ik an</w>
h uge</w>
characterist ic</w>
bre ak</w>
an osuke</w>
ag ami</w>
ac tions</w>
Yu an</w>
Shi ki</w>
SAI GO</w>
R is
Kyo to-
tr affic</w>
t an</w>
s anc
p ine</w>
off ering</w>
ick ly</w>
f ru
est ing</w>
cre ate</w>
cl early</w>
agricul tural</w>
Cl ass
C amp
A RA
str ength</w>
n um
mis o</w>
in u</w>
euten ant</w>
car rying</w>
asc ended</w>
al thy</w>
ag uchi</w>
H ashi
G ifu</w>
Ex pres
ut ation</w>
n t</w>
iz u-
im ages</w>
h en</w>
fr ag
ex emp
Ten chi</w>
R et
JI MA</w>
sovere ign
separ ate</w>
et c.</w>
en ari</w>
eb i
con cluded</w>
and -
a- no-
Z E</w>
N o</w>
M E
200 3</w>
scap e</w>
ri es</w>
l -
in ity</w>
ev ol
ec t
des pite</w>
d ancing</w>
coun cil</w>
b ronze</w>
achi ka</w>
Yamag ata</w>
Nag ano</w>
M uk
Hok ke</w>
tion ary</w>
ter y</w>
sym b
surv ey</w>
sub one</w>
resul ting</w>
par ent</w>
ot su</w>
od en</w>
me et</w>
it suna</w>
instr ument</w>
insist ed</w>
er ally</w>
d ated</w>
con centr
clam ation</w>
cap tain</w>
bot tom</w>
Y on
Ka oru</w>
y aki</w>
ro ugh
n avy</w>
h ours</w>
b it
O ri
Nar i
Mur asaki</w>
Kaw achi-
subj ug
produc ing</w>
opp ing</w>
fol ding</w>
eng a</w>
en om
cont aining</w>
ai med</w>
Kaz usa</w>
Ad ministr
0 .
w ish</w>
par k</w>
ig i</w>
doc tor</w>
O shi
KYO GOKU</w>
Hid e
Dai myo</w>
Com mer
7 3</w>
t enth</w>
sugg ests</w>
stud ying</w>
shin -
resid ential</w>
l aid</w>
il d</w>
cost ume</w>
Christ ian</w>
yo i</w>
transl ation</w>
govern ed</w>
for th</w>
cros sing</w>
ag aku</w>
af uku</w>
Tran sp
Ten no</w>
L otus</w>
D ep
5 -
func tion</w>
e en</w>
d ered</w>
con stable</w>
cast ing</w>
bo at</w>
b ig
achiev ement</w>
SUGA WARA</w>
Kame oka</w>
re j
pos sibility</w>
l er</w>
id ly</w>
ic him
enjoy ed</w>
ac comp
Soci ety</w>
B uk
the at
su mp
pres ents</w>
cent ered</w>
ast ic</w>
aband oned</w>
L ord</w>
K aku
ony m</w>
ar i-
ap s</w>
a ug
Z e
Re present
Nor i
J or
H as
ver ing</w>
ur is
ter u</w>
oshi ki</w>
og o</w>
o x</w>
ig en</w>
fac ing</w>
exp anded</w>
cous in</w>
conduc t</w>
bu mi</w>
achi- dori</w>
Col lege</w>
C O
- style</w>
str ing</w>
par t
o il</w>
h air
ex plan
drin king</w>
dis played</w>
centr alized</w>
am ura</w>
Y ag
Japanese- style</w>
J os
F udo</w>
E i
wh e
ran ch</w>
mat ch</w>
j our
entertain ment</w>
NI SHI
M ov
8 5</w>
surrend er</w>
rak ugo</w>
pro tec
ir on
init i
in stitution</w>
celebr ated</w>
al leg
Spec ial</w>
Ishik awa</w>
y u-
stor ed</w>
sev ent
set ting</w>
rest ed</w>
er able</w>
Rus sia</w>
O yam
O RI</w>
Kur ama</w>
J ingu</w>
Ba ek
ver se</w>
tri p</w>
spe ed</w>
sho t</w>
phr ase</w>
l ack</w>
high- ranking</w>
effor t</w>
educ ational</w>
cor e</w>
bet ter</w>
Ry oma</w>
Rap id</w>
Kas ug
Hon en</w>
Con tro
A KA
7 9</w>
pl ot</w>
indic ated</w>
in t</w>
et h</w>
d ress</w>
bu l
acc ept</w>
Ken shin</w>
GA TA</w>
DA TE</w>
t ou
re organized</w>
k at
it ive</w>
fri end
fi shing</w>
f ine</w>
em or
e- shaped</w>
Sh aka</w>
Kok in</w>
Amer ic
9 th</w>
represent ing</w>
le af</w>
h achi</w>
ed ited</w>
Tsun ayoshi</w>
Tak akura</w>
Nag ayoshi</w>
I N</w>
8 4</w>
there by</w>
sel or</w>
ro b
pow der</w>
foun ding</w>
cen timet
b order</w>
arran gement</w>
Shi koku</w>
A ki</w>
proc e
organiz ations</w>
mon ogatari</w>
imp orted</w>
hi c</w>
el ements</w>
OKU BO</w>
Mat suri</w>
Mak ino</w>
HA TAKE
G o-
G arden</w>
z eki</w>
vis iting</w>
sec ular</w>
prot ected</w>
n ick
k -
ichi ka</w>
el eg
bl ue</w>
b ara</w>
agre ement</w>
Ni ppon</w>
Ki shu</w>
Hachim an-
G in
D E
2 -
rem ar
dev oted</w>
commis sion
ca ught</w>
c amp</w>
ac count</w>
Yoshi hisa</w>
S ong</w>
Ji to</w>
HATAKE YAMA</w>
Bo th</w>
writ e</w>
sequ ent</w>
pun ished</w>
p al
obl ig
look ed</w>
init ially</w>
in scription</w>
dic tion</w>
c al</w>
ah ama</w>
Myo o</w>
st ick</w>
ob an</w>
le y</w>
jo y</w>
govern ing</w>
fac ts</w>
eas y</w>
Yoshi hiro</w>
Michi t
G ojo</w>
G e
z aburo</w>
v o
roy al</w>
p se
or i
messeng er</w>
m ass</w>
in obu</w>
gu chi</w>
fl ute</w>
fi ef</w>
NI SHI</w>
F oun
Confuc ian</w>
15 th</w>
yo -ji</w>
wor e</w>
sovereign ty</w>
sh e
s cience</w>
genealog y</w>
flav or</w>
fin d</w>
comb ined</w>
bran ches</w>
bel ong</w>
an ari</w>
Yoshi sada</w>
Yok ohama</w>
R O</w>
Pri me</w>
E zo</w>
C or
is dom</w>
ho u</w>
govern mental</w>
echi ka</w>
ben ef
atsu ki</w>
SAI TO</w>
S ait
Hei ji</w>
Euro pe
preserv ed</w>
p ath</w>
impos sible</w>
ic hiro</w>
ey es</w>
ell ing</w>
econom y</w>
Yoshim oto</w>
Y um
Hokur iku</w>
186 3</w>
p uku</w>
p air</w>
op position</w>
meas ure</w>
a jo</w>
Pol ice</w>
Amer ica</w>
trav el</w>
sub -
k y</w>
dem and</w>
comm erc
Rin zai</w>
Emp erors</w>
9 9
t ei</w>
pre dec
nam ely</w>
n ak
k illing</w>
j e</w>
g umi</w>
eal ed</w>
differ ences</w>
Sub sequently</w>
Sh u</w>
Sad a
K ud
Iz um
Intern ational</w>
Dist urbance</w>
th anks</w>
re -
pl ants</w>
dist ribution</w>
cop y</w>
commerc ial</w>
aw ase</w>
ass emb
KU R
Imag awa</w>
Histor ical</w>
8 1</w>
yi eld</w>
worshi pped</w>
sh ing
pref ixed</w>
pp ing</w>
g in
g ates</w>
f act
conf isc
Rail ways</w>
Ni igata</w>
Kyo gen</w>
Bes ides</w>
B ranch</w>
stor y
res ses</w>
nar r
k it
do ing</w>
I S
v ice</w>
ust ed</w>
tal es</w>
sup erior</w>
sch ed
prec ed
por ts</w>
he alth</w>
g ard
d ang
ch air
attemp t</w>
ag ing</w>
Tot tori</w>
I bar
G oj
Cap ital</w>
B odhisattva</w>
trad ing</w>
temp erature</w>
prin ces</w>
k ey
ebi ishi</w>
ar rested</w>
Ed o-jo</w>
E ach</w>
Christ ian
sub st
o shu</w>
mar k</w>
m ob
iz an</w>
d oll
co t
c utting</w>
San in</w>
On myo
Lt d
KA DO</w>
D oc
Chug u</w>
A ut
play ers</w>
is o</w>
is ada</w>
com ic</w>
co operation</w>
O E</w>
Nik ko</w>
M ie</w>
Ltd .</w>
Baek je</w>
s ai
rec ently</w>
rap idly</w>
pri or</w>
T ec
Rep ublic</w>
P ort</w>
Min or</w>
Lit erature</w>
Ak ita</w>
opp on
mis e</w>
iv il
depar ted</w>
confl icts</w>
complet ion</w>
At ag
14 th</w>
ynast ies</w>
ll er</w>
l oved</w>
ine ering</w>
hi t</w>
form ers</w>
cont emp
In t
G aku
8 6</w>
tr ain
ti le</w>
rep utation</w>
pl ant</w>
no ted</w>
hi d
compil ation</w>
az ono</w>
az ane</w>
Ot ani</w>
M oku
C A</w>
roc k</w>
pic k
it ure</w>
i res</w>
eg g</w>
categ ory</w>
T atsu
Stu dies</w>
Christian ity</w>
writ er</w>
un ci
ro of
pray ers</w>
o x
h os
asc etic</w>
appropri ate</w>
ZU KI</w>
YA NA
Th rone</w>
Six th</w>
Ref er</w>
Gy oku
twent y</w>
sp ent</w>
r uc
on i</w>
o sho</w>
jud icial</w>
ast ing</w>
Expres sway</w>
Ch ar
sump tion</w>
str aig
s of
kan -
et er</w>
be st
ass er
and ing</w>
am itsu</w>
Shom u</w>
S p
S amurai</w>
un clear</w>
secret ly</w>
n on
et omo</w>
e th
consid eration</w>
c ards</w>
O aza</w>
MAE DA</w>
J od
Gro up</w>
F rance</w>
su itable</w>
sk ills</w>
os ei</w>
oppos ite</w>
l y
d or
ay ashi</w>
Th eir</w>
P ass</w>
NI JO</w>
N aka</w>
J omon</w>
Inc identally</w>
Ac ademy</w>
188 9</w>
s etsu</w>
resear ch
pre viously</w>
k uge</w>
ik ki</w>
dr aw</w>
dou ble</w>
dis continued</w>
di e</w>
c ake</w>
assass inated</w>
am o</w>
Y aw
Po ems</w>
Ok ubo</w>
No h
Mor i
H igh
v in
spec ified</w>
se ats</w>
ro ugh</w>
pse ud
lo oks</w>
aug ur
ans ion</w>
ancest ors</w>
Sanet omo</w>
Bo ard</w>
under stand</w>
tow n
stic ks</w>
represent ed</w>
r ical</w>
pat ri
m ix
in come</w>
ig o</w>
ib i</w>
flour ished</w>
e .</w>
demon str
decor ated</w>
cont ain
con sul
bo y</w>
ay ori</w>
A man
vis itors</w>
tit led</w>
t ered</w>
situ ated</w>
over seas</w>
n ai
cit iz
categ or
ab or
Tak ar
Se e</w>
Kon do</w>
Em ishi</w>
ut s</w>
str ugg
reti rement</w>
manuscrip ts</w>
comm it</w>
c ru
an ami</w>
Mand ala</w>
s -
nation wide</w>
look ing</w>
ition ed</w>
i .
h aku</w>
fund oshi</w>
bo l</w>
Kot su</w>
4 -
187 3</w>
z awa</w>
sel ling</w>
it subo</w>
is ine</w>
interpre tation</w>
in augur
d ay
agre ed</w>
ag g
F ren
A be</w>
succ ess</w>
subj ects</w>
streng th
sched u
s end</w>
reg ister</w>
ref erring</w>
p ay
nick name</w>
iz es</w>
in ari</w>
hang ing</w>
ful l-
d ary</w>
bu ck
abol ition</w>
su tras</w>
st ops</w>
ot en</w>
opportun ity</w>
neighbor ing</w>
m ine</w>
harm a</w>
f ted</w>
eri a</w>
en- in</w>
craft sm
contin ue</w>
connec ting</w>
Sa icho</w>
E specially</w>
186 4</w>
ut oku</w>
rul er</w>
qu ickly</w>
ou e</w>
mod ern
m aj
keep ing</w>
it aka</w>
correspon ds</w>
and a</w>
al ist</w>
Rok kaku</w>
tiv es</w>
syst ems</w>
som s</w>
signific ant</w>
per f
oy u</w>
occas ions</w>
i. e.</w>
epis ode</w>
ent ru
ef s</w>
e- cho</w>
coun ted</w>
Temp les</w>
Shog o
S un</w>
O f</w>
KO NDO</w>
Ak ashi</w>
158 2</w>
sou l</w>
sh ug
plac ing</w>
inv aded</w>
if usa</w>
hel ped</w>
exhib ition</w>
em a</w>
To zai</w>
Tec hn
TA NI</w>
Hak odate</w>
Fuk ushima</w>
13 9
- jo</w>
v ers</w>
mir ror</w>
imp ort
im ori</w>
cur ry</w>
ab sor
Yo u</w>
B U
valu ed</w>
supp ly</w>
prosper ity</w>
olog ies</w>
nor mal</w>
call ing</w>
an aga</w>
M id
san them
rev ived</w>
rai se</w>
p ond</w>
ow ad
no te</w>
m el
lish ing</w>
fo ods</w>
eshi ge</w>
anc ell
Fur ther</w>
Cur r
C ivil</w>
B ai
yok an</w>
sec urity</w>
s a</w>
ry santhem
revol t</w>
pet ition</w>
person nel</w>
not es</w>
loc ations</w>
ic ient</w>
en ses</w>
eff ective</w>
chi -
ar ch</w>
ak ata</w>
abov e-
T e
O tsu
Ma usoleum</w>
ri t</w>
r am
le ast</w>
di al
b oun
att itude</w>
ag aki</w>
NA GA</w>
Mas anori</w>
Hiro t
Hid eyori</w>
Cul ture</w>
7 0
2 .
w ise</w>
us ei</w>
propos al</w>
os an</w>
hak ama</w>
do ors</w>
Ya yoi</w>
Hid etsugu</w>
Cont inu
where as</w>
ushi ge</w>
t es
surv ived</w>
sol id
res emb
k atsu
el ementary</w>
e fu</w>
centimet ers</w>
believ ers</w>
Yoshi da</w>
T y
St ud
KA MI</w>
B oshin</w>
8 8</w>
15 0
p ilgrimage</w>
if ically</w>
camp aign</w>
b al
at edly</w>
Th ousand</w>
D om
8 2</w>
187 0</w>
y s</w>
vill a</w>
tang ible</w>
os ai</w>
m outh</w>
estim ated</w>
est ern
as an</w>
Shig emori</w>
Iw akura</w>
un ified</w>
u tive</w>
to fu</w>
re ach</w>
m ichi</w>
e ji</w>
b i</w>
Tom o
TANA KA</w>
Fren ch</w>
par tly</w>
lic ated</w>
it ab
fort une</w>
em ochi</w>
Yori ie</w>
Suk une</w>
Hor yu-ji</w>
Bi ography</w>
uris diction</w>
tan ka</w>
sym bol</w>
sk in</w>
resul ts</w>
r yo
lear n</w>
j im
i jo</w>
hav ior</w>
b all</w>
ar gu
ang u</w>
where by</w>
we ak
sel l</w>
indic ating</w>
id ents</w>
i r</w>
h ok
gu est</w>
forc ement</w>
circ le</w>
al i
Yod o-gawa</w>
YAMA NA</w>
San yo</w>
Ok un
KA TO</w>
Im ad
A sian</w>
sub sequent</w>
reserv ation</w>
owad ays</w>
o- Japanese</w>
o bu
import ance</w>
et te</w>
em iko</w>
ef usa</w>
chap ters</w>
Su o</w>
Kas uga</w>
In aba</w>
success ful</w>
stitu tional</w>
min ute</w>
d okoro</w>
as ks</w>
anim als</w>
an eous</w>
SAKA NOUE</w>
Mor on
8 3</w>
200 2</w>
stre ets</w>
st aying</w>
st ation
pron unci
prepar ation</w>
philosop hy</w>
hig i</w>
fri end</w>
cl er
bu kyo</w>
ar i
T ajima</w>
O -
Na o
Kan eie</w>
Jin mu</w>
Eng i</w>
16 00</w>
un i
rough ly</w>
lacqu er</w>
lab or</w>
j ob
gir ls</w>
drin k</w>
consid ering</w>
coll ectively</w>
clos ely</w>
sum a</w>
scro lls</w>
s ort</w>
rej ected</w>
or ary</w>
ight seeing</w>
ex erc
el im
declar ed</w>
cu isine</w>
cal cul
Sei w
P ac
OT SU
IKE DA</w>
Gen roku</w>
Dev elop
Ar chi
sit ting</w>
mov ements</w>
is ei</w>
inter v
inc ense</w>
igh ts</w>
g y
f ing
eg ed</w>
e ties</w>
cont ribu
citiz ens</w>
bur nt</w>
ai sho</w>
ai fu</w>
Yoshit oki</w>
Yoshi teru</w>
Kog a</w>
KU SU
twel ve</w>
small er</w>
immedi ate</w>
ign s</w>
bre vi
anecd ote</w>
ab u</w>
Toshi ie</w>
w ood
symb ol
rev ealed</w>
resid ences</w>
read s</w>
oz ane</w>
n early</w>
consid er</w>
con sequently</w>
ath s</w>
ag ue</w>
OT A</w>
KUR ODA</w>
His a
Gen erally</w>
199 7</w>
umb er</w>
tri g
tr ying</w>
r in</w>
pl ate</w>
hear t</w>
fi re
elec tric</w>
bus in
be havior</w>
advis or</w>
a- kyo</w>
W aka</w>
Kan agawa</w>
un iver
sal es</w>
predec essor</w>
p ital</w>
oj u</w>
famil i
f ive-
de pri
c ivil
am ot
Sh onin</w>
Ken mu</w>
Jugo inojo</w>
Imad eg
D ied</w>
8 7</w>
writ ings</w>
um on</w>
sugg ested</w>
sil s</w>
s ign</w>
re alized</w>
on- in</w>
mov ing</w>
libr ary</w>
custom ers</w>
comp ris
chi n</w>
car eer</w>
atsum e</w>
Yamat o-
Wom en</w>
On ly</w>
Gr ad
DA I
Chu o</w>
w are
us him
tru th</w>
lar ger</w>
l ication</w>
k ei
j ac
fav ored</w>
class ics</w>
Se in
NO KI</w>
N E
Mas amoto</w>
Kon o
193 1</w>
vin eg
sh ok
s ized</w>
repe atedly</w>
reg ents</w>
coll ect</w>
b ana</w>
Yor inaga</w>
Shimog yo</w>
Or d
O NOE</w>
Kyo goku</w>
Kashi w
G o</w>
Bun go</w>
u o</w>
ro ju</w>
resid ed</w>
pres sure</w>
ou chi</w>
fi erce</w>
fac es</w>
en acted</w>
decreas ed</w>
comb ination</w>
S aemon</w>
Inter change</w>
w ind
tw ice</w>
su preme</w>
res h</w>
re constructed</w>
mast ers</w>
manufac turing</w>
k ing
indic ate</w>
cont ain</w>
ard less</w>
U eno</w>
Stu dio</w>
Shi ba</w>
Kawachi- Genji</w>
K oshi
B yo
B ic
co vering</w>
c ken</w>
Tog oku</w>
Mur akami</w>
M er
Kane zane</w>
Ik ko</w>
un able</w>
ref l
large- scale</w>
g oddess</w>
de al
cor ner</w>
buck wheat</w>
Yak ushi
Tan abe</w>
Takak uni</w>
Og as
Nor mal</w>
Kun i
KA TA</w>
A rit
1 13
y eo</w>
under ground</w>
uk yo</w>
scen es</w>
pl ain</w>
ne y</w>
k ne
k imi</w>
k ane</w>
jac ent</w>
er ected</w>
discus sed</w>
ba by</w>
ap ers</w>
accompan iment</w>
Min am
Con sequently</w>
ste amed</w>
sett lement</w>
s igned</w>
pl um</w>
fe ature</w>
c av
b en</w>
ah aru</w>
a x
Sh oshi</w>
S tr
Heian- kyo</w>
As akura</w>
19 28</w>
we althy</w>
us age</w>
re presents</w>
hun ting</w>
de g
de al</w>
clud ing</w>
arro ws</w>
approv al</w>
an ji</w>
ak ko</w>
Yoshit ada</w>
Tr ue</w>
K uni</w>
7 6</w>
w ine</w>
sk y</w>
re str
rai sing</w>
perc ent</w>
p an</w>
ot ted</w>
l u
k ugyo</w>
det ailed</w>
clo istered</w>
arm or</w>
Tog u</w>
Pac ific</w>
N eg
I e
13 0
vic inity</w>
tri bu
tai fu</w>
quest ion</w>
or i-
num erous</w>
land scape</w>
k ur
i ence</w>
domin ant</w>
critic ism</w>
cre ation</w>
blos soms</w>
assass ination</w>
Sai onji</w>
R eng
R E
Hei shi</w>
se pp
lin ked</w>
giv es</w>
es n</w>
en joy</w>
b er</w>
Seiw a-Genji</w>
SE N</w>
R aku
No .
NO MURA</w>
K izu</w>
Am itab
3 -
under standing</w>
un its</w>
u to</w>
shi ro</w>
rysanthem um</w>
re construction</w>
oun ds</w>
my thology</w>
issu es</w>
is ol
gro wing</w>
deg ree</w>
ab brevi
U ji-
Ryuk yu</w>
Go sho</w>
E stab
tr usted</w>
suppor ters</w>
spir acy</w>
obj ects</w>
man ors</w>
k om
iy asu</w>
ins cribed</w>
collap sed</w>
bl ade</w>
az e</w>
am une</w>
Y os
Jok yu</w>
Continu ed</w>
Americ an</w>
valu able</w>
resist ance</w>
r ics</w>
proced ures</w>
pos es</w>
ph ere</w>
per su
mo at</w>
k ubo</w>
ji to</w>
it ted</w>
investig ation</w>
enthron ed</w>
do esn</w>
dispat ch</w>
Sait ama</w>
Pri est</w>
ve hi
uten sils</w>
serv ants</w>
rin ging</w>
posthum ously</w>
possess ion</w>
own ership</w>
n e</w>
ic ians</w>
gu arded</w>
ex tr
cr is
al ed</w>
KAN ZE</w>
J in</w>
Hak ata</w>
Camp us</w>
tr end</w>
spir it
s ought</w>
qu ake</w>
m our
li ked</w>
il s</w>
ik ami</w>
etsu -
ed -
b ills</w>
Y ur
Ni jo-
N y
H er
194 5</w>
wak ashu</w>
sit ies</w>
s and
pro min
pres ence</w>
ion ally</w>
in om
er ve</w>
conf usion</w>
c chu</w>
YAMA DA</w>
S ev
Rus sian</w>
Con struc
ut ai</w>
u tili
qu al
lad ies</w>
l ers</w>
k osa</w>
form ally</w>
f ail
entru sted</w>
di am
c ost</w>
ab road</w>
a sho</w>
SA SAKI</w>
Mis asagi</w>
G E
y east</w>
og awa</w>
in ki</w>
hor iz
ent it
el ection</w>
ec ting</w>
confin ed</w>
co al</w>
be y
T ales</w>
Europe an</w>
189 8</w>
sh el
re ki</w>
or nam
nor th
ld n</w>
j urisdiction</w>
exp edition</w>
emer ged</w>
dram as</w>
descri be</w>
dem oted</w>
comm emor
car ved</w>
calligrap hic</w>
arch y</w>
aff ected</w>
Ze ami</w>
T andai</w>
ISHI KAWA</w>
G ek
Amitab ha</w>
t ool</w>
per man
on to</w>
oji- dori</w>
ob served</w>
g an</w>
end ation</w>
cor por
cell aneous</w>
ar ed</w>
app ing</w>
Se ir
Rail road</w>
Osak a-jo</w>
NOMI YA</w>
L et
Ishi yama</w>
B ro
pronunci ation</w>
k o-ji</w>
h am
exam ination</w>
ch ron
categor ized</w>
c ast</w>
bey ond</w>
administr ator</w>
1 ,000</w>
uk an</w>
t am
r ac
ol l</w>
of -
moun ds</w>
ho jo</w>
g yo
g host</w>
ex ile</w>
ear ly-
e- jinja</w>
art ist</w>
Tai shogun</w>
I CO
ICO CA</w>
Commer ce</w>
C .</w>
y ag
re ward</w>
re d-
p oll
l ess
e on</w>
dis play</w>
del iv
b rig
ag ement</w>
Sad o</w>
P resident</w>
Naga ok
MIZU NO</w>
I NA
Hok ke-
Hei jo-
weap ons</w>
ver t
susp ic
success fully</w>
st rings</w>
shor e</w>
pub lic
mus eum</w>
laun ched</w>
f ashi
conf erence</w>
cho ja</w>
ch ome</w>
c ill
bu d
al -
Nobut ada</w>
H aving</w>
Daz ai</w>
um a-
respon sibility</w>
negoti ations</w>
ic kn
cultiv ation</w>
alt ar</w>
Un til</w>
Mun e
Ch o</w>
Ch ap
188 4</w>
ti ed</w>
sup pl
sid ed</w>
relation ships</w>
necess arily</w>
man ners</w>
low er-
lec ture</w>
f th</w>
f resh</w>
b ing</w>
Sh oki</w>
Sh ochi
KUSU NOKI</w>
KI TA</w>
Ibar aki</w>
Hig o</w>
D ar
8 9</w>
14 9
ud on</w>
st ice</w>
s ang
rail ways</w>
n et
l ay</w>
kan a</w>
exp elled</w>
env iron
dr aft</w>
az awa</w>
ar yo</w>
ac ho</w>
ab dic
Yoshi haru</w>
Roku jo</w>
Ogas awara</w>
No w</w>
Ko chi</w>
KATA OKA</w>
KA I
IWA KURA</w>
10 9
s now</w>
pr ent
gro w
farm ing</w>
ey uki</w>
compet ition</w>
batt le
YAM AMOTO</w>
TO MI</w>
M em
Ba sho</w>
As ano</w>
w ed
tex ts</w>
sou th
r ar
o di
near by</w>
m ass
lem entary</w>
hou se
enom en
el op</w>
ch u-
bo dies</w>
az uka</w>
asp ect</w>
Mun emori</w>
Mas ashige</w>
Grad u
Develop ment</w>
A re
tal ent</w>
t one</w>
s pot</w>
ru ins</w>
prov isions</w>
prov iding</w>
pre sumed</w>
m oto</w>
for tun
fol k
ch ance</w>
at ake</w>
TSU KA
view ing</w>
kab ane</w>
iy a-
impro ved</w>
gir l</w>
experi ence</w>
ek i-
dep ic
coun ty</w>
char ged</w>
ban ished</w>
aff ili
ab ara</w>
U zum
Serv ice</w>
Sag ano</w>
Ab out</w>
yam a-
tion ally</w>
impro vement</w>
im une</w>
g ami</w>
ey e</w>
ek ata</w>
dissol ved</w>
belong s</w>
attend ant</w>
Yuk i
Uk i
T ri
P reservation</w>
OI SHI</w>
O y
Nik ki</w>
Kit ano</w>
K engyo</w>
Asa hi</w>
A ward</w>
190 7</w>
yam uni</w>
straig ht</w>
se at</w>
sc att
om et
n either</w>
met er</w>
m ally</w>
kok uga</w>
iy aki</w>
imp res
famili ar</w>
conver ted</w>
comm enced</w>
am e
Shoshi inoge</w>
Kyo tan
H undred</w>
Ay abe</w>
189 0</w>
ver s
ographi cal</w>
is ai</w>
in n
im itsu</w>
en forced</w>
dev elop</w>
class es</w>
chi cken</w>
above- mentioned</w>
Y akushi</w>
Tai hei
T oyama</w>
R U</w>
Ku jo</w>
Kaz an</w>
J ish
188 1</w>
su it</w>
sh aku
ph enomen
pe ac
pass age</w>
mon me</w>
los ing</w>
k oj
im ag
hi ll</w>
h alls</w>
exp ensive</w>
doll s</w>
co ast</w>
clai m</w>
R an
P ic
Nen butsu</w>
N H
16 th</w>
techn ology</w>
prin ting</w>
lead ers</w>
in ate</w>
for ward</w>
ent ing</w>
dest ro
decor ative</w>
aw n</w>
ap prent
ach es</w>
Yas un
Reg ion</w>
I sl
7 9
200 1</w>
ste p</w>
squ ad</w>
reg ime</w>
magaz ine</w>
lic ense</w>
li st
g olden</w>
exp ansion</w>
deliv ered</w>
day time</w>
ath emat
Wh at</w>
T TA</w>
N ew
Bic chu</w>
st ret
re forms</w>
precinc t</w>
jud ge</w>
inv ented</w>
conven tional</w>
bur ning</w>
ai- fu</w>
Yorim ichi</w>
Yam azaki</w>
TANA BE</w>
NH K</w>
J e
Gyoku yo</w>
B on
soy -
res our
reg ardless</w>
re ar</w>
rat io</w>
my st
j ing
g ets</w>
entit led</w>
characteri zed</w>
cand id
bro ad</w>
at mos
W e</w>
Sh oj
SA KA</w>
KO JI</w>
KO BA
F il
we ak</w>
susp ended</w>
ob tain</w>
k um
k new</w>
interpre ted</w>
if ying</w>
g ain</w>
em ies</w>
cl usion</w>
Og ura</w>
Kam o-gawa</w>
. C.</w>
s ci
ro polit
nen butsu</w>
m ut
k as
ichi -
fl at</w>
favor ite</w>
en ware</w>
dec oration</w>
crimin al</w>
c e
am achi-dori</w>
a- mura</w>
Tot omi</w>
R em
In it
sun omiya</w>
ropolit an</w>
per formers</w>
loc omo
in ori</w>
gun s</w>
fe eling</w>
confron tation</w>
class ification</w>
U .
Shi t
MA KI
KA NO</w>
Hachiman- gu</w>
Ger many</w>
Daz aifu</w>
Daig o-ji</w>
Com man
Aw aji</w>
118 0</w>
trav eled</w>
to ji</w>
su s</w>
retre ated</w>
rec ru
pseud onym</w>
pro mul
l an
kar ate</w>
ig e</w>
an ao</w>
Pe ers</w>
N E</w>
Dai jo</w>
u y
pur poses</w>
prec epts</w>
m ous</w>
inspec tor</w>
i- gun</w>
fe el</w>
equip ped</w>
en emies</w>
depri ved</w>
cour tes
bo t</w>
b ak
appro x</w>
U shi
Suk e
R ai
P ain
Nai shi</w>
Na omasa</w>
Kan ze</w>
Ex am
Eng land</w>
D ef
A RI
y le</w>
sev ere</w>
sepp uku</w>
sei i</w>
s ok
restor e</w>
ong en</w>
new s</w>
fi sh
ext ent</w>
em une</w>
d well
correc t</w>
b er
adul t</w>
E lementary</w>
Dait oku-ji</w>
C ou
twel fth</w>
horiz on
gradu ated</w>
fund am
cov ers</w>
b loc
anno unc
S even</w>
Ik oma</w>
IMA GAWA</w>
E cchu</w>
wr apped</w>
with drew</w>
shor yo</w>
sh ak
s ango</w>
ph ot
og in</w>
moun tain
jo shu</w>
j or
iz ane</w>
honor ific</w>
gro wn</w>
ag ata</w>
Shogo inoge</w>
Shi ten
Pri v
P op
3 ,000</w>
12 9
tax i</w>
sw it
sub i</w>
pl eas
ment ary</w>
hou r</w>
grow th</w>
dam aged</w>
bet r
at to</w>
acqu ired</w>
ac le</w>
Y atsu
T aro</w>
S O</w>
Nin n
Mur aji</w>
MI URA</w>
Hachim an</w>
H ino</w>
Am id
ASA NO</w>
zen -ji</w>
yok o</w>
stat ing</w>
separ ation</w>
se l</w>
recogn ition</w>
promul g
od es</w>
ic i
e- jo</w>
cre ating</w>
add itionally</w>
Tachi bana</w>
Kitak inki</w>
Kag ekatsu</w>
Hik aru</w>
Han azono</w>
HI NO</w>
Chiku zen</w>
BA TA</w>
A son</w>
struc tures</w>
strateg y</w>
situ ations</w>
sec l
scrip t</w>
s ightseeing</w>
ri ed</w>
preserv ation</w>
overthro w</w>
o- no-
newsp aper</w>
mar ry</w>
isc al</w>
half- brother</w>
explan ation</w>
el ected</w>
cop ied</w>
b iwa</w>
atmos phere</w>
appear ing</w>
Yorim asa</w>
Sakur ai</w>
Nak ag
Ho t</w>
Hisa hide</w>
H oj
Daz ai-fu</w>
19 18</w>
187 7</w>
y ellow</w>
sleev es</w>
res ign
particip ate</w>
par al
on omiya</w>
mis es</w>
mess age</w>
hol e-shaped</w>
h in
ep tion</w>
confisc ated</w>
con st
ban qu
Yan ag
Sum itomo</w>
KATSU RA</w>
E ra</w>
B ay</w>
view ed</w>
u hito</w>
stric tly</w>
resp ected</w>
pay ment</w>
oppon ent</w>
mov ies</w>
maj ority</w>
k on</w>
in ations</w>
hand le</w>
g i
elev enth</w>
cl ou
chim ikado</w>
celebr ate</w>
Represent atives</w>
Od awara</w>
198 7</w>
1 12
trig g
tog e</w>
te am</w>
syll ab
spec ifically</w>
sp ots</w>
ron om
ref ined</w>
pri me</w>
or ing</w>
int en
harv est</w>
cot ton</w>
att acks</w>
P ublic</w>
Kei fuku</w>
KI YO
G OTO</w>
Curr ently</w>
6 -
187 6</w>
un like</w>
un k</w>
stat es
p ing</w>
oy al</w>
earth enware</w>
distingu ish</w>
comman ders</w>
brig ade</w>
an jo</w>
am a-cho</w>
ai red</w>
Sin o-Japanese</w>
Shi b
S up
Kawar amachi</w>
KA I</w>
E izan</w>
Be ing</w>
Atsu t
An n
After wards</w>
8 -
4 00</w>
w ives</w>
sup press</w>
suff icient</w>
sm oo
shi fted</w>
separ ately</w>
rum or</w>
ro ot</w>
int ell
im it
gu ests</w>
ef ul
de pl
bro th</w>
b ringing</w>
Nan iwa</w>
Hor ikawa</w>
5 ,000</w>
1 10
- like</w>
we t</w>
ub a</w>
suppres sed</w>
s ar
promot e</w>
mob il
f alls</w>
conven ience</w>
ca using</w>
a its</w>
Shochi ku</w>
Rus so-
O no</w>
Ku w
K oto</w>
K eg
Daijo- daijin</w>
6 0
y aku
ik uni</w>
em e</w>
early- modern</w>
construc t</w>
celebr ation</w>
birth place</w>
ast ronom
as es</w>
ad ap
ac hiro</w>
Suk e</w>
NI TTA</w>
Gun ma</w>
Def ense</w>
Am ag
spe ec
sour ces</w>
soldi er</w>
re d
rar ely</w>
r enga</w>
pub lication</w>
por k</w>
ob serv
me al</w>
let s</w>
gr at
func tions</w>
fin ance</w>
experi enced</w>
er ings</w>
cill or</w>
ch ok
ai m</w>
Sei mei</w>
S ojo</w>
Per son
H ome</w>
Fushim inomiya</w>
Daj okan</w>
Chu jo</w>
Acc ord
6 9
z an
ul tim
tend ency</w>
swe et
s ojo</w>
s al</w>
r ors</w>
pat ernal</w>
p ure</w>
ok an
le x</w>
in stitu
i shu</w>
gener ated</w>
ar m</w>
a g</w>
Yaw ata</w>
Yam ada</w>
Tam e
Con c
Col or</w>
Chug oku</w>
tri al</w>
ti les</w>
rem n
recomm endation</w>
pre p
pe t</w>
p it
e el</w>
dipl om
bu k
al ization</w>
Yorim ori</w>
Stat ue</w>
Si x</w>
SH O</w>
Katsum oto</w>
Honno ji</w>
Accord ingly</w>
7 -
z aka</w>
w ant</w>
u- jo</w>
ti er</w>
t ments</w>
res ol
prep are</w>
pe ak</w>
oper ate</w>
govern ance</w>
g ment</w>
fl ow</w>
f ath
ey ard</w>
es oteric</w>
del iver
ch ronic
ac coun
U. S
Tan b
Taihei ki</w>
Su iko</w>
Som e
M atsum
Li eutenant</w>
L ife</w>
ISHI DA</w>
HA YASHI</w>
E ight</w>
D O
186 2</w>
yo in</w>
sei zed</w>
m ay
k a-
jo int</w>
it age</w>
gard ens</w>
four -
butsu -
arri val</w>
Ten shu</w>
Nobut aka</w>
Har un
195 0</w>
transp ort</w>
star ts</w>
sk rit</w>
r ace</w>
f y</w>
comp l
c anc
YANA GI
Shin to
San skrit</w>
Nak atsuk
Dep uty</w>
Contro ller</w>
Com mun
B ut
research ers</w>
re bel
promin ent</w>
pro j
og ami</w>
l otus</w>
iv al</w>
det eri
det ail</w>
be ef</w>
att end</w>
ang ible</w>
ac ity</w>
ab dicated</w>
ab b
Yoshit sugu</w>
Mem orial</w>
K an</w>
Dan juro</w>
Ch ang
Am ago</w>
. ..</w>
work ers</w>
str ict</w>
sp rings</w>
soy- sauce</w>
qu e</w>
pro clamation</w>
j un</w>
it em</w>
ho ly</w>
dar k</w>
crit ical</w>
after wards</w>
ab sol
Yasut oki</w>
W AMURA</w>
V ar
S oj
N ig
Kor e
Kag etoki</w>
Brit ish</w>
4 .
wor ld
view point</w>
ug en</w>
thin king</w>
t all</w>
ri ding</w>
j iri</w>
i ji</w>
holid ays</w>
for b
collap se</w>
b ai
attend ants</w>
am ochi</w>
a yo</w>
P res
Om ikami</w>
Ok ura</w>
Nor iyori</w>
Nor it
Mand okoro</w>
Ki yot
H om
Atag o-
19 10</w>
118 5</w>
yi elds</w>
tribu te</w>
th or
t act
spirit ual</w>
shi t
pur ple</w>
p age</w>
hom et
contain er</w>
con serv
chair man</w>
cer am
be ings</w>
b oku</w>
awa- dori</w>
aut onom
V ic
Um ako</w>
Treas ures</w>
Tr ain</w>
T ea</w>
Russo- Japanese</w>
Mar u
MAKI NO</w>
A suk
19 29</w>
tu ary</w>
sh uk
l od
ich in
en- do</w>
cri me</w>
cre di
compos ition</w>
Un like</w>
Tr ad
Su i</w>
Ren nyo</w>
Naga oka</w>
M r
K imi</w>
Ju stice</w>
B ur
194 9</w>
19 26</w>
th ly</w>
tell s</w>
subordin ate</w>
sal ary</w>
oc ation</w>
min or</w>
man sion</w>
li fied</w>
l ements</w>
key hole-shaped</w>
j ing</w>
ir u</w>
g in</w>
fo ster</w>
aristocr ats</w>
ad mitted</w>
activ ity</w>
T engu</w>
P ub
G og
D ai</w>
189 5</w>
188 2</w>
s earch</w>
re ally</w>
prog ress</w>
inu shi</w>
far m</w>
eff ects</w>
architec tural</w>
ar ose</w>
ag ency</w>
Takak age</w>
SU ZUKI</w>
P i
Miy ake</w>
Har u
Agricul ture</w>
2 ,
tat ami</w>
syll ables</w>
sy mp
spe aking</w>
sk ir
s ending</w>
ou ji</w>
m athemat
e es</w>
at e
accompan ying</w>
Sho en</w>
Shim ane</w>
Shak yamuni</w>
Reg arding</w>
On ce</w>
J U
Int erior</w>
187 4</w>
sl iding</w>
se em</w>
om ei</w>
master less</w>
hib ition</w>
f ud
ed om</w>
chi g
Tok uso</w>
To shin
S acred</w>
KA KU</w>
E k
19 11</w>
ul sion</w>
tic kets</w>
stit utes</w>
st ic</w>
s atsu</w>
ro be</w>
re present</w>
quest ion
per former</w>
fail ure</w>
f udai</w>
encour aged</w>
e ums</w>
describ ing</w>
del ic
cost umes</w>
brew eries</w>
ad es</w>
Takam ori</w>
TSU CHI
Sh ojo</w>
P ort
Gradu ate</w>
8 9
scatt ered</w>
regul ation</w>
re ly</w>
of usa</w>
kan- ke</w>
ex it</w>
al ities</w>
ail ing</w>
a hime</w>
Y ears</w>
SA I</w>
Prin ces</w>
O ji</w>
Lib eral</w>
J o</w>
H oki</w>
E igh
Chap ter</w>
B ar
6 00</w>
194 7</w>
187 5</w>
z ai
so il</w>
rem ov
oshi yori</w>
o es</w>
no suke</w>
los s</w>
ig aku</w>
hi tsu</w>
guar an
gath ering</w>
fal se</w>
excep tion</w>
ear ed</w>
c esses</w>
att acking</w>
Yor iyuki</w>
RO K
No t</w>
In d
I enari</w>
Cou p</w>
199 9</w>
1 000</w>
vol un
virt ually</w>
ste am</w>
mission ary</w>
m .</w>
inj ured</w>
g one</w>
fab ric</w>
e- no-
cros s</w>
bl ind</w>
ZU MI</w>
WA DA</w>
U ME
Ten no
S oz
OT A
Govern or-
F re
Comman der</w>
war s</w>
v ana</w>
trigg ered</w>
thoug h
station ed</w>
qu i
om ichi</w>
mar ked</w>
k od
hun g</w>
gam es</w>
et ings</w>
cultiv ated</w>
ain t</w>
Shi rak
SU GI
Reg ent</w>
ROK KAKU</w>
Po ets</w>
Nob ushige</w>
199 6</w>
199 0</w>
tsuk asa</w>
sp on
sof t</w>
season al</w>
ry ori</w>
pro -
pres sed</w>
n al</w>
mun icip
he at</w>
gr ain</w>
dre am</w>
c am
ac cur
a fu</w>
Tai shi</w>
Shim ous
P r
Moton ari</w>
Kei han
H izen</w>
BA TAKE</w>
198 9</w>
188 5</w>
ur al</w>
umul i</w>
sec ure</w>
s es
r ain
pl ease</w>
out standing</w>
j iki</w>
honor ary</w>
hand led</w>
fre ight</w>
er- in-
ent ers</w>
engr aved</w>
circul ar</w>
chi ken</w>
b ath
as hig
ac id</w>
Z E
WA TANABE</w>
Tok imasa</w>
S utoku</w>
S aburo</w>
On na</w>
Nor inaga</w>
Nag ato</w>
Hig her</w>
He av
G ar
194 6</w>
uk i-
sent ence</w>
mon op
lead ership</w>
is l
ir vana</w>
institu tions</w>
hou sing</w>
conqu est</w>
anc y</w>
am ono</w>
ak yo</w>
ak ur
ad min
Var ious</w>
Transp ortation</w>
Suk er
Ord inance</w>
J ud
Hiro bumi</w>
Ear ly</w>
B ri
B ingo</w>
Are a</w>
w o</w>
timet able</w>
ten ance</w>
s par
oh ara</w>
negoti ation</w>
ne g
l ore</w>
istr ation</w>
is him
exten sion</w>
den ied</w>
con sec
comman d
comm od
c ut
adv ice</w>
a c</w>
YAMA GATA</w>
TSUKA SA</w>
Shik i
S cen
Okun inushi</w>
Ma hay
M ibu</w>
Kan p
K ebiishi</w>
G ang
sum e</w>
shin -ji</w>
s am
passeng er</w>
n y
homet own</w>
fri ends</w>
am ing</w>
am es</w>
air i</w>
Shin bun</w>
Mahay ana</w>
Kok en</w>
Ben kei</w>
B .C.</w>
AKA MATSU</w>
199 3</w>
z an-
to yo</w>
serv es</w>
s ick</w>
resp ective</w>
repe ated</w>
pre mises</w>
on sen</w>
leg s</w>
hor se
hon zon</w>
gar ment</w>
fr ame</w>
f ro
every day</w>
elev ated</w>
ap art</w>
ang ry</w>
T eng
S usan
S oseki</w>
S ah
R ev
O hara</w>
Ko ho</w>
I II</w>
Ari sug
s ave</w>
multi ple</w>
mo di
minist ers</w>
man ship</w>
luc k</w>
l asted</w>
individ uals</w>
independ ence</w>
i- dera</w>
h em
go sho</w>
exclus ively</w>
est ates</w>
equip ment</w>
diam eter</w>
cou p</w>
contemp orary</w>
comp licated</w>
ch en</w>
cap it
bas in</w>
ban ned</w>
Treas ury</w>
Tokit ada</w>
Tak ayoshi</w>
T end
Suker oku</w>
SAKA MOTO</w>
Mon jo</w>
Kom ei</w>
Honno -ji</w>
Heijo- kyo</w>
Hat ak
Eng ineering</w>
wal king</w>
ushi ki</w>
ste ward</w>
stat ement</w>
st -
season ing</w>
re conc
pos edly</w>
manufac tured</w>
man age</w>
l ots</w>
if une</w>
hol der</w>
conv ey
ancell or</w>
W ei</w>
SA TO</w>
P A
Miy agi</w>
Keihan shin</w>
Isl ands</w>
G eng
6 72</w>
u d</w>
th ous
son -in-law</w>
shi r
paral le
paralle l</w>
mis cellaneous</w>
m ok
lit ers</w>
ho le</w>
continu es</w>
conc ret
Tad amasa</w>
San n
S ite</w>
O ki</w>
Man chur
MI KADO</w>
L eg
Hon cho</w>
Coun selor</w>
B iw
wr ong</w>
troub le</w>
s and</w>
pup pet</w>
og ue</w>
mor eover</w>
k ings</w>
industri al</w>
great est</w>
f iscal</w>
ext rem
ex changed</w>
en g</w>
eful ly</w>
dem anded</w>
Yoshi akira</w>
Wak oku</w>
T ag
Shim on
P ond</w>
Har umoto</w>
Gu ard</w>
Ceremon y</w>
yo sho</w>
un usual</w>
s aved</w>
prin ts</w>
leg ends</w>
l der</w>
in ser
hi er
evalu ated</w>
el ings</w>
cop ies</w>
be ar
ad jacent</w>
a shes</w>
Ten sho</w>
TAKA TSUKASA</w>
O YAMA</w>
Katsu yori</w>
Hon do</w>
G AMI</w>
wh ale</w>
w ed</w>
train -
thir ty</w>
seri ously</w>
sem i-
phys ical</w>
or oku</w>
ment ion</w>
j ok
im il
exp ulsion</w>
enc ies</w>
ed eration</w>
e ed</w>
contro lling</w>
bi ography</w>
ay am
at e-
admin istered</w>
achi y
Tom on
S us
Le aves</w>
KITA BATAKE</w>
J it
G U
Bet to</w>
199 8</w>
17 th</w>
un a</w>
tour ist</w>
suff ering</w>
sh un
reg n
o ch
mod eled</w>
min ted</w>
loy al</w>
l av
init ial</w>
in formed</w>
gro w</w>
exec ution</w>
ess ing</w>
ess ential</w>
er ated</w>
det ached</w>
comp lex</w>
bir d</w>
assum e</w>
a hito</w>
S il
N aval</w>
Mit sum
Kom yo</w>
Kan o</w>
In oue</w>
Gak ko</w>
20 ,000</w>
194 3</w>
19 00</w>
- jinja</w>
suppres sion</w>
sh ell</w>
mach ine</w>
kan rei</w>
k er</w>
instruc tion</w>
g agaku</w>
ch est
cap ture</w>
c ub
big gest</w>
b rid
av erage</w>
Tok i</w>
Tad azane</w>
Sum iyoshi</w>
Sar ugaku</w>
Sai goku</w>
D okyo</w>
188 6</w>
18 th</w>
t ell</w>
str aw</w>
o u</w>
n engu</w>
m o</w>
l it</w>
ist ers</w>
gr ass</w>
en shrines</w>
disp utes</w>
conqu ered</w>
b acked</w>
aristocr acy</w>
Takar azuka</w>
Tak e</w>
Sai in</w>
Om i-
O ut
O GI
Nijo- jo</w>
Bo oks</w>
B ir
y ear
w ild</w>
su spec
retre at</w>
rep air</w>
re stric
re h
manag ing</w>
instruc tor</w>
house holds</w>
four teenth</w>
ext inc
exper t</w>
cou ldn</w>
bureaucr ats</w>
ar rest</w>
ap par
U su
Sh uk
Sei wa</w>
SA KU
S ake</w>
Moron ao</w>
Hatak eyama</w>
HON DA</w>
Ger man</w>
Ex hibition</w>
189 7</w>
saf ety</w>
pos it
ol d-
mer ely</w>
h yo
en shrine</w>
deep -
cont act</w>
collec tions</w>
aku ji</w>
ad d</w>
acc umul
Y ang</w>
Tak an
Nit ta</w>
Ke ishin</w>
Kan azawa</w>
G ofuk
Bri ef</w>
B E
Ap pointed</w>
ASA KURA</w>
vis its</w>
th es
sup posedly</w>
pro pag
p ir
os u</w>
m iyatsuko</w>
it or</w>
id ai</w>
fe elings</w>
every thing</w>
br ush</w>
as pec
S an</w>
On jo-ji</w>
Kyotan abe</w>
Kono efu</w>
Hak us
For mer</w>
197 0</w>
19 12</w>
188 7</w>
ur i-
tri but
ti g
t ast
speci alized</w>
ro ll</w>
resign ation</w>
pot tery</w>
pill ars</w>
lun ch</w>
lay out</w>
j ime</w>
iri -
de emed</w>
de ed</w>
cav al
ca p</w>
battle field</w>
aspec ts</w>
achiev e</w>
YA SU
Tei ka</w>
T et
MATSU NAGA</w>
Kiyom asa</w>
Katsu ie</w>
I chim
HO RI
D ance</w>
189 1</w>
z ama</w>
sp ite</w>
scen ery</w>
pr aying</w>
plan ted</w>
oug h
origin s</w>
or ts</w>
kag ura</w>
in ary</w>
expl o
dor mit
cl e
as ak
U.S .</w>
To ei</w>
T eac
Shimous a</w>
Sev enth</w>
Onmyo do</w>
O h
9 0
188 8</w>
weap on</w>
wat er
univer sities</w>
um asa</w>
them e</w>
surv iving</w>
st ages</w>
spe ople</w>
se aw
ri m
own ers</w>
it ama</w>
im ina</w>
h op
excav ation</w>
con stitution</w>
c ed
ai ming</w>
a ichi</w>
Y uki</w>
U pon</w>
Ta o
Mas ayuki</w>
M ok
KI NO
J us
HI RO
Gom iz
y uk
we ek
ur ies</w>
ul ations</w>
tsu ji</w>
trav eling</w>
stip ulated</w>
speec h</w>
sel ection</w>
p on
mot su</w>
man ju</w>
ishi -
in -ji</w>
horse back</w>
h achi
gif t</w>
fund s</w>
fo ot
ek ing</w>
comm entary</w>
cap acity</w>
be l</w>
b atsu</w>
add ress</w>
ab bot</w>
Sad ak
SAKA I</w>
Ninn a-ji</w>
Nan to</w>
Kit a-
Daig aku-
3 0
199 5</w>
syll able</w>
sud den</w>
rec ip
pro mis
plan ning</w>
mon in</w>
hand ling</w>
estern -style</w>
best owed</w>
author ities</w>
an al
P ass
Na ot
Me di
L u
L ike</w>
Kong o</w>
Gen ko</w>
Fil m</w>
C are
ur u</w>
stit uted</w>
speci alty</w>
spec ies</w>
sp ear</w>
seas ons</w>
remar k
pup il</w>
om oto</w>
oku in</w>
lacqu ered</w>
k uro
en forcement</w>
e ived</w>
difficul ty</w>
depar ture</w>
commission er</w>
collec ting</w>
arti sts</w>
arm ies</w>
affili ated</w>
Yoshi chika</w>
Tada oki</w>
R yo</w>
Mon on
Kan sei</w>
Jo i</w>
Hy uga</w>
Ceremon ial</w>
A ge</w>
19 25</w>
un g</w>
tot ally</w>
sugg est</w>
strugg le</w>
remn ants</w>
rec tang
pre ached</w>
od ori</w>
mid- Heian</w>
med itation</w>
main stream</w>
k not</w>
is lands</w>
ingredi ent</w>
ide as</w>
design s</w>
bir ds</w>
ag s</w>
Pe ace</w>
Ko z
J ig
Ind ustri
199 4</w>
118 4</w>
t ext
step s</w>
sk ill</w>
ri vers</w>
nyo go</w>
ek iyo</w>
d og
appreci ated</w>
ab led</w>
Rit sum
P hi
N ic
Mus ic</w>
Mochi hito</w>
I emochi</w>
Construc tion</w>
Ch ur
19 th</w>
sur pris
subst anti
strength ened</w>
sent enced</w>
resp ond</w>
rem ove</w>
r ush</w>
hou sed</w>
hi e</w>
ferment ation</w>
ei -ji</w>
design ation</w>
ca uses</w>
anu shi</w>
agricul ture</w>
a sh
U ta
T oc
Sen ju</w>
SHI TA</w>
Pop ular</w>
Nag ahama</w>
KI KU
Gok om
Com mentary</w>
198 8</w>
190 4</w>
z en-
t edly</w>
syllab ary</w>
seas oned</w>
ok ed</w>
mar ks</w>
liqu or</w>
g y</w>
g ot
f ai
ex cluding</w>
end er</w>
elec tri
e- kyo</w>
div ination</w>
discus sion</w>
d ough</w>
cris is</w>
contr ary</w>
b ath</w>
an kyo</w>
a house</w>
Yor o</w>
Tai ka</w>
S oto</w>
P re
P le
Kos ei</w>
Kir itsubo</w>
189 6</w>
118 3</w>
vari eties</w>
trans formed</w>
trad itions</w>
s ets</w>
rok u-
pri mary</w>
nor mally</w>
natur ally</w>
king dom</w>
it oku</w>
fall ing</w>
et a</w>
eg gs</w>
ec tions</w>
concret e</w>
char coal</w>
ZA I</w>
Tran s
Tan ab
Tam ak
Rec ently</w>
Pro t
Mov ement</w>
Kon in</w>
Kit a
K ubo</w>
F ine</w>
w it
un t</w>
termin al</w>
reven ge</w>
r ation</w>
occas ionally</w>
nor th-
mon jo</w>
mom ent</w>
jo ining</w>
ing- of-
in ous</w>
illustr ated</w>
ik a</w>
ent ation</w>
el p</w>
d ly</w>
coff ee</w>
ai -ji</w>
Yoshin ari</w>
Ritsum eikan</w>
Nobu katsu</w>
Nak at
Miy ak
Kasug a-
High way</w>
H oku
G oddess</w>
E iga</w>
yam a-jo</w>
w isdom</w>
ti qu
t eg
t ations</w>
sib ly</w>
sho chu</w>
ren ov
proc ession</w>
perman ent</w>
ok ing</w>
o- kyo</w>
no h</w>
govern ments</w>
e up</w>
distinc tion</w>
commun ic
bo ys</w>
az aki-
at uring</w>
arg ument</w>
Ut sunomiya</w>
Tsu chimikado</w>
T sub
T etsu
Sek kan-ke</w>
NA ITO</w>
KI RA</w>
Care er</w>
19 23</w>
19 20</w>
189 9</w>
16 15</w>
u tr
shin o</w>
sh om
ob en</w>
int end
increas ingly</w>
hair style</w>
des ire</w>
cir cles</w>
aut omatic</w>
as uke</w>
Y i</w>
Toc higi</w>
TE I</w>
Susan oo</w>
Sho in</w>
Shi ro
R oju</w>
Person al</w>
NAKA YAMA</w>
Kiyom izu-
Ji ju</w>
J itsu
Iz anagi</w>
In v
H ime</w>
G ir
G ai
D ynasties</w>
Administr ation</w>
190 5</w>
187 8</w>
virt ue</w>
v ered</w>
tr ust</w>
ru ined</w>
rail road</w>
promulg ated</w>
par don
mis sing</w>
li fe
lec tures</w>
koku jin</w>
inc idents</w>
impro ve</w>
i en</w>
for ty-
exp enses</w>
de aling</w>
d ressed</w>
d ig
cil ors</w>
categ ories</w>
b arri
accord ingly</w>
Yaman ashi</w>
W ater</w>
Tad amichi</w>
T ek
SE GAWA</w>
Nik katsu</w>
Mim asaka</w>
J O
H ang
C ha
B or
19 19</w>
186 5</w>
ug u</w>
trad itionally</w>
th ologies</w>
st ar</w>
ram en</w>
mer ger</w>
lead s</w>
ld ers</w>
lay er</w>
l ose</w>
k et
fe aturing</w>
brew ed</w>
as a-
To yo</w>
Shin p
Sane suke</w>
Rel ig
Re forms</w>
M yok
M E</w>
In dian</w>
In ari</w>
Gen pei</w>
D oji</w>
187 9</w>
. m.</w>
var ies</w>
spec tive</w>
ro ku
pos itioned</w>
own ia</w>
mag n
fif ty</w>
f ear</w>
ec tion
e ously</w>
col on
cl ay</w>
aul ownia</w>
ad just
a- do</w>
Toshi zo</w>
Ko yo</w>
INA BA</w>
G oro</w>
Dem achiy
199 1</w>
we ather</w>
satis fied</w>
purch ased</w>
pat ron
origin ates</w>
n atto</w>
lo in
lin ing</w>
k og
int angible</w>
independ ently</w>
im mig
id an</w>
et ary</w>
er as</w>
er als</w>
dec is
con solid
co ast
c arri
bes i
am ent</w>
aj iro</w>
Yoshi ko</w>
W rit
Shog un
Sai gu</w>
M ain
Katsur agi</w>
Iw ate</w>
I pp
D et
200 9</w>
195 5</w>
y om
ug oro</w>
though ts</w>
st rin
res sive</w>
pul led</w>
pill ar</w>
omet ers</w>
nov els</w>
main tenance</w>
inspec tion</w>
h o-
fe e</w>
er ate</w>
en ke</w>
cont est</w>
con sum
compar able</w>
comman ded</w>
assum ing</w>
anecd otes</w>
aku sho</w>
Stud y</w>
Some times</w>
So on</w>
Mas anobu</w>
Kur anosuke</w>
Hat amoto</w>
Ad vis
5 .
196 5</w>
196 0</w>
vineg ar</w>
un oo</w>
th at
sou ls</w>
s car
r af
mak eup</w>
lu x
le an
kan jo</w>
just ice</w>
dest ruc
d er
cont ribution</w>
birth day</w>
b y
Suz aku</w>
Sein an</w>
Mas ayoshi</w>
J iro</w>
Eigh th</w>
Demachiy anagi</w>
Aut umn</w>
194 8</w>
188 0</w>
z ing</w>
v ac
ter n</w>
struc k</w>
sp ired</w>
s om</w>
s ex
p es</w>
mil k</w>
is n</w>
in in</w>
down fall</w>
disci pl
difficul ties</w>
ast ers</w>
an sho</w>
Yug iri</w>
U s
Tob a-
Ten man
TAKA HASHI</w>
Shin sen
Sei shi</w>
Re igen</w>
Ot ok
On i</w>
Mr .</w>
M OTO
Ak it
198 0</w>
y ang</w>
wor th</w>
w in</w>
ti p</w>
ti ll</w>
thir d-
stor age</w>
shar ed</w>
rel ating</w>
r ated</w>
pre -
por table</w>
or al</w>
medi a</w>
kyo gen</w>
k os
ishi ge</w>
inher it
farm er</w>
f umi</w>
f actors</w>
emphas ized</w>
ear ned</w>
cl ub</w>
chan ting</w>
bro wn</w>
bre ak
al ists</w>
ak um
Shi ro</w>
O thers</w>
Ko ji</w>
Kaz un
Com mit
B ound</w>
194 4</w>
190 1</w>
-g umi</w>
un ification</w>
sh aved</w>
re igns</w>
progr ams</w>
pass es</w>
me als</w>
life time</w>
le ather</w>
kil ometers</w>
g ov
extr a
exclus ive</w>
do g</w>
d ances</w>
c eased</w>
bud get</w>
bl ood
appro ach</w>
an try</w>
Th rough</w>
S ection</w>
R ed</w>
OKU MA</w>
Nobu yoshi</w>
Matsu yama</w>
Kor echika</w>
Init ially</w>
I TA
Chin ese-
194 0</w>
19 27</w>
stor ied</w>
som en</w>
ro lled</w>
pris on</w>
loy alty</w>
ic ing</w>
g aining</w>
fundam ental</w>
fu -
fl ag</w>
dom inated</w>
develop ing</w>
deb ate</w>
de eds</w>
clos er</w>
avo ided</w>
add y</w>
Yuk inaga</w>
V er
Ten po</w>
Tei shi</w>
Shim abara</w>
Shigen obu</w>
SHI BATA</w>
S ch
O p
Ko shi</w>
HI JI
19 30</w>
ut aro</w>
town speople</w>
th eless</w>
s ounds</w>
re l</w>
r yoshu</w>
promot ing</w>
pre ad</w>
pr ayed</w>
onom iyaki</w>
o- do</w>
narr ative</w>
jo sho</w>
ion -
inter ests</w>
ich u</w>
i us</w>
ever theless</w>
de dic
concentr ated</w>
ch ain</w>
ang e</w>
and en</w>
aj in</w>
ad m
Y U</w>
Tam eyoshi</w>
Shige hira</w>
Se ig
San jo-
Motot sune</w>
H E
Ban koku</w>
B r
195 1</w>
uc k</w>
rin k
rev ival</w>
repor ts</w>
off erings</w>
o k</w>
n aval</w>
m erit</w>
low est</w>
f it
e shi</w>
depl oy
deliver y</w>
de aths</w>
craftsm en</w>
adop t</w>
Yoshi o</w>
W i
Tsur uga</w>
Ten m
S und
Pro moted</w>
KO GA</w>
KA TSU</w>
Imadeg awa</w>
HIJI KATA</w>
Foun dation</w>
B ish
Ak iko</w>
2 ,000</w>
youn gest</w>
ware house</w>
uk i
u subi</w>
tact ics</w>
t ears</w>
su -
stu dio</w>
si ege</w>
sh are</w>
pri est
mix ture</w>
larg ely</w>
ji uta</w>
invest iture</w>
inherit ance</w>
head ing</w>
gu id
grav eyard</w>
for ests</w>
dis crimin
depic ting</w>
con om
class ic</w>
bes ides</w>
argu ed</w>
a- g
U TSU
Toshim ichi</w>
Shot en</w>
Pri ze</w>
O har
Masa hiro</w>
MATSU MOTO</w>
K ub
I esada</w>
Him emiko</w>
E conom
Commit tee</w>
Buil ding</w>
B re
Am a</w>
190 8</w>
ushi -
sub stitute</w>
sub sid
ric e-
r ural</w>
mar kets</w>
kok yu</w>
ji ju</w>
im achi</w>
hid den</w>
fashi on</w>
exec utive</w>
enshrin ing</w>
en or
du mp
doub t</w>
co at</w>
bo ards</w>
appoin t</w>
a- kofun</w>
a hiko</w>
Techn ology</w>
N oto</w>
Let ters</w>
Kag e
Fu hito</w>
D a
A ct
198 5</w>
v oc
tiqu ette</w>
t ut
t umuli</w>
t ob
particip ants</w>
oun ded</w>
not ice</w>
m at</w>
is an</w>
g .</w>
fif ty-
dr agon</w>
direc tions</w>
crip t</w>
coff in</w>
ay ama-jo</w>
aw anomiya</w>
af raid</w>
Yoshik age</w>
Sai dai
Provinc ial</w>
On myo</w>
N ote</w>
Monon obe</w>
Hos pital</w>
Gomiz unoo</w>
197 2</w>
196 9</w>
vo ice</w>
th od
suspec ted</w>
shou lder</w>
se eking</w>
pain ters</w>
origin ator</w>
medi ation</w>
mand ala</w>
is ing</w>
head ship</w>
han- chiken</w>
f ans</w>
expres sions</w>
et ane</w>
es pread</w>
dri ve</w>
do jo</w>
del eg
con j
compris ed</w>
ay ama-
arri ve</w>
an ok
absor bed</w>
a us
Yoshi yasu</w>
Yam ana</w>
Toyo oka</w>
Tom omi</w>
S ab
O z
O per
Met ropolitan</w>
Kaw an
K aro</w>
Hyak unin</w>
Histor ic</w>
H atsu
En yu</w>
Chur ch</w>
C an
AM A</w>
7 00</w>
wi shed</w>
wh el
s ale</w>
re min
ou n</w>
om achi</w>
is u</w>
im ichi</w>
il legitimate</w>
g ather</w>
fu ji</w>
e di
cub ic</w>
coun ter</w>
ar ly</w>
ai- do</w>
Uzum asa</w>
TO KI</w>
Or gan
Manchur ia</w>
Koy asan</w>
Kag et
K ug
Hot el</w>
HA SHIBA</w>
G ent
Exam ples</w>
C hig
Am e</w>
189 4</w>
186 6</w>
yor yo</w>
wid espread</w>
war m</w>
w ai
tour ists</w>
thre w</w>
t subone</w>
star ch</w>
sing ing</w>
pl e
pardon ed</w>
nur se</w>
n ations</w>
ment -
mal t</w>
k ik
k elp</w>
job s</w>
hon zan</w>
hom yo</w>
gif ts</w>
continu ously</w>
cons ci
con clusion</w>
any thing</w>
Yas ak
Wor ks</w>
W as
Sak amoto</w>
R oyal</w>
Mor ot
Michit aka</w>
KA MO</w>
G olden</w>
Bun ko</w>
y outh</w>
tur ning</w>
tal ented</w>
ri f
reco vered</w>
over whel
n un</w>
jour ney</w>
ik ata</w>
holid ay</w>
grad ed</w>
ex posed</w>
eleg ant</w>
e- gawa</w>
dec ide</w>
clo ister</w>
circul ation</w>
c akes</w>
attrac ted</w>
Yuk ichi</w>
The ory</w>
Sou n</w>
O ita</w>
Mur ak
K ay
J oh
H ag
FU RU
F ederation</w>
197 6</w>
ud ed</w>
trans mitted</w>
t opped</w>
t ended</w>
sp ear
shaku hachi</w>
prov ision</w>
phot ograp
os on</w>
on ing</w>
oh ashi
hi ding</w>
destro y</w>
d anc
contr act</w>
appl ication</w>
Yoshi oki</w>
Yoshi fusa</w>
Y usai</w>
To ji</w>
Miy azaki</w>
Jushi inojo</w>
Hik one</w>
B l
B ei
B O
194 2</w>
usol eums</w>
sp reading</w>
sist ers</w>
simp lified</w>
ru in</w>
reg istration</w>
qu oted</w>
ok onomiyaki</w>
m m</w>
inter section</w>
ing yo</w>
gri lled</w>
gov ern</w>
friend ship</w>
fif teenth</w>
construc ting</w>
be ar</w>
az ura</w>
aw are</w>
att ained</w>
Ten jin</w>
Sum imoto</w>
Son no</w>
Shim bun</w>
Off ic
M ount</w>
Japan -
H iy
H en
E ik
Daig aku</w>
3 0,000</w>
198 6</w>
190 2</w>
vis count</w>
su z
sign s</w>
shi chi</w>
rein forc
proc essed</w>
priv ately</w>
pref ace</w>
oy asu</w>
mun icipal</w>
heav enly</w>
e .
doub le-
dic tionary</w>
coun cillor</w>
cl ean</w>
circul ated</w>
ch or
c rem
anim al</w>
Yoshit ane</w>
Tom ot
Tok ai</w>
Sh us
Port ug
Ob ama</w>
O shik
O GA
Mor it
Mong ol
Medi eval</w>
Ki shi</w>
K yokai</w>
seaw eed</w>
s ama</w>
resour ces</w>
r aku</w>
pri ze</w>
person ality</w>
no tic
no -ji</w>
neighbor hood</w>
kit chen</w>
in o
hand -
gu ide</w>
fath er-
f ast</w>
dom s</w>
div or
commun ication</w>
commit tee</w>
ch op
appe al</w>
V ol</w>
Toshi t
Tak em
Shig etada</w>
Na osuke</w>
Kom achi</w>
Kaz u
Governor- General</w>
F ol
En shu</w>
Bas in</w>
157 3</w>
subjug ation</w>
sl ope</w>
sec hie</w>
s ad
reli ef</w>
quar ter</w>
portr aits</w>
por ted</w>
perf ect</w>
ok imi</w>
m i
j itsu</w>
g o-
enti f
cy cle</w>
busin esses</w>
bes ide</w>
Yoshin aga</w>
Yorit suna</w>
Shim a</w>
SA NA
Par tic
Off icial</w>
Nar it
Med ic
Mar ut
Kot o
Go yo
D on
Az uchi</w>
A j
w ara</w>
ut ing</w>
the tic</w>
teach ers</w>
succe eding</w>
story tell
ro -
real m</w>
re ts</w>
proj ects</w>
ok ai</w>
og re</w>
ma p</w>
hi l
er ted</w>
environ ment</w>
dist urbance</w>
deteri or
coll ective</w>
certi fic
bre aking</w>
br av
b ought</w>
a- jingu</w>
a shed</w>
V is
Sug awara</w>
N um
Med ical</w>
J uro
J ur
Hor ses</w>
HI GA
Conc ern
Con sort</w>
Chi chi
Aman ohashi
Al ong</w>
year -
un certain</w>
tom bs</w>
tai l</w>
re aching</w>
quest ions</w>
pos sibly</w>
p i</w>
p aying</w>
ot ion</w>
no ti
me etings</w>
leg isl
imp ris
gre ater</w>
fur n
foc used</w>
et oshi</w>
es ato</w>
east -
dis emb
cent ering</w>
acc used</w>
Tak atsuki</w>
T subone</w>
Shinto ism</w>
Nobu yori</w>
Kuro da</w>
K ib
Him iko</w>
Hid a</w>
Atago- yama</w>
13 33</w>
train- cars</w>
stor ey</w>
states man</w>
ro ots</w>
pur ification</w>
proced ure</w>
pres sion</w>
pl ans</w>
luc ky</w>
jo int
inc ar
id s</w>
gu arding</w>
ext ending</w>
est y</w>
eng aku</w>
em is
defin ition</w>
d o-
d ata</w>
conqu er</w>
b all
author ized</w>
Tok ushima</w>
Tok a</w>
Ten ri</w>
Nakag yo</w>
Mor osuke</w>
K ait
Jor uri</w>
F ran
Estab lished</w>
Chin ju-
Bish am
An thology</w>
A omori</w>
8 00</w>
7 .
190 3</w>
- -</w>
surv ey
sleev e</w>
signific antly</w>
shi -
medi um</w>
main taining</w>
m ei
kor yo</w>
k ud
in h
fac ulty</w>
e tiquette</w>
d ain
cro w
bure au</w>
bor ro
bo iling</w>
an k
all owing</w>
ak ari</w>
ai shi</w>
Yoshim ura</w>
S HO
P a</w>
NAGA I</w>
Mat sun
Kiyomizu- dera</w>
Fir e</w>
An toku</w>
20 th</w>
194 1</w>
15 0</w>
stu ff
sever ely</w>
secon d-
pow dered</w>
mot ion</w>
jo- in</w>
ing-of- age</w>
i ju</w>
h all
exc e
enor mous</w>
e. g.</w>
deal t</w>
cros sed</w>
c up</w>
aw a-cho</w>
au chi</w>
att ributed</w>
Yoshim ochi</w>
Y at
Tok iyori</w>
SHI NA</w>
SA WARA</w>
R ei</w>
Ple ase</w>
OGA SAWARA</w>
Min ami-
Iw ashim
Hor ik
HA TA</w>
Fuk ei</w>
195 3</w>
worshi ped</w>
v en</w>
un less</w>
tour nam
thir teen</w>
strin ged</w>
po ured</w>
nin et
m ere</w>
k oban</w>
jud gment</w>
it es</w>
it en</w>
impres sion</w>
fi res</w>
doct ors</w>
de pos
ch o-
ai sha</w>
Yoshi shige</w>
U jin
St ory</w>
Set su
SHI KI</w>
Os hima</w>
Om ot
Mochi uji</w>
Kud ara</w>
Kin ema</w>
Ke itai</w>
H og
Gok ur
Ak amatsu</w>
193 2</w>
wat ch</w>
tur ns</w>
prof it</w>
p regn
on able</w>
m iy
k ichi</w>
it ated</w>
ide al</w>
fall en</w>
exhib ited</w>
ex -
earth ed</w>
dem ise</w>
conven ient</w>
con spiracy</w>
comm ent
bro ther
assist ed</w>
as king</w>
ak awa</w>
acc ess
W ang</w>
Tr aining</w>
T un
St yle</w>
Ok ami</w>
O jin</w>
Mik kyo</w>
Is ami</w>
Ik ki</w>
H um
Chinese- style</w>
Az ai</w>
190 6</w>
189 2</w>
yor i
tun nel</w>
t our</w>
su its</w>
pup ils</w>
pr ise</w>
oppos ing</w>
oo p</w>
mut ual</w>
mur der</w>
inv ocation</w>
happ y</w>
h yo</w>
ec han
d oll</w>
confron ted</w>
comm erce</w>
beg un</w>
be at</w>
banqu et</w>
b oom</w>
at ically</w>
aff air</w>
acc ess</w>
ac knowled
Yakushi -ji</w>
Tam etomo</w>
Tak eru</w>
Tak ashima</w>
Miy ako</w>
K oki</w>
Jin ja</w>
Hai han-chiken</w>
158 5</w>
zu i</w>
uni form</w>
ub en</w>
thro wing</w>
thir teenth</w>
shu in</w>
shap es</w>
schedu led</w>
relig ions</w>
prov ides</w>
pro claimed</w>
prin t</w>
pr ices</w>
pick led</w>
oy uki</w>
ot a</w>
n owadays</w>
m in</w>
et ic
em ari</w>
diff ers</w>
comp ound</w>
bo x
bl ack
apprent ice</w>
Yorim itsu</w>
Y us
Shug odai</w>
Prot ection</w>
Nak as
Nak an
Mi ura</w>
HA SHI
G oto</w>
Fuk akusa</w>
D o</w>
5 0
198 1</w>
19 15</w>
yo- ku</w>
trac ted</w>
sh oot</w>
scen ic</w>
roc ks</w>
re bel</w>
phenomen on</w>
oy aki</w>
out bound</w>
ot om
mat ches</w>
hon ored</w>
hard ly</w>
fic tion</w>
dri ven</w>
coun ting</w>
consid erable</w>
con stitutional</w>
commun ities</w>
co pe</w>
c ited</w>
b ers</w>
ar ai</w>
announc ement</w>
Ta Pa</w>
Shin sho</w>
Pi TaPa</w>
Myo jin</w>
Kai do</w>
Kag awa</w>
Gofuk akusa</w>
Fushim i-jo</w>
E hime</w>
C ar
A oi</w>
w ait</w>
us ers</w>
supervis ed</w>
s aki</w>
reduc tion</w>
r hy
mour ning</w>
m as
m achi-
in shu</w>
imp act</w>
fru it</w>
favor able</w>
end ary</w>
em aki</w>
dormit ory</w>
dai ri</w>
dai kon</w>
az uke</w>
ancest ral</w>
an z
Y otsu
W afuku</w>
V ice</w>
Um ay
Shon agon</w>
Produc tions</w>
P ag
Mitsu t
Medic ine</w>
Ky udo</w>
IS SHIKI</w>
Comp let
Bu zen</w>
An sei</w>
Amanohashi date</w>
Amag asaki</w>
199 2</w>
190 9</w>
we alth</w>
thous ands</w>
sh uku</w>
par li
ov en</w>
lab or
l a</w>
intend ent</w>
hier archy</w>
g on
for t</w>
er ary</w>
en er
dep icts</w>
cor rid
comp reh
ch a
ce iling</w>
altern ative</w>
acqu ain
accomp lished</w>
Wak am
UTSU NOMIYA</w>
Tak echi</w>
RA I</w>
Ok azaki</w>
Kashi hara</w>
I tal
Az um
159 0</w>
thes is</w>
se ly</w>
scre ens</w>
pract ically</w>
pleas ure</w>
om aro</w>
min istry</w>
keep er</w>
inter ested</w>
instruc tions</w>
inh erit</w>
ik oto</w>
horizon tal</w>
g a
flo at</w>
extra ordinary</w>
diff er</w>
compar ison</w>
comp ro
boun dary</w>
advis ers</w>
To ho</w>
Sho sho</w>
Shin zei</w>
Myo shin-ji</w>
Miz u
Iz anami</w>
Is shu</w>
Hon zon</w>
Gor yo-
Ak ira</w>
19 24</w>
proce eded</w>
peac eful</w>
or ous</w>
n one</w>
moun ted</w>
ill ow</w>
hun t</w>
h ur
h und
fur thermore</w>
fol ded</w>
est ry</w>
eff ectively</w>
dr af
conf used</w>
com ing-of-age</w>
be half</w>
az uk
atsum i</w>
assemb ly</w>
adop tion</w>
TSU KI</w>
T sum
S imil
Nan zen-ji</w>
MO NO
M ine</w>
In ar
I SE</w>
I NU
Chi ld
C amp</w>
un osuke</w>
tur ers</w>
reli able</w>
no c
myo jin</w>
ma usoleums</w>
m iz
k im
it or
happ iness</w>
eri ous</w>
e enth</w>
dwell ing</w>
cou ple</w>
bu y</w>
ass ign
am ong
Yod o-
Y in</w>
Vill a</w>
Tadat sune</w>
TSU JI</w>
T ofuku-ji</w>
N og
Mong ol</w>
Hei zei</w>
Bro ad
B U</w>
185 8</w>
wood block</w>
u- gawa</w>
treat ies</w>
tax ation</w>
tan eously</w>
sovere ign</w>
s ence</w>
rectang ular</w>
privil eged</w>
ot o-
mor tal</w>
monop ol
magistr ates</w>
inaugur ated</w>
ign ored</w>
idd en</w>
est ion</w>
ear then</w>
dro pped</w>
dis gu
differ enti
cy press</w>
conf idence</w>
con sumption</w>
co very</w>
ba g</w>
ast ically</w>
answ ered</w>
am oun
a- machi</w>
Yoshim ori</w>
Yoshim i</w>
T amur
Pro f
Noh gaku</w>
MO RI
Ko h
Kik ugoro</w>
I tsuk
H ow</w>
G yok
D ok
Concern ing</w>
After ward</w>
6 .
19 13</w>
159 2</w>
was n</w>
us i
un earthed</w>
ter ing</w>
tal k</w>
stab il
shin den</w>
shi te</w>
sanc tuary</w>
refl ected</w>
pref ix</w>
po is
p ion
on- do</w>
ol es
leg endary</w>
l am
ir in</w>
int erior</w>
he ated</w>
exper ts</w>
bow ls</w>
bor e</w>
bel t</w>
ashim oto</w>
Ty pe</w>
Tok imune</w>
Su preme</w>
Shu i</w>
S ports</w>
Orig in</w>
NA KA</w>
Industri al</w>
Ear th
Dain ichi</w>
Biw ako</w>
BA RA</w>
Atsut ane</w>
197 9</w>
193 4</w>
wel com
v ation</w>
u li
tr ained</w>
ti e</w>
sign ature</w>
s ob
per spective</w>
pe l</w>
par ade</w>
od as</w>
numb ered</w>
m es</w>
land -
l ake</w>
ist ics</w>
introduc ing</w>
fl ying</w>
ep ing</w>
entif ic</w>
emon o</w>
el ded</w>
diplom acy</w>
d il
ch ose</w>
ch ant</w>
blos som</w>
act ly</w>
abdic ation</w>
ab us
YAM ASHI
T ur
Sanet aka</w>
Sai gyo</w>
SA WAMURA</w>
S ep
Ok ura-
O- oku</w>
O KI</w>
Moton aga</w>
M ichim
K yok
Jing i</w>
Him eji</w>
Hachim angu</w>
H ol
G ongen</w>
Fud oki</w>
Chi ten</w>
B on</w>
B el
196 8</w>
schedu le</w>
s op
re location</w>
pro per</w>
pol ished</w>
pe pper</w>
oc curr
net work</w>
is es</w>
ir yo</w>
ickn ess</w>
hear ing</w>
govern ment-
en ge</w>
co sts</w>
cle an
am ai</w>
Z ai
Yom ei</w>
U emon</w>
T ath
Sad aie</w>
S aku
P ost</w>
On sen</w>
Nak am
Nag anori</w>
NO KOJI</w>
Kin k
Ho sho</w>
F inance</w>
DA CHI</w>
Char act
CHI BA</w>
B ORI</w>
197 5</w>
welcom ed</w>
um on
ub un
success ors</w>
pursu ed</w>
pro of</w>
pl ates</w>
p hon
ot ani</w>
n ori</w>
n ai</w>
m idd
m aki</w>
im ura</w>
ig awa</w>
h ann
ex cluded</w>
e boshi</w>
dis asters</w>
clim ate</w>
chronic le</w>
be d
ak us
a head</w>
Z hou</w>
Tsur ug
Tadat aka</w>
Shimon oseki</w>
SE RI
On m
OGI MA
N G</w>
Hos so</w>
GA KI</w>
D re
196 6</w>
ure r</w>
tou ch</w>
techn ical</w>
st alls</w>
sh ut
s ashim
s aku</w>
repor tedly</w>
reinforc ements</w>
pub lishing</w>
lim it</w>
in bound</w>
h u
gr ac
fir st-
fic ial</w>
est -
er ably</w>
em i</w>
ek yo</w>
descend ents</w>
ashin o</w>
an do</w>
ak uni</w>
ak ed</w>
ac hig
Tsuk ushi</w>
Shik in
R i
P ilgrimage</w>
Off ices</w>
OTA NI</w>
Kar a
KIKU CHI</w>
K id
I i</w>
Hon jo</w>
Hiro moto</w>
Han a</w>
Fu y
Daigaku- ryo</w>
Acc ess</w>
195 4</w>
14 0
, 00
un ited</w>
ultim ately</w>
tor ii</w>
t ally</w>
sw im
sup ern
sum mon
sh ell
se ek</w>
se eds</w>
s ight</w>
ran t</w>
pro pri
prin cesses</w>
pract ition
per forms</w>
pen alty</w>
on oe</w>
no tion</w>
mach ines</w>
l ying</w>
g os
ff er
expl ains</w>
cour tier</w>
cent uries</w>
caval ry</w>
attemp ts</w>
an thologies</w>
ak ura-
ai de</w>
Son obe</w>
Sh i</w>
Sen n
SHI GE
Ret ain
NO BE</w>
Mi roku</w>
Kon jaku</w>
Ko an</w>
K ings</w>
Iw ami</w>
G E</w>
E ki</w>
D osan</w>
Bor n</w>
B uses</w>
z asu</w>
yag ura</w>
w and
um aru</w>
streng then</w>
stor m</w>
ron in</w>
princi ples</w>
n ishi
ji- jo</w>
ex actly</w>
dis aster</w>
deploy ed</w>
decreas e</w>
crip tion</w>
comp on
aw ard</w>
att ain</w>
answ er</w>
an o
acc ept
Yoshik ane</w>
TSU DA</w>
T im
Shichi jo</w>
Sh oko</w>
R evol
N os
Kok yu</w>
Kat amachi</w>
Kam on</w>
Jun na</w>
I ZE
Dai ei</w>
D ogen</w>
Ch rysanthemum</w>
As akusa</w>
196 3</w>
189 3</w>
v ess
small -
rever ence</w>
restr icted</w>
rap h</w>
r yu-ji</w>
protec ting</w>
polit ician</w>
on a</w>
mon zeki</w>
k iri
ific ations</w>
ib en</w>
foll ower</w>
f ut
exc elled</w>
es el</w>
enti ally</w>
dep th</w>
clos ing</w>
chop sticks</w>
c ord</w>
ang a</w>
advoc ating</w>
a- kaido</w>
W isdom</w>
Tamak azura</w>
Ta x</w>
T ower</w>
Shi z
P ast</w>
Ok uma</w>
NAKA HARA</w>
N umber</w>
193 3</w>
19 22</w>
w inning</w>
w ake</w>
trav el
thro wn</w>
swe ets</w>
suspic ion</w>
sun g</w>
s ear
roof s</w>
ro lling</w>
ri ot</w>
ref lec
pol ishing</w>
pec uli
ordin ance</w>
ochi ka</w>
occup ation</w>
ne eds</w>
nam ing</w>
mo il</w>
k yo-
gran t</w>
father- in-law</w>
enth usi
emer gency</w>
eas ier</w>
e u
dri ving</w>
clai ms</w>
beg in</w>
arri ving</w>
YU KI</w>
Vic e-
Takam atsu</w>
Sho shu</w>
Se to</w>
San eyori</w>
SERI ZAWA</w>
S en</w>
M ay
K en</w>
Jos eon</w>
Hik o
Gos aga</w>
Dai -
under went</w>
str y</w>
sim ul
sh os
s ac
ru shed</w>
p eninsula</w>
oblig ed</w>
nin ja</w>
myst erious</w>
minist ries</w>
invol vement</w>
in qu
ik ai</w>
ic ity</w>
hon jo</w>
hi t
g at
c he</w>
atur al</w>
ast s</w>
abbrevi ated</w>
Shok oku-ji</w>
S oke</w>
S aw
Ot a</w>
Mon ju</w>
M y</w>
Ko fu</w>
K odo</w>
J id
Higashi- Maizuru</w>
Han shin</w>
Em aki</w>
Ch amber</w>
193 5</w>
writ ers</w>
vess els</w>
ver sions</w>
uk u-ji</w>
te ahouse</w>
sp rink
sol ar</w>
so chi</w>
shi chi
rit e</w>
reven ue</w>
prov ed</w>
pan el</w>
on o
nood le</w>
kan paku</w>
k yu
joint ly</w>
ic ha</w>
i emoto</w>
h ers</w>
gre es</w>
gr ains</w>
fu yu</w>
flav ored</w>
et sune</w>
enc ing</w>
de grees</w>
de er</w>
courtes y</w>
con trad
be er</w>
b ows</w>
at ama</w>
ang er</w>
an ism</w>
al ties</w>
ab an</w>
Y aku
WA KA</w>
W ay</w>
T our
Su wa</w>
Shoz o</w>
Shin sen</w>
SANA DA</w>
S ei</w>
R ice</w>
Pic ture</w>
Kun it
KU RO
Jing ikan</w>
J iz
HO RI</w>
F ort
Ed ict</w>
Cl ub</w>
196 7</w>
19 21</w>
19 14</w>
z ation</w>
w on
strong er</w>
spon s
set su
se ki-
ris ing</w>
ran ging</w>
pres ently</w>
on ment</w>
om itted</w>
no bl
n ative</w>
mur dered</w>
manufac turers</w>
m atsu</w>
l ov
int ens
ing er</w>
inf erior</w>
im aro</w>
fact ory</w>
f ron
exp and</w>
ec e</w>
eb all</w>
dr ums</w>
de part</w>
cor ps</w>
cl ock</w>
ceram ic</w>
bur den</w>
as ing</w>
appl ic
ab oko</w>
TOKU DAI
TOKUDAI JI</w>
T ang
Shige ko</w>
SHI BU
S uc
P al
P a
Mor iya</w>
K endo</w>
Iwashim izu</w>
F low
ARA KI</w>
7 01</w>
ure ment</w>
thor ough
te eth</w>
t each</w>
sun o</w>
sh okan</w>
prosper ous</w>
plac ement</w>
p addy</w>
ow ak
n y</w>
n un
mu sh
m ly</w>
industri es</w>
in hab
heav ily</w>
eg es</w>
connec ts</w>
comment aries</w>
ch all
b ayashi</w>
alleg edly</w>
ag eous</w>
W estern-style</w>
Uj imasa</w>
Toki hira</w>
Tath agata</w>
S atur
R yot
Pol it
NAKA GAWA</w>
Kan emichi</w>
Kaget ora</w>
K T
Gos anjo</w>
Con sid
Cl ass</w>
5 0,000</w>
197 4</w>
zur yo</w>
z aki</w>
vehi cles</w>
ti ally</w>
that ched</w>
supp lied</w>
shu i</w>
res sing</w>
prai se</w>
pic ked</w>
ly rics</w>
k oz
hol es</w>
gen ce</w>
friend ly</w>
contro vers
ass ets</w>
as aki-
a unt</w>
W ad
Vi et
P ur
Ob aku</w>
Ne o-
In tangible</w>
Hei ankyo</w>
H ere</w>
Fushim i-
D oj
Chinju- fu</w>
Agricul tural</w>
Administr ative</w>
195 2</w>
viol ent</w>
ub u</w>
sword play</w>
secon dary</w>
pir ates</w>
over ty</w>
ous ness</w>
on ari</w>
ocr atic</w>
ju jutsu</w>
h ope</w>
dis cre
de but</w>
cho ice</w>
bal ance</w>
az uki</w>
appoin ting</w>
altern ate</w>
acc ession</w>
To shi</w>
S word</w>
Roku j
Ret ained</w>
Par is</w>
Orig inal</w>
Nan tan</w>
MONO NOBE</w>
L ist</w>
I tsu
Hir ano</w>
G AM
Ch os
Brit ain</w>
188 3</w>
u ous</w>
ti re</w>
subsid i
star ring</w>
sex ual</w>
rit su</w>
remark able</w>
rad ical</w>
priv at
post -
p ilgri
n ery</w>
men tions</w>
locomo tives</w>
jor uri</w>
iv en</w>
ir ing</w>
inter f
inst all
har mon
h ut</w>
h u</w>
h ana</w>
fre ely</w>
for fe
folk lore</w>
fl ood</w>
ev ed</w>
es sel</w>
elev ision</w>
east- west</w>
e- ryu</w>
continu ing</w>
conf ection
calligrap her</w>
bl ing</w>
appro ached</w>
YA KAWA</w>
Transp ort</w>
Ten p
T od
T ama</w>
St ar
Pres ent</w>
Mon zeki</w>
M iwa</w>
Ku j
Ir uka</w>
Ik ed
Des pite</w>
Christ ians</w>
Child ren</w>
A ne
3 ,
w er</w>
tsu -
trans ition</w>
t est</w>
t ek
rend ered</w>
neg ative</w>
k ido</w>
iz aemon</w>
gr aves</w>
fai th
engr aving</w>
ek uni</w>
ed y</w>
d awn</w>
at i</w>
arti stic</w>
am e-
agon al</w>
To sho-
St anding</w>
Sot an</w>
Sai to</w>
RE IZE
R om
O sumi</w>
K uge</w>
JU JI</w>
J is
I ll
H ashimoto</w>
Doc uments</w>
De pot</w>
Dar uma</w>
Com mand
C re
BA NDO</w>
A NDO</w>
2 1st</w>
198 4</w>
wai st</w>
ud aka</w>
u wa</w>
tur moil</w>
swit ched</w>
surpris ed</w>
shing ura</w>
s killed</w>
reserv ed</w>
prohib ition</w>
ped est
om itsu</w>
mean ings</w>
mathemat ics</w>
inom iyatsuko</w>
in ox</w>
gl ut
fre edom</w>
ferment ed</w>
ey a</w>
dr unk</w>
disemb ow
destruc tion</w>
d iver
cal m</w>
bon ito</w>
bi to</w>
be ads</w>
az uchi</w>
aut om
asc etic
a is</w>
Yoshi hira</w>
Uk ifune</w>
S akura</w>
NAGA O</w>
Ma eda</w>
Loc ation</w>
Kum ano-
KO BORI</w>
J ust</w>
In sei</w>
In c</w>
H ata</w>
E b
Com mission
At sum
Archi ves</w>
197 8</w>
197 1</w>
195 7</w>
tsu ho</w>
short age</w>
sh oyu</w>
ro asted</w>
ri de</w>
rhy th
nec k</w>
ho st
gl ass</w>
fi le</w>
f ying</w>
f air</w>
e ong
dang er</w>
dai kan</w>
clai ming</w>
ch est</w>
capit als</w>
c ave</w>
ar ashi</w>
an abe</w>
ab ilities</w>
a ud
Yoshi toshi</w>
St one</w>
SAN JO
SANJO NISHI</w>
S asaki</w>
S and
Retain ers</w>
REIZE I</w>
Produc tion</w>
Kan ei</w>
KO I
KI DO</w>
Ichin omiya</w>
I etsuna</w>
Earth quake</w>
Daik aku-ji</w>
Cour se</w>
196 4</w>
195 9</w>
193 6</w>
12 21</w>
yo den</w>
y os
tow ers</w>
symp ath
supervis ion</w>
st range</w>
sent ences</w>
pre st
oh aru</w>
n en</w>
mus icians</w>
l ind
in formal</w>
i- gawa</w>
histor ies</w>
gen re</w>
gen puku</w>
g ent</w>
frequ ent</w>
excep tional</w>
evalu ation</w>
et e</w>
ei shi</w>
don ation</w>
d ign
comp ens
co operated</w>
co ok</w>
cat ch</w>
an qu
Yori yoshi</w>
Yor inobu</w>
Tend ai-
T i
Sund ay</w>
Sum mer</w>
P rec
Min ato</w>
Kin mei</w>
Kan pei</w>
Kan ji</w>
KA JUJI</w>
J omei</w>
Ik eda</w>
I etsugu</w>
Hon shu</w>
HASHI MOTO</w>
H u
Goj o-
G ou
G iven</w>
Ch ogin</w>
A DACHI</w>
195 6</w>
115 6</w>
z z
wed ding</w>
v essel</w>
sop hi
se als</w>
ren owned</w>
ran ts</w>
pre text</w>
p ig
oc ks</w>
midd le-
main land</w>
lan tern</w>
hi d</w>
go al</w>
fr ame
f ood
d ynasties</w>
connec tions</w>
ced ar</w>
bureaucr at</w>
beli efs</w>
aus pic
appar ently</w>
ans ai</w>
am aru</w>
a- zukuri</w>
Yas uk
WA KI
Uki yoe</w>
Tsu tsu
Tamur amaro</w>
Scen ic</w>
Sah yoe</w>
S eki</w>
Ryo o</w>
Ori ental</w>
N owadays</w>
MIYA KE</w>
Koku fu</w>
Ko sho</w>
Kam atari</w>
I C</w>
Heav en</w>
Ed o-
E lev
Conf erence</w>
Bet ween</w>
Arit omo</w>
186 0</w>
z ume</w>
six ty-
she et</w>
s manship</w>
s aku
qu is</w>
purch ase</w>
prosper ed</w>
privil eges</w>
p overty</w>
ok ata</w>
ob un
nov el
loin cloth</w>
lish ment</w>
kaz oku</w>
j iku</w>
ir s</w>
ig en
i hon</w>
i be</w>
histor ically</w>
forb idden</w>
fing er</w>
ev e</w>
ens emb
en h
em et
ear ning</w>
div isions</w>
coun selor</w>
chi gyo</w>
candid ate</w>
br and</w>
beg ins</w>
anc ement</w>
ae ological</w>
a b</w>
Yoshi zumi</w>
Yorit sune</w>
Uk on</w>
UME WAKA</w>
Rak ugo</w>
Nag ak
N evertheless</w>
N D
Kat sun
KI K
Hiro shi</w>
Go hojo</w>
G old</w>
F i
Broad casting</w>
12 0</w>
v ary</w>
tex ture</w>
subordin ates</w>
sign al</w>
shar p</w>
ris on</w>
ran e</w>
pot ato</w>
portr ayed</w>
pag odas</w>
ou ts</w>
oth er
meas uring</w>
m yaku</w>
l ion</w>
jud ged</w>
inst ance</w>
in n</w>
i hara</w>
ho shi</w>
frame work</w>
fle et</w>
f it</w>
f illing</w>
f f</w>
ext ant</w>
dist ant</w>
deep- fried</w>
coun ties</w>
cor mor
car p
b ori</w>
b alls</w>
ar a-
ap parent</w>
alleg i
ab sence</w>
TSUCHI MIKADO</w>
Sou theast</w>
Sek kan</w>
Pag oda</w>
O hashi</w>
O NO
Nak a
Kob o</w>
Kei ko</w>
KIK KAWA</w>
Is shiki</w>
In land</w>
Gor yeo</w>
F e
B ugyo</w>
Amen o
z ure</w>
wa shed</w>
var ied</w>
story telling</w>
st ro
sho jo</w>
resid e</w>
rad ish</w>
persu aded</w>
peculi ar</w>
peas ant</w>
ou se</w>
ol ished</w>
o- gun</w>
myo cho</w>
my th</w>
modern ization</w>
li eutenant</w>
li d</w>
k is
issu ing</w>
ik ane</w>
ig uchi</w>
f at</w>
ex tra</w>
er t</w>
en sion</w>
ek ane</w>
def end</w>
cy cl
cur se</w>
cros s-
aw an</w>
ass aul
app ly</w>
an ag
ad ium</w>
Takat oki</w>
Tai fu</w>
T omo</w>
P ower</w>
Mitsu kuni</w>
Kog on</w>
Kam ik
I enobu</w>
Goz an</w>
Ek iben</w>
A ir
yo g
wi shes</w>
val ues</w>
ul l</w>
tro up
thod ox</w>
theat rical</w>
sub way</w>
sashim i</w>
s ozu</w>
reas onable</w>
pres erve</w>
prepar ing</w>
p ac
on ers</w>
occ ur</w>
n an
mir rors</w>
m ol
ig ation</w>
hon -
ho stage</w>
g ent
fe ud</w>
el ment</w>
dram atic</w>
dial ect</w>
decor ations</w>
decis ive</w>
d harma</w>
cour ses</w>
coun cilors</w>
bl oom</w>
be ach</w>
b ones</w>
aw a-jo</w>
ae shi</w>
advis ed</w>
adm ired</w>
a hi
Trad itional</w>
Tak ing</w>
TO RI</w>
TA GAWA</w>
Shi jo-
Sak on</w>
S m
Rok uro</w>
R yok
Priv ate</w>
Onm yoryo</w>
Ok ur
Nagaok akyo</w>
Kot oku</w>
Kit ayama</w>
Kin mochi</w>
KIYO HARA</w>
KINO SHITA</w>
K ido</w>
K ent
I SO
D harma</w>
Cro s
Chu shingura</w>
118 1</w>
z ashi</w>
ure -
tor a</w>
sh into</w>
saf e</w>
s amur
re igned</w>
qui et</w>
qu ant
p referred</w>
nor theast</w>
no on</w>
k ug
ili ation</w>
hem p</w>
h es
emphas is</w>
el even</w>
dy ed</w>
disembow elment</w>
clou ds</w>
ch em
bo arding</w>
bear ing</w>
b or</w>
Yoshin ao</w>
Yoshi hide</w>
U S</w>
Shug endo</w>
Shon ai</w>
Shi shi
Pa ek
N uk
L iving</w>
Kok uga</w>
Ki ri
K ibi</w>
Gun ji</w>
G reg
C al
Al liance</w>
197 3</w>
193 7</w>
y a-
wor se</w>
tal ked</w>
sword sm
subsidi ary</w>
some what</w>
pun itive</w>
on y</w>
lower- ranking</w>
line ages</w>
k iyo</w>
instruc ted</w>
initi ative</w>
ind en</w>
in land</w>
illustr ations</w>
gu il
foc us</w>
ext ernal</w>
eng ine
do shi</w>
di aries</w>
craftsm an</w>
contribu tions</w>
co ol
brew ery</w>
ben to</w>
az ana</w>
astronom y</w>
as sumption</w>
as ide</w>
ai ko</w>
Yur yaku</w>
Yoshit suna</w>
Uj it
Tor u</w>
Tom omasa</w>
Tad amori</w>
T aku
Ris ing</w>
O i</w>
NI KAI
NIKAI DO</w>
N ext</w>
MURA TA</w>
Kik uchi</w>
Kazun omiya</w>
Fu chu</w>
Chik ugo</w>
A som
9 -
197 7</w>
ys is</w>
sou theast</w>
sev ered</w>
ro t
requ i
par tially</w>
ot sub
or ian</w>
nobl em
mu d</w>
m ilit
l ings</w>
katsu don</w>
k oki</w>
ishi w
id ity</w>
ian g</w>
histor ians</w>
hand writing</w>
gor ge
expl ain</w>
earli est</w>
deri ves</w>
cust ody</w>
cr aft</w>
contin ent</w>
br ave</w>
aut a</w>
assist ance</w>
am ine</w>
a ho</w>
Yum iya</w>
Y oun
W e
Tsur ugi</w>
Tim es</w>
S amur
Paek che</w>
Nobu hide</w>
KU MA
KT R</w>
Iw anami</w>
Ik ar
I ki</w>
H aj
An do</w>
198 2</w>
y ukai</w>
wor thy</w>
was abi</w>
w oven</w>
vert ical</w>
sh onin</w>
sci entific</w>
s in</w>
res c
rem ote</w>
quant ity</w>
pre aching</w>
oz ono</w>
oshi ge</w>
ord on</w>
odi ac</w>
mon arch</w>
m ask</w>
kar a
h yak
fif teen</w>
f eared</w>
expres ses</w>
er ity</w>
el abor
du stry</w>
d ust</w>
call s</w>
besi eged</w>
atur ed</w>
any one</w>
aku- in</w>
absol ute</w>
Yasum ori</w>
YO KO
Ten ka</w>
NAKA TOMI</w>
Mor e</w>
L angu
Kob un
Ko shu</w>
In dustry</w>
Ichin otani</w>
HA SEGAWA</w>
Gokom atsu</w>
G uk
E NO
18 0</w>
wor sen
vehi cle</w>
un ion</w>
tig h
thirty- one</w>
st amp</w>
six -
sett lements</w>
sanc tion</w>
real istic</w>
pl us</w>
p t</w>
newsp apers</w>
mix ing</w>
mik oshi</w>
m oku
m echan
lev els</w>
kn ife</w>
is hiro</w>
invol ving</w>
her o</w>
f ly</w>
f actor</w>
ess ive</w>
ep h
el d
eas es</w>
earth quake</w>
conc epts</w>
cl ar
ch rysanthemum</w>
b in
b at
ass ad
ap por
an x
ai s
ai ki</w>
Tsuk ig
T ab
Shin no</w>
S el
Qu ar
Mitsu yoshi</w>
Mar o</w>
Kaw ag
Gok enin</w>
Do yo</w>
B ep
xim um</w>
where upon</w>
u ya</w>
tast es</w>
sub mit</w>
sn ake</w>
rup ted</w>
rein forced</w>
qu est</w>
promis ed</w>
oo th
on wards</w>
on ten</w>
ographi es</w>
og uchi</w>
n ose</w>
m itsu</w>
li mit
lat est</w>
koj itsu</w>
initi ated</w>
in osuke</w>
ik iyo</w>
high way</w>
hi to
he ar</w>
guaran te
exerc ise</w>
distinc tive</w>
con stitu
civil ization</w>
ch -
certi fied</w>
bu ke</w>
bo ats</w>
b act
aw s</w>
after ward</w>
Y ang
U RA
Tak atsuk
TA KI
Sun pu</w>
Shinsen -gumi</w>
San mon</w>
S ci
Res igned</w>
RA DA</w>
O chi
Nar ichika</w>
N irvana</w>
Min at
M aki</w>
Loc ated</w>
His amitsu</w>
Harun obu</w>
Gy oki</w>
A ZAI</w>
195 8</w>
160 1</w>
z uki</w>
wrest lers</w>
t ful</w>
su i-
sol id</w>
sh opping</w>
s aka</w>
p aulownia</w>
ow ns</w>
ok oji</w>
og u</w>
nom inal</w>
ne ed
mo ti
may or</w>
man hood</w>
mak er</w>
inser ted</w>
imp ressed</w>
ili ary</w>
gener als</w>
extinc t</w>
exp ed
every one</w>
emet ery</w>
el ig
el ders</w>
dismis sal</w>
dest ination</w>
d ying</w>
cons ist</w>
conduc ting</w>
compil ing</w>
camp us</w>
b ad
at tire</w>
ast ro
adul ts</w>
Y ASHI
W ada</w>
V al
Tak ashi</w>
Shigen ari</w>
S oshi</w>
R ek
Nag ao</w>
Ko i</w>
Kei o</w>
Karas uma-
KI MURA</w>
Dai bu</w>
D .</w>
Ar ticles</w>
wrest ler</w>
utili zed</w>
t end</w>
struc tural</w>
so le</w>
sl iced</w>
sh oshi
recru ited</w>
pu shed</w>
patri arch</w>
mai den</w>
k aku-
jud ging</w>
histor ian</w>
gr ap
gen -
fo x</w>
f ill</w>
all -
ag ent</w>
accoun ts</w>
Yoshik atsu</w>
Yoshi suke</w>
Ru le</w>
Pro g
Kyo -
Ko bun</w>
Kaw ab
Katsur a-gawa</w>
Her itage</w>
HIGA SHI
En chin</w>
Commission er</w>
yo- in</w>
tr ay</w>
tex tile</w>
sophi stic
shin ko</w>
sev en-
s oku
ro pe</w>
requ ires</w>
re sumed</w>
pre war</w>
over l
os aki</w>
on ori</w>
m asu</w>
kos ode</w>
ke shu</w>
in fl
im oku</w>
ge ographical</w>
el se</w>
dr astically</w>
d owager</w>
con cer
common ers</w>
certific ate</w>
ay al</w>
aw ak
a ok
Ume da</w>
Tak en
Sen ke</w>
San zan</w>
S oku
Pro gr
Ny udo</w>
KOBA YAKAWA</w>
J i</w>
Ill ustr
Goyo zei</w>
Gou da</w>
Fam ous</w>
F lower</w>
C ordon</w>
Azuchi- jo</w>
159 8</w>
z hou</w>
ver ses</w>
u- no-
u- kyo</w>
u jo</w>
thre at
s po
ro g
remov ing</w>
reco ver</w>
pregn ant</w>
on ushi</w>
north- south</w>
myo ji</w>
mountain ous</w>
leg ally</w>
intro duce</w>
hat to</w>
for em
dist ur
descend ent</w>
depar tments</w>
crimin als</w>
conn ect</w>
chan ted</w>
car efully</w>
av il
autonom y</w>
ad vert
abus ame</w>
a hi</w>
Usu ally</w>
Tsune hisa</w>
Tai sei</w>
T AMURA</w>
Suz uki</w>
Shi j
Sh odo</w>
S culp
M achi
Kog o</w>
Kei shi</w>
Hon maru</w>
H oshi</w>
H att
Greg orian</w>
Coun try</w>
A ir</w>
A inu</w>
A bur
196 2</w>
196 1</w>
19 17</w>
wor ried</w>
weak ened</w>
us an</w>
um p</w>
tri ang
summon ed</w>
res ign</w>
r yok
pract icing</w>
no tation</w>
necess ity</w>
mon ast
k uji</w>
k oshi</w>
intell ect
ic ked</w>
han g</w>
flo ating</w>
eb i</w>
chec k</w>
associ ate</w>
ashi r
allegi ance</w>
ag ashi</w>
adop tive</w>
Yoshi kata</w>
Tun nel</w>
Tsug aru</w>
Shos oin</w>
Shi bu
S overe
O ban</w>
New sp
NU MA</w>
N izaemon</w>
Min eyama</w>
Kyo ho</w>
In formation</w>
Hy aku
H agi</w>
Gog ur
B uke</w>
4 0
193 9</w>
x iliary</w>
w arm
ten s</w>
ste ep</w>
simul taneously</w>
sh ad
sen ti
secl usion</w>
ref uge</w>
ou chi-
ot o
origin ating</w>
oc k
o on</w>
jin ya</w>
in ata</w>
i ents</w>
gr ud
extrem e</w>
explo its</w>
eigh t-
def ensive</w>
dang erous</w>
conf er
aw ari</w>
ashig aru</w>
among st</w>
Yon ez
YAMA UCHI</w>
YAMA GUCHI</w>
U w
Tan aka</w>
TO MI
St or
Soz en</w>
Sh od
San ada</w>
SHI M
S ob
S appor
R oshi</w>
Partic ularly</w>
NI N</w>
Mon mu</w>
Matsu e</w>
MI TSU
Kus ak
King doms</w>
Kashiw agi</w>
Kan jo</w>
Kam in
KA JI
Gogur yeo</w>
E lders</w>
Cor ps</w>
C all
Bei jing</w>
At ago</w>
As s
v ast</w>
umb rel
um en</w>
trans cribed</w>
t ask</w>
skir t</w>
shin shi</w>
s h</w>
reg ularly</w>
pro mp
prev ented</w>
pres cribed</w>
ph ase</w>
oj iro</w>
mem or
li b
k iri</w>
k ers</w>
j odai</w>
if f</w>
ichi jo</w>
him aro</w>
fir m</w>
fe atured</w>
ess ence</w>
en sho</w>
eld erly</w>
depar ting</w>
cy lind
at -
aristocr atic</w>
acc ident</w>
abbrevi ation</w>
V ow</w>
Uji- gawa</w>
Tw ent
Tsuk asa</w>
Sum iy
Shor oku
Sh obo</w>
S on</w>
Nyo go</w>
Mur ashige</w>
Kok aku</w>
Kit ashi
KOBA YASHI</w>
Jo yo</w>
Ishi yam
Hok o-ji</w>
Goz oku</w>
Fu jin
D or
Class ics</w>
Buil t</w>
Asom i</w>
AM I
wr apping</w>
v ig
t ac
surv ive</w>
sophistic ated</w>
sm ell</w>
sequ ence</w>
proc essing</w>
p apers</w>
or acle</w>
mor al</w>
modi fied</w>
m aid</w>
lean ings</w>
ju mp
grat itude</w>
fort ress</w>
f ate</w>
del ib
custom ary</w>
cro ps</w>
car eful</w>
at ag
aj u</w>
acknowled ged</w>
YAMA ZAKI</w>
W a
Tenno ji</w>
T it
Sus ano</w>
St aff</w>
Sho ichii</w>
Pub lishing</w>
Organ ization</w>
NI WA</w>
N om
Kuw ana</w>
Kiz ugawa</w>
KU TSUKI</w>
Ju ei</w>
It agaki</w>
Han n
Chichi bu</w>
Bun ka</w>
193 8</w>
117 9</w>
v end
t ent
sub- temple</w>
stor e
st ance</w>
soy beans</w>
sol ely</w>
smoo th</w>
sec ured</w>
s li
represent atives</w>
rep aired</w>
re assigned</w>
prot est</w>
pro ve</w>
pat ron</w>
ocr acy</w>
n am</w>
multi -
le f
kaz e</w>
j iz
inaugur ation</w>
hai kai</w>
h oll
h ob
h et
guid ance</w>
fu suma</w>
fe et</w>
enti rely</w>
dro ve</w>
dro p</w>
direc tors</w>
d ur
co ated</w>
busin ess
be aten</w>
bath ing</w>
b ru
az o</w>
adop ting</w>
adap ted</w>
ad mir
a e-
Vi ew
Tom iko</w>
Tak ako</w>
Su e
Sad anobu</w>
S oji</w>
S ach
Onmyo ji</w>
O chi</w>
Michi chika</w>
K ut
ITA GAKI</w>
HIRA TA</w>
GAM O</w>
Ban do</w>
B ok
w ash</w>
u sh
thorough ly</w>
t ant</w>
s ation</w>
restor ing</w>
re duce</w>
privil ege</w>
pos itive</w>
po etic</w>
oku shi</w>
o ods</w>
messeng ers</w>
mean time</w>
kn owing</w>
k ub
iy ama-
hi red</w>
gl ue</w>
gen u
fing ers</w>
dev ast
d ei
corpor ation</w>
ch un
barri er</w>
b od
b ere
ay aki</w>
accep ting</w>
Yodo- dono</w>
Yasum aro</w>
Yam ad
Uta emon</w>
Ten mei</w>
Sum o</w>
Shiten no</w>
Shin den</w>
Sh ur
Sappor o</w>
R itsu</w>
Nan ba</w>
Le gend</w>
Kun iyoshi</w>
Kok o</w>
Kai shu</w>
In stead</w>
GA I</w>
Con stitutional</w>
Ch air
B it
At t
A ges</w>
198 3</w>
13 36</w>
year- old</w>
su ji</w>
spec ter</w>
south west</w>
ro e</w>
reco very</w>
r ub
prec ious</w>
pl otted</w>
other wise</w>
on ic</w>
og an</w>
ob taining</w>
mon uments</w>
mon etary</w>
mag ic</w>
kil n</w>
iz umi</w>
is ans</w>
imp lies</w>
fish er
f ence</w>
est er</w>
er am
en sure</w>
en abled</w>
elec tr
deterior ated</w>
d a-
consid erably</w>
con g
commission ed</w>
chec king</w>
benef its</w>
benef it</w>
b ime</w>
as en</w>
ar ian</w>
am o-jinja</w>
add ressed</w>
act ress</w>
Yuki ie</w>
Umay ado</w>
Tok uko</w>
Tok ai-do</w>
Teac h
Tak ada</w>
St ories</w>
S ocial</w>
Re form</w>
Qu een</w>
Og ai</w>
Nishi kyo</w>
Matsu i</w>
Masam ori</w>
Ken nyo</w>
Kam it
KA ZA
K n
Gir ls</w>
Ex c
Call igrap
Bas ically</w>
185 9</w>
156 8</w>
yo do</w>
y ed</w>
theat ers</w>
she ets</w>
sec rets</w>
sculp tor</w>
s an-
ri val</w>
regul ated</w>
rec eption</w>
pri ority</w>
oz an</w>
ot oba</w>
organ ize</w>
man if
ha ya</w>
fab rics</w>
f ond</w>
f ame</w>
eth n
epis odes</w>
depend ent</w>
dem ands</w>
cros s
coast al</w>
bl o
bl ings</w>
bere aved</w>
b right</w>
b one</w>
b ic
auspic ious</w>
ann ex
am end
al istic</w>
ak a-
ac e
Y et</w>
Wi thin</w>
Tada hira</w>
TA DA</w>
Sat ake</w>
SAKU MA</w>
SA E
N ight</w>
N ame</w>
Mit sub
M erit</w>
M an</w>
Kok ug
J aku
I chi</w>
His at
H ell</w>
Fre ight</w>
19 16</w>
159 5</w>
157 0</w>
ynast ic</w>
um -
tr ag
th read</w>
su ki</w>
sk et
ses ame</w>
reg ency</w>
raf ts</w>
posit ory</w>
plan ting</w>
p uku-ji</w>
ok or
obu e</w>
mit ting</w>
mik an</w>
l att
kam aboko</w>
k ebiishi</w>
iz a</w>
ill ion</w>
i shin
ho sts</w>
him emiko</w>
er o</w>
enjoy ing</w>
en e</w>
emb ro
ear n
desc ent</w>
da m</w>
d emon</w>
clud e</w>
chur ch</w>
bur n</w>
at eral</w>
aku chi</w>
accur ate</w>
SHI NO
S er
Rik u
Pass eng
Neo- Confucianism</w>
NO UCHI</w>
Kon par
Kan no</w>
Kam akura-
Jim yoin</w>
Ik ai</w>
I N
HA NA
H ous
G ods</w>
G id
Fuj i
Dom ains</w>
Ari ma</w>
Ap pro
Am ity</w>
Aj ari</w>
Ad achi</w>
A ob
16 14</w>
157 5</w>
un changed</w>
troup e</w>
t sumi</w>
t led</w>
stri ke</w>
strength ening</w>
ste el</w>
s ato</w>
righ t-
re wards</w>
rai l</w>
pro te
poll ution</w>
patron age</w>
particip ation</w>
p ast
p ap
p ack
ok en</w>
m ic
j e
in tim
ic y</w>
hot el</w>
gradu ation</w>
gi ant</w>
fir mly</w>
ext ends</w>
exp ect
ex act</w>
ere l</w>
ensemb le</w>
e- kata</w>
e els</w>
dr ying</w>
depend s</w>
custom er</w>
cri mes</w>
compet ed</w>
cl ique</w>
b ai</w>
as shi</w>
all ow
ain ts</w>
ach in
Ter umoto</w>
Son pi</w>
Shi zuka</w>
Prin ci
O yama</w>
My thology</w>
Mov ie</w>
Miz uno</w>
Jun nin</w>
J ot
IS B
He ight</w>
Gen ealog
Con quest</w>
Budd has</w>
Bo x
Az echi</w>
Arisug awanomiya</w>
volun t
u yama</w>
tribut es</w>
ti l
ten no</w>
surround ings</w>
short ly</w>
sal ted</w>
s ively</w>
rel ev
real ize</w>
pal anqu
on kai</w>
occup ying</w>
ob an
n arro
mem ory</w>
medi ate</w>
mat ch
man eu
magaz ines</w>
la ugh
kot oba</w>
k ake</w>
k ado</w>
ju in</w>
is ato</w>
in stitute</w>
in spired</w>
i hai</w>
hor sem
grav est
go shi</w>
glut inous</w>
ge igi</w>
f uda</w>
ex pel</w>
es h</w>
er-in- chief</w>
el eph
e- dera</w>
dis eases</w>
deter mine</w>
dec isions</w>
compro mise</w>
cler ical</w>
chron ological</w>
chi ef
cap able</w>
at oes</w>
arti facts</w>
all otted</w>
ali as</w>
ak at
ak asa</w>
ai- cho</w>
ack erel</w>
ac commod
a sha</w>
U g
Tam ura</w>
Tai ko</w>
T ayu</w>
St e
San jo-dori</w>
Sak ai
O ishi</w>
NA N
Mur yo
Le ague</w>
Kor in</w>
Kan eyoshi</w>
K aya</w>
Hyak ki</w>
Hok usai</w>
Hok e-kyo</w>
Ham amatsu</w>
F u</w>
Bun myaku</w>
Add ress</w>
we l</w>
upris ings</w>
t etsu</w>
t ends</w>
sur prise</w>
soy bean</w>
os ada</w>
or omo</w>
myo s</w>
mor t
mat s</w>
master pieces</w>
lod ging</w>
liter ati</w>
kan zashi</w>
ir atsume</w>
interv ention</w>
ident ical</w>
hum ans</w>
grud ge</w>
grad es</w>
gorge ous</w>
fore father</w>
f um
en- faced</w>
e ks</w>
cor respond</w>
cast ell
bu- sho</w>
be ha
b ay</w>
b ar</w>
au xiliary</w>
as aburo</w>
ar en</w>
amot o-
aku ji-
Tsuk uy
Tak ed
T ree</w>
Sanet omi</w>
S ato</w>
Ok it
Nin igi</w>
Moun tains</w>
Kusak abe</w>
Kas ag
J on
I V</w>
H O</w>
G un</w>
D os
Con spiracy</w>
Ch u</w>
B y
Ak echi</w>
whe el</w>
wat ching</w>
tournam ent</w>
th i
s eng
s cor
ry aku</w>
reg isters</w>
po uring</w>
p ip
os is</w>
o bushi</w>
myo den</w>
mist ake</w>
m im
j ishi</w>
issu ance</w>
hos pital</w>
hi ki</w>
h yoe</w>
gak ari</w>
g akushi</w>
func tioned</w>
fr ast
frast ruc
exemp tion</w>
excep tions</w>
ex agg
ev ity</w>
di r
confin ement</w>
co ol</w>
chest n
b ly</w>
aw ashi</w>
assad or</w>
as ada</w>
app o</w>
accumul ated</w>
Yoshik azu</w>
Tai suke</w>
TO DA</w>
Prefec tures</w>
Nishi- Maizuru</w>
Nin myo</w>
Nag ar
Mo on</w>
L ate</w>
KAZA NIN</w>
Ichi kawa</w>
ISB N</w>
I ppon</w>
Guk ansho</w>
Fuj itsubo</w>
Chi yo
A KI
w aki</w>
um onin</w>
troub les</w>
tab let</w>
sur u</w>
st up
ris k</w>
resemb les</w>
reg ards</w>
re pl
public ly</w>
produc es</w>
on o-
oc t
oc ean</w>
min ing</w>
mel ody</w>
magn ific
lic en
lay ered</w>
in- waiting</w>
go od
g able</w>
full- scale</w>
f ellow</w>
equ ally</w>
d ayu</w>
cycl op
coun tered</w>
consist ent</w>
ch ancellor</w>
bus y</w>
be headed</w>
ashin a</w>
as i-
appe aled</w>
Tsuk uba</w>
Toba- Fushimi</w>
Taka akira</w>
TAKA SHINA</w>
T ah
S ol
Nobu yasu</w>
N int
Mas anaga</w>
Kiz okuin</w>
Kita oji</w>
KO NO</w>
Iw at
FUKU ZAWA</w>
E n</w>
Dai jin</w>
Consid ering</w>
Ben kan</w>
AMA TSU</w>
A .
5 9
2 50</w>
u- cho</w>
tri als</w>
to il
ten ed</w>
t age</w>
sup eri
stand point</w>
st opping</w>
spons ored</w>
shi ft</w>
set tle</w>
restric tions</w>
rele ase</w>
ot ak
onom a</w>
o- mon</w>
mov es</w>
mobil ized</w>
m ei-
ivers al</w>
h s</w>
g inger</w>
g a-
fit tings</w>
electri fied</w>
dist ribu
bri l
b ever
as u-
appreci ation</w>
an ci
am entary</w>
ak ki</w>
air o</w>
abol ishment</w>
Yuk inari</w>
Y O</w>
Tsu chi
To sh
Mor o
MI ZU</w>
Kon -do</w>
Kok us
Kin ug
J uro</w>
I son
Hokke- kyo</w>
Ashi hara</w>
2 5th</w>
185 3</w>
y ard</w>
wel come</w>
w est
w ears</w>
v eng
un i-jinja</w>
termin ated</w>
si blings</w>
scrip tions</w>
rin -ji</w>
ri d</w>
rev e
re pose</w>
question ed</w>
municip alities</w>
man ga</w>
ma ximum</w>
lit .</w>
ligh t
im usubi</w>
ho sted</w>
g ek
fin ish</w>
f air
et ernal</w>
eng ineering</w>
educ ated</w>
drin ks</w>
cul tures</w>
commemor ate</w>
candid ates</w>
ban ks</w>
avil ion</w>
att ending</w>
ar bit
am on</w>
acc el
a- bugyo</w>
Zen ji</w>
Z uryo</w>
Yoshik iyo</w>
Yas hima</w>
Uj itsuna</w>
Tom omori</w>
Tom b</w>
TO DO</w>
Sh uri</w>
Og imachi</w>
Mon toku</w>
MOTO ORI</w>
L oop</w>
Jog an</w>
J iy
Hong w
Har ut
Dai ri</w>
Chik afusa</w>
Chi on-in</w>
C op
Budd ha
158 0</w>
100 ,000</w>
with draw</w>
uro -
unc tion</w>
tw enti
tic ally</w>
swim ming</w>
super intendent</w>
sugg esting</w>
st ick
st ers</w>
shor ter</w>
sh on
requ ests</w>
rem emb
re w
rad es</w>
pre sum
pain t</w>
on aga</w>
occur s</w>
o hashi</w>
n ingyo</w>
mat ure</w>
master piece</w>
ligh ts</w>
ko en</w>
j uk
isol ated</w>
integr ation</w>
il legal</w>
her b
h o-ji</w>
h achim
grand mother</w>
for ged</w>
fac tions</w>
employ ees</w>
dy eing</w>
deb t</w>
comb ining</w>
car to
bun ko</w>
bot tle</w>
ass ist</w>
arti ficial</w>
amoun ts</w>
adv ancing</w>
ac company</w>
Yoshi kuni</w>
Tan e
Takat sune</w>
Sp ain</w>
SHI MO
Reg ional</w>
Pain ting</w>
OKA MOTO</w>
Nakatsuk as
Nakam ikado</w>
Kam o-jinja</w>
H and
En nin</w>
D E</w>
Ch us
B ack
Archi tec
Ar ch
ARA I</w>
8 .
0- koku</w>
z one</w>
wh oles
uk awa</w>
the astern</w>
text books</w>
t asks</w>
st uck</w>
sh oben</w>
red- light</w>
re place</w>
phr ases</w>
ographi c</w>
ne utr
n ickn
mar ine</w>
locomo tive</w>
k ie</w>
inn omiya</w>
incorpor ating</w>
in oko</w>
in disp
in ao</w>
if uk
ic hig
hand ic
g as</w>
g as
fur ious</w>
fl owing</w>
discus sions</w>
delic ate</w>
dan jiri</w>
d ani</w>
c in
alco hol
ai son</w>
ai des</w>
abol ish</w>
a- go</w>
Tsukig ase</w>
Th anks</w>
T aj
Sh ang
Sei ka</w>
Se is
Sanj us
San z
SAE KI</w>
Res idence</w>
Rem ains</w>
Nari hira</w>
Nag oy
ND L</w>
Mot ofusa</w>
Ma hito</w>
M en</w>
Kaz umasa</w>
Kasuga- taisha</w>
K yor
Jugo i</w>
Hachi jo</w>
Goz en</w>
Gen mei</w>
G leanings</w>
thro w</w>
subjug ate</w>
sp end</w>
six teen</w>
sculp ture</w>
sar ugaku</w>
s quar
rev ered</w>
rel uc
reconc iliation</w>
re clamation</w>
qual ified</w>
post war</w>
organ izing</w>
ord ering</w>
op pose</w>
obe y</w>
north west</w>
my ths</w>
mid night</w>
m ackerel</w>
l over</w>
k ad
interv als</w>
ik en</w>
hi n</w>
hi -
gen eric</w>
form at</w>
ess ay</w>
elig ible</w>
differ ently</w>
des ired</w>
depos ited</w>
def ended</w>
d ating</w>
comp ass
cho ose</w>
ch ugu</w>
ch ased</w>
cand y</w>
borro wed</w>
b om
b it</w>
az umi</w>
Wak an</w>
Viet nam</w>
V oc
U ta</w>
Tr ains</w>
Toshin ari</w>
Tadak atsu</w>
Stat ues</w>
Shin pei</w>
Sep puku</w>
Sad ayoshi</w>
SHI MIZU</w>
Relig ious</w>
O r</w>
Nag ayasu</w>
Min oru</w>
Matsum oto</w>
KO N
KAN SAI</w>
Hok an</w>
Hi b
He isei</w>
Hakus eki</w>
Haj ime</w>
G ei
F inally</w>
Econom ics</w>
Daig ak
Ch em
158 6</w>
z odiac</w>
war time</w>
trans mission</w>
th reads</w>
t ayu</w>
stri f
star s</w>
st om
sh ot
samur ais</w>
s a
ro ws</w>
ro shi</w>
resid ing</w>
preced ent</w>
pre val
observ ation</w>
men u</w>
m ori</w>
li p
l or
kan mon</w>
k uri</w>
iw ara</w>
i ature</w>
her itage</w>
h ama</w>
g ashira</w>
for ty</w>
f old</w>
ep ic</w>
em atic</w>
el ding</w>
don ations</w>
dem es
d an-
corrid or</w>
contrad ic
cler k</w>
c os
brother -in-law</w>
big ger</w>
b osatsu</w>
at om
al izing</w>
ag aru</w>
a- awase</w>
Yam amoto</w>
U ji
Tadak uni</w>
T ada</w>
Suc c
Shin taro</w>
Sanjus ang
S l
S anda</w>
R an</w>
N ab
Moto hiro</w>
Kyo bashi</w>
Kor iyama</w>
Kok ura</w>
Kod ama</w>
Kab ane</w>
Hit otsub
G amo</w>
G YU</w>
Dr ama</w>
Ch ogen</w>
Buil dings</w>
we igh
volun te
v eri
us ur
tal ks</w>
six teenth</w>
seki- ji</w>
ri ver
rev ive</w>
re appointed</w>
r yu
r aku
pro stitute</w>
ped d
om ai</w>
o hime</w>
m aps</w>
lay ers</w>
kai sho</w>
kai ki</w>
k g</w>
ish es</w>
inv ade</w>
im o</w>
identi fy</w>
fi erc
f ue</w>
en ao</w>
emp ty</w>
den s</w>
cur ved</w>
confection ery</w>
compreh ensive</w>
comp ile</w>
command er-in-chief</w>
cer tain
c end
ak e-
ai ke</w>
advant ageous</w>
Yonez awa</w>
Yamat oji</w>
W in
Teng uto</w>
Tad achika</w>
TSU TSU
S al
Quar ters</w>
Okin a</w>
O u</w>
NOMI KADO</w>
N od
N asu</w>
Kis o</w>
KA RA
Hon mon</w>
Hid esato</w>
Hay ato</w>
Gaku shuin</w>
Ch osen</w>
Aki ie</w>
185 4</w>
y ar
v ul
ul es</w>
tut el
t subo</w>
sword smanship</w>
sp orts</w>
sing le-
s ai-
ri val
relev ant</w>
reg ained</w>
propri et
pot atoes</w>
palanqu in</w>
p a</w>
of uku</w>
ne gl
n ishiki</w>
mon ster</w>
man zai</w>
m u-
ju- kyo</w>
iy am
intell ig
immig rants</w>
ih ama</w>
i age</w>
fuk u
exten sive</w>
em o
eg awa</w>
di min
dev ised</w>
de pot</w>
correspon ded</w>
compet e</w>
col leg
bro iled</w>
b oku
al ion</w>
ak in</w>
ad ise</w>
Yas uko</w>
Ten ryu-ji</w>
Tao ism</w>
Tak anori</w>
T su</w>
Sann omiya</w>
O KURA</w>
Man agement</w>
Mak oto</w>
M en
M eas
Jitsu roku</w>
J our
Hon den</w>
Ho shu</w>
HA T
G od
F ri
Des ign
Bun jin</w>
Bi g</w>
AMA GO</w>
158 3</w>
1. 8</w>
- gu</w>
yo shino</w>
vi su
utsu ki</w>
t ub
sho shi</w>
se af
san kyoku</w>
s ash</w>
rup tion</w>
ri ki</w>
re placement</w>
pro se</w>
pro mise</w>
pl eased</w>
pic k</w>
oper ative</w>
om ing</w>
mist ress</w>
man ned</w>
le g</w>
land ed</w>
l ob
kan n
kai san</w>
k es</w>
itsu -
is hima</w>
inten tionally</w>
gun ji</w>
grand children</w>
gl ory</w>
genu ine</w>
fre sh
frastruc ture</w>
figh ts</w>
dec ap
co w</w>
ch aya</w>
c ere
bran ched</w>
bas es</w>
b ill</w>
am u</w>
adv ancement</w>
ab ushi</w>
Yoshi ki</w>
Yorit ada</w>
Whi te</w>
W el
U kai</w>
Tsukuy omi</w>
Trans f
Tar uhito</w>
Tak ao</w>
Su per
Sho ji</w>
Shiten no-ji</w>
Shig emasa</w>
Se it
Sadat oki</w>
S oba</w>
Reg ulations</w>
R oshi
Priv y</w>
P ow
P or
O den</w>
Mer cy</w>
M il
L ove</w>
Kus atsu</w>
Koj iro</w>
Kog yo</w>
Ken ji</w>
KO SE</w>
K ato</w>
Ishiyam a-dera</w>
In spec
Hyo busho</w>
HAT TORI</w>
Gen sho</w>
Gen paku</w>
For th</w>
Byo d
Bus iness</w>
159 9</w>
157 9</w>
10 -
y on
val ley</w>
vac ant</w>
umbrel la</w>
ton sure</w>
tim ber</w>
step ped</w>
stand ards</w>
spe ak</w>
shi so</w>
res ort</w>
rebel led</w>
re ds</w>
r yokan</w>
r aces</w>
os ak
orig ami</w>
oku- fu</w>
obe di
o- za</w>
o tic</w>
mist ak
mir in</w>
long evity</w>
k in-
j it
ition ary</w>
head man</w>
har a-
ha jime</w>
h aps</w>
fic tional</w>
f at
emp resses</w>
elim inate</w>
des ires</w>
cre sts</w>
concub ines</w>
con sumed</w>
com rades</w>
coll ar</w>
col umn</w>
col le
c arriage</w>
arg uments</w>
ar di
ang aku</w>
all y-
Yamat ai</w>
Yam ashi
Taka hito</w>
Tai seki-ji</w>
Tad ayuki</w>
Sak hal
Rokuj izo</w>
Ot sugu</w>
Nobu tora</w>
Nagat oshi</w>
Nag aya</w>
Mot ochika</w>
M other</w>
Kor etada</w>
K usu
K odai
He alth</w>
Han iwa</w>
Fuy ut
F ood</w>
ENO MOTO</w>
Dre am</w>
BA SHI</w>
B lack</w>
14 67</w>
ut ei</w>
un preced
tsu ki</w>
tit ude</w>
t ep
strif e</w>
stri ps</w>
ste aming</w>
signific ance</w>
sch eme</w>
rep ly</w>
re aches</w>
qu ick</w>
proc esses</w>
or gan</w>
ong side</w>
o- ryu</w>
o ath</w>
novel ist</w>
medi ately</w>
le ap</w>
l ute</w>
kon bu</w>
ind igen
implem entation</w>
high- quality</w>
her o
h atsu
frag rance</w>
for given</w>
ext end</w>
exam inations</w>
elim inated</w>
dri ver</w>
dog s</w>
co -
buk uro</w>
bu do</w>
brid ges</w>
box es</w>
bar k</w>
b ility</w>
atsu- jo</w>
ascetic ism</w>
ag at
U hyoe</w>
U CHI
Tog o</w>
Sum a</w>
So h</w>
Sil ver</w>
Sel f-
Samur ai-
SE N
S em
Represent ative</w>
R usu
R oom</w>
Progr am</w>
O to</w>
Newsp aper</w>
Miy afuku</w>
Michi ie</w>
Mas anari</w>
M atsu</w>
M am
L on
Ipp en</w>
Im mediately</w>
H i</w>
H achiro</w>
GI RI</w>
Comp ared</w>
Ch erry</w>
Bun roku</w>
- up</w>
- type</w>
z ake</w>
yori ai</w>
week days</w>
vari ations</w>
u an</w>
top ography</w>
t ons</w>
st al
shoshi dai</w>
shi p
sess ion</w>
reti re</w>
respon ded</w>
ref er
prof its</w>
oy aku</w>
odai jin</w>
n u
mom ent
mid- Edo</w>
manufac ture</w>
kot ai</w>
j us
it ting</w>
isol ation</w>
is ms</w>
ig iri</w>
ici ency</w>
h ated</w>
gradu ates</w>
ex changes</w>
cut let</w>
conc ern</w>
coll ateral</w>
co l</w>
chig yo-
chi ku</w>
bell s</w>
ag ers</w>
Y og
Uj iyasu</w>
The at
Ten kai</w>
Sot oku-fu</w>
Shig eyoshi</w>
Sen shi</w>
S andai</w>
Ru ins</w>
Rik ken</w>
P art</w>
N ot
N AMI</w>
Mun etaka</w>
Motot ada</w>
Miy as
MA SU
Kok um
Kob an</w>
Kiyo hara</w>
Kam i
K ushi
I go</w>
Ham a
E ig
D am</w>
Cho ja</w>
158 7</w>
118 9</w>
yo- e</w>
wind ow</w>
veget able</w>
ur iya</w>
transf erring</w>
to col</w>
sum mary</w>
stri king</w>
stret ched</w>
sl ices</w>
shar p
rep lied</w>
r av
prov oked</w>
prepar atory</w>
pre dic
po le</w>
person ally</w>
on es
on er</w>
ok uden</w>
o sha</w>
min ting</w>
lish ments</w>
liqu id</w>
k u-
j ug
iy a-jinja</w>
is ode</w>
increas es</w>
i uchi</w>
ha st
guarante ed</w>
gent le</w>
fl ows</w>
exist ent</w>
ethn ic</w>
discipl ine</w>
defe ating</w>
credi bility</w>
com ment</w>
car ving</w>
c up
betr ayal</w>
az ed</w>
Was eda</w>
Tak eo</w>
Su jin</w>
Shoshi dai</w>
Shinp achi</w>
Shi jo-dori</w>
Sakhal in</w>
Phi losop
Oyam azaki</w>
Neg or
Mongol ian</w>
Maru yama</w>
Kam i-
KATA GIRI</w>
J uk
Iked aya</w>
I ZUMI</w>
Hongw an-ji</w>
Gang o-ji</w>
Gan jiro</w>
E N</w>
Ch ancellor</w>
Bisham onten</w>
116 0</w>
yor iki</w>
war lords</w>
um ental</w>
trac ed</w>
third- ranked</w>
them es</w>
supp lies</w>
rhyth m</w>
pub lish
prev enting</w>
prai sing</w>
pen et
par ishi
overthro wn</w>
ov al</w>
ot y
mar ch</w>
m achi
legitim acy</w>
l iv
kuro do</w>
kun inomiyatsuko</w>
itor ious</w>
it am
in ating</w>
h achiro</w>
g est
for ti
f un</w>
exped itionary</w>
end en</w>
en tioned</w>
en han
eg ami</w>
dai myos</w>
credi t</w>
cop ying</w>
concentr ation</w>
c ade</w>
bril li
b on-
assemb led</w>
al located</w>
ak ai</w>
Zen shu</w>
Z oku</w>
Saidai -ji</w>
S ign
Re al
Om uro</w>
OGIMA CHI
OGIMACHI SANJO</w>
Nar amaro</w>
N u
I ro
Hid emasa</w>
FUKU SHIMA</w>
E qu
A u
7 64</w>
z u-
y ug
ur ged</w>
un stable</w>
tor inoko</w>
thre at</w>
sy ch
smoo thly</w>
resist ed</w>
privat ization</w>
post ure</w>
or ange</w>
min iature</w>
min ary</w>
m asks</w>
il t</w>
id atsu</w>
gun nery</w>
fortun es</w>
forc ing</w>
fe ast</w>
eram ikoto</w>
e ath</w>
del iver</w>
co inc
cloth s</w>
ban ishment</w>
b rings</w>
assass inate</w>
ar ity</w>
appoin tments</w>
an o-jinja</w>
am way</w>
al ongside</w>
ait en</w>
ah ata</w>
a- ryu</w>
Yasak a-jinja</w>
W u</w>
W il
Voc ational</w>
Un kei</w>
Tak ayama</w>
Tadat eru</w>
TO MO</w>
Sm all</w>
Shim izu</w>
Sh ob
Sek ke</w>
S oshi
Ori be</w>
Ok agami</w>
O GAWA</w>
Nobum asa</w>
N ing
Mitsun aka</w>
Mak ibi</w>
MATSU O</w>
Kam o-
Kaj uji</w>
Kad okawa</w>
Hir ata</w>
Hama otsu</w>
Fuku yama</w>
Fuku hara</w>
F ront</w>
Dep ending</w>
A ik
2 4th</w>
158 4</w>
12 00</w>
00 ,000</w>
yu jo</w>
wrest ling</w>
wh ales</w>
ware houses</w>
vineg ared</w>
us eful</w>
uchi- jinja</w>
sur ed</w>
sub due</w>
sh ur
rin g
pl astic</w>
out line</w>
ornam ental</w>
mai ko</w>
magnific ent</w>
k emari</w>
insist ing</w>
incar nation</w>
in er</w>
ig inu</w>
hir ag
gu ild</w>
fir ed</w>
f use</w>
er-in- Chief</w>
ed icts</w>
discus s</w>
dis covery</w>
d y</w>
clos ure</w>
ch oku</w>
beli ever</w>
ban ashi</w>
b orders</w>
att ain
alcohol ic</w>
ak ajima</w>
Twent y-
Tsu re
Tok iw
Tendai- zasu</w>
Tanb abashi</w>
Tak anobu</w>
Tai ga</w>
T ofuk
Star ting</w>
St op</w>
Shig eru</w>
Sh aku
Sak onoe</w>
Nor izane</w>
Nan iw
Mi i-dera</w>
Kor eyoshi</w>
Kog en</w>
Kawan akajima</w>
Kag ura</w>
KU RA
KU KI</w>
KAJI WARA</w>
K ai-
Hirot sugu</w>
Hashi ba</w>
HA RADA</w>
DE NOKOJI</w>
Command er-in-Chief</w>
Com mission</w>
C odes</w>
Appro ximately</w>
ARI MA</w>
160 3</w>
157 8</w>
war fare</w>
wa shing</w>
w ound</w>
vis ible</w>
un -
u jig
te a-
shit e-kata</w>
sal mon</w>
s it</w>
rul ers</w>
rel ics</w>
protec tive</w>
pl ane</w>
o- machi</w>
not able</w>
mir ac
mer itorious</w>
lo ad</w>
langu ages</w>
j id
j eal
indisp ens
in nov
im on</w>
il ies</w>
h oko</w>
h ec
fer tili
expres sing</w>
exp ense</w>
en ka</w>
embro id
el ement</w>
ei rei</w>
e aves</w>
dissol ution</w>
des per
de ad
d en-
cont ext</w>
consolid ated</w>
cat al
calcul ated</w>
c at</w>
bic y
betr ayed</w>
associ ations</w>
ass en</w>
appl ying</w>
ap le</w>
an ohara</w>
acqu ire</w>
Wat anabe</w>
Tsun emoto</w>
Toy ok
Takem ik
Tak et
Tad atsugu</w>
T odo</w>
Sad amasa</w>
SH U
S eri
S ai</w>
R ights</w>
Portug u
O nam
Murak ami-
M ait
M ad
Kor emori</w>
Keg on</w>
Kan in</w>
K oka</w>
K into</w>
Ji sho</w>
Hoz onkai</w>
Hit o
H en</w>
For estry</w>
z oshi</w>
z ab
yu an</w>
we ek</w>
w aves</w>
ver tically</w>
travel ers</w>
to zama</w>
t i</w>
stre am
strateg ic</w>
six ty</w>
sh o-in</w>
ren ew
po x</w>
par king</w>
p ical</w>
over all</w>
oshi ta</w>
or ting</w>
nob ody</w>
near est</w>
n av
municip ality</w>
mon thly</w>
mis sions</w>
li aison</w>
kan jin</w>
k us
in bo</w>
h okan</w>
h en
gradu ate</w>
fam ine</w>
et ed</w>
el f</w>
eigh ty-
e dia</w>
comm uter</w>
comm odate</w>
ch opped</w>
castell an</w>
carri es</w>
bar rel</w>
b und
b ang
ar -
an a-
ac u
ac commodate</w>
a ich
Tw el
Tak umi</w>
Shoz an</w>
Shim osa</w>
Sh um
Set a</w>
Sci ences</w>
San mi</w>
SHIMA DA</w>
Prog ressive</w>
Portugu ese</w>
Pain tings</w>
OI NOMIKADO</w>
Nobu yuki</w>
Nam es</w>
Nak amura</w>
N ine</w>
N YA</w>
Mor imasa</w>
Miy uki</w>
M ah
L ight</w>
L i</w>
Ken nin
Kan a</w>
KO NISHI</w>
In f
Hann ya</w>
H oll
H aw
G ion-
F ather</w>
Des ign</w>
Complet e</w>
Chok usen</w>
Ch an
Bec ame</w>
Aob y
Air port</w>
185 7</w>
160 2</w>
w ave</w>
w a-
u ality</w>
trans cription</w>
trac es</w>
stri p</w>
st am
st all</w>
sl ow
sim m
short ened</w>
sculp tures</w>
satis faction</w>
resc ue</w>
reg ain</w>
re lied</w>
pre li
play w
parli amentary</w>
p el
ot suk
ones elf</w>
od d</w>
oc ked</w>
o ichi</w>
mis asagi</w>
mar ily</w>
mar ched</w>
kag ami</w>
je wel</w>
j ish
in scriptions</w>
in ev
ig aoka</w>
ib ility</w>
i uri</w>
hund reds</w>
hom es</w>
g rin
g our
g hosts</w>
for ci
foc using</w>
f ooth
east s</w>
dro w
conserv ative</w>
confir m</w>
chu- gumi</w>
chec k
cap turing</w>
bo ok
bak ed</w>
b ags</w>
asc end</w>
am in
am at
ai kyo</w>
ad oshiyori</w>
accept ance</w>
Youn g</w>
Yoshi zane</w>
Win ter</w>
Techn ical</w>
Tai ro</w>
T ori</w>
St and
Shug akuin</w>
Sh uten</w>
Sh ar
Pri or</w>
Passeng er</w>
Ne ther
Naga hide</w>
N otes</w>
Masam ichi</w>
Main ichi</w>
MI YA</w>
Ken shi</w>
Ken ky
Kei suke</w>
Kat ata</w>
Karasuma- dori</w>
KA BE</w>
K obu</w>
Jing o-ji</w>
Iw ao</w>
Hit omaro</w>
Har um
Exc ept</w>
En vir
C el
Bl ue</w>
Bar on</w>
B idatsu</w>
B att
yak ata</w>
vari ation</w>
u- in</w>
tr unk</w>
tr act</w>
tion ing</w>
temp ura</w>
survey s</w>
substanti al</w>
st ir
sle ep</w>
secl uded</w>
seaf ood</w>
sang i</w>
s av
r ent</w>
r age</w>
qu it</w>
pur sue</w>
out break</w>
occurr ence</w>
notic ed</w>
intens ified</w>
in noc
ichim en</w>
i th
i ography</w>
i ate</w>
h ell</w>
fun erals</w>
fru its</w>
exp anding</w>
eng o</w>
en de
edit or</w>
e- zukuri</w>
du g</w>
divor ced</w>
counter fe
bas eball</w>
aw ate</w>
autonom ous</w>
as o</w>
are well</w>
air an</w>
ag encies</w>
Yok o
Taka hashi</w>
Tai to</w>
TO YAMA</w>
Sen ch
Nan kai</w>
Nakatsuk asa</w>
Mori oka</w>
Mar u</w>
Langu age</w>
L ines</w>
Kot ai
Kin mon</w>
Kik u
Kat amori</w>
Kai dan</w>
Ital y</w>
It ami</w>
I eyoshi</w>
Hide hira</w>
Hid eyasu</w>
Gre ater</w>
Elev en-faced</w>
E r
D engaku</w>
Bun roku-
Ag ainst</w>
A SU
2 9
115 9</w>
yo in-
vic tim
v angu
ust er</w>
us able</w>
un yo</w>
um ns</w>
tok onoma</w>
t ango</w>
symbol ic</w>
ro me</w>
rec ording</w>
rec iting</w>
proper ly</w>
prev ention</w>
pat ro
p uts</w>
ou d</w>
new ly-
mor omi</w>
meas ured</w>
mat o</w>
k id
k etsu</w>
jo i</w>
j am</w>
hito e</w>
he ating</w>
hard -
gran ting</w>
fierc ely</w>
f ast
ev acu
ei ji</w>
di um</w>
di os</w>
demonstr ation</w>
cur d</w>
cre d
celebr ating</w>
cast ed</w>
c uc
bri ef</w>
ban k
b erry</w>
atsu kuni</w>
arro whe
an i-
ag raph</w>
ag awa-
U dai
Sumiy oshi-
Shogun al</w>
Shin ko</w>
Shin juku</w>
Se iga</w>
S ent
S cro
Rep ort</w>
Pl ace</w>
Om ura</w>
Nak ayama</w>
Mur ata</w>
Mag istr
MATSU I</w>
L o
Kur ama-
Gre en</w>
Det ails</w>
Chik ur
Bun sei</w>
Bit chu</w>
Back ground</w>
B an</w>
An gl
An a
2 6th</w>
184 8</w>
z akura</w>
y ose</w>
with draw
wal ked</w>
w inner</w>
unpreced ented</w>
tr ace</w>
th ickness</w>
ten -
t sugi</w>
t elevision</w>
suspic ious</w>
subdu ed</w>
sei shu</w>
s oson</w>
s ail
s --
recip e</w>
preli minary</w>
por tions</w>
ot ei</w>
off ers</w>
ni ece</w>
mus ician</w>
moment um</w>
modern -day</w>
mit age</w>
lef t-
l umber</w>
l acked</w>
koku shu</w>
j udo</w>
indispens able</w>
indigen ous</w>
impro ving</w>
hand ing</w>
h ad
govern or-
got ten</w>
fud oki</w>
f ushin</w>
exc essive</w>
es cor
en countered</w>
ei kaz
e en-
draw ings</w>
doub tful</w>
doct rines</w>
cur tain</w>
commit ting</w>
comb at</w>
col or
bod y
bit ter</w>
av ier</w>
amot o-jo</w>
am aki</w>
a icho</w>
Yod oy
W arri
Un iver
Tor ii</w>
Ten chu-gumi</w>
TO IN</w>
Suk un
St ore</w>
Shu ho</w>
Shiz ug
San po</w>
SA TAKE</w>
S ut
Ru iju</w>
Pro motion</w>
O dori</w>
Nor ito</w>
Mis sion</w>
Kiz u-gawa</w>
Je sus</w>
J oko</w>
Ir atsume</w>
Har uk
Dai myojin</w>
D anno
Can al</w>
A. D.</w>
80 6</w>
4 ,
z i
war lord</w>
viol ation</w>
us ement</w>
ujig ami</w>
u sho</w>
tre at</w>
trav elled</w>
t achi
subst ance</w>
shug odai</w>
shik imoku</w>
sel dom</w>
s in
rim p</w>
ri ots</w>
re ins</w>
rac ing</w>
prev ailing</w>
post ed</w>
pick les</w>
oo ji</w>
on yo</w>
om en</w>
nom inated</w>
monast ery</w>
mer cy</w>
meas urement</w>
m yo-
lux ur
li sts</w>
kara oke</w>
k ori</w>
jo ji</w>
jing awa</w>
jik ata</w>
j odo</w>
is awa</w>
ic h</w>
ib a</w>
great- grandson</w>
foun d
exp elling</w>
etsu ki</w>
et ics</w>
el ite</w>
eb a</w>
e or
dis per
dev ice</w>
concer t</w>
chun agon</w>
calcul ation</w>
c ial</w>
bin ding</w>
b illion</w>
attend ance</w>
at aro</w>
an ke</w>
ak ana</w>
Z O
Y o</w>
Tsur u
Tom i
Takam anohara</w>
Tadak iyo</w>
TA NI
Su inin</w>
Shos o-in</w>
Pr act
Og ura-
Murakami- Genji</w>
Miy atsuko</w>
Mitsum asa</w>
Mik i</w>
Mei sho</w>
Man or</w>
Lon don</w>
Kam ey
K -
Ju ichimen</w>
Jish o-
H iki</w>
G agaku</w>
Fol k</w>
Confuc ius</w>
Class ic</w>
B od
3 000</w>
worsen ed</w>
world s</w>
ud okoro</w>
thum b</w>
the or
t rem
t es</w>
sprink led</w>
sm oke</w>
sl ogan</w>
sk ew
sec tor</w>
ri an</w>
rec ited</w>
r ust</w>
post p
phenomen a</w>
ped ig
or ship</w>
oo th</w>
oblig ation</w>
o i-
noblem an</w>
my th
moti f</w>
lux ury</w>
low- level</w>
long est</w>
keep s</w>
k un</w>
k en-
inv ite</w>
in sur
im ae</w>
ill us</w>
great- grandchild</w>
ga uge</w>
est ation</w>
enti c</w>
enhan ced</w>
en did</w>
en aka</w>
emer gence</w>
dump lings</w>
dis order</w>
dis liked</w>
diff ered</w>
dep ict</w>
demonstr ated</w>
d ressing</w>
d ot
cyclop edia</w>
craf ts</w>
coun tr
conv inc
comm ented</w>
col lege</w>
bu ki</w>
bu g
auth ored</w>
an tic
am ate
al lies</w>
ab und
ab outs</w>
a es
ZU KA</w>
Yodoy abashi</w>
Tsurug aoka</w>
Tog ether</w>
Takam asa</w>
Tak afusa</w>
Tada aki</w>
Tad anobu</w>
Su i
Sho hei</w>
Shing u</w>
Shin agawa</w>
S o-
Os aki</w>
Nin ko</w>
Nam u</w>
Nai to</w>
NAKA JIMA</w>
Mitsu yuki</w>
Kon an</w>
Kiyom aro</w>
Kin p
Kichi emon</w>
Kennin -ji</w>
Kan jin</w>
Jin myocho</w>
Ji en</w>
J uko</w>
Illustr ated</w>
I no
Hok ekyo</w>
Hid enobu</w>
G es
Commer cial</w>
8 ,000</w>
184 2</w>
,00 0-koku</w>
y us
y i</w>
utsu -
ut an</w>
up graded</w>
un equal</w>
tar es</w>
t une</w>
st ole</w>
sou ven
small pox</w>
sk ill
shi tsu</w>
shi ro
round ed</w>
round -
recogn ize</w>
re formed</w>
presum ably</w>
practition ers</w>
pedest al</w>
ong yo</w>
no jo</w>
min es</w>
ment or</w>
mass ive</w>
law suits</w>
ju ice</w>
ir an</w>
ingu ished</w>
influ ences</w>
i- e</w>
he m</w>
gravest one</w>
fl at
ex port</w>
end ers</w>
dial ogue</w>
d ango</w>
convey ed</w>
continu ous</w>
consid ers</w>
commemor ating</w>
com ics</w>
chall eng
can ned</w>
bloc ks</w>
az an</w>
at ai</w>
Yoshi wara</w>
Y un
Y u</w>
X X</w>
Un ion</w>
Tad anori</w>
T able</w>
S pan
S os
P erry</w>
O ike</w>
Nihon -
N et
Mot ozane</w>
Mot omasa</w>
Mom oy
Me ishin</w>
M eg
L E
Jun toku</w>
IMA I</w>
Hiro ko</w>
G isho</w>
G eisha</w>
Fran c
En shrin
De ities</w>
Chu sho
Chair man</w>
156 5</w>
117 7</w>
zen ji</w>
y in</w>
victim s</w>
v est
ur ak
ur aji</w>
ur able</w>
tax is</w>
syst emat
st ems</w>
sn ow
sho ens</w>
scap es</w>
s inc
r ag
pul l</w>
prec ise</w>
po ison</w>
ornam ents</w>
ordin ances</w>
og yo</w>
og y</w>
ob st
m -
land- tax</w>
k ob
k aku
k ajin</w>
inter esting</w>
inten tions</w>
imp lement</w>
ho sho</w>
hi kan</w>
hec tares</w>
f us
exhib itions</w>
exemp ted</w>
ess entially</w>
eigh teen</w>
ed ges</w>
div iding</w>
dis satisfied</w>
dis man
dep ended</w>
danc ers</w>
d ashi</w>
cylind rical</w>
controvers y</w>
clos est</w>
asser ted</w>
ar aki</w>
ang i</w>
am ag
al ia</w>
ai kido</w>
accomp lishments</w>
Y ab
X avier</w>
Wel fare</w>
Tsur ayuki</w>
Tot suk
Tenman -gu</w>
Ten ji</w>
Tak asaki</w>
Tad amune</w>
TO R
T al
Sor in</w>
So en</w>
Shu ei</w>
Shige uji</w>
Sch ools</w>
Sad afusa</w>
SU E</w>
SE KI</w>
SA NO</w>
O GATA</w>
Nobum ori</w>
Nobu hiro</w>
N em
Mur asak
Ki yoshi</w>
Kaz um
KAWA KAMI</w>
Jushi i</w>
Hyo bu</w>
Hid enaga</w>
H ab
Gi en</w>
For est</w>
Design ated</w>
Dai an-ji</w>
Chusho jima</w>
Chi kan
Ch ron
20 -
199 0s</w>
196 0s</w>
119 0</w>
vangu ard</w>
ure i</w>
un ifying</w>
ub an</w>
st aged</w>
sh rimp</w>
research er</w>
read ers</w>
p in</w>
overn ight</w>
otsu ki</w>
oshi ro</w>
om el
okan pu</w>
o cho</w>
n irvana</w>
min al</w>
m ud
list en</w>
kot ai
iy aku</w>
instr umental</w>
in ent</w>
i hisa</w>
hol ders</w>
h aku
governor- general</w>
fe wer</w>
farm land</w>
fac ilit
ener gy</w>
e- gun</w>
cul t</w>
cr uc
con stituted</w>
compos er</w>
clim bed</w>
canc elled</w>
bre ad</w>
brav ely</w>
bar on</w>
art isans</w>
ant erns</w>
ag ree</w>
Yo zei</w>
YA GI</w>
Y outh</w>
Uchi wa</w>
Tr av
Tei mei</w>
Tao ist</w>
Shor en-in</w>
Sat omi</w>
San b
S qu
S oh
S ing
S ay
Rom an</w>
Revol ution</w>
Rep airs</w>
P os
Nin omaru</w>
Nether lands</w>
Nar imasa</w>
Masat sune</w>
MATSU DA</w>
MA RU
L ong
KAWA I</w>
K imono</w>
Hiro shige</w>
H ear
Gen ro
Fu yo</w>
Ex it</w>
Ev entually</w>
Enshrin ed</w>
De ity</w>
DO I</w>
Bunroku- Keicho</w>
Ak asaka</w>
198 0s</w>
186 1</w>
z es</w>
wa ited</w>
ver sed</w>
v ending</w>
univer se</w>
un ity</w>
t ated</w>
stuff s</w>
store house</w>
sol ve</w>
shin tai</w>
sh an</w>
sen ji</w>
sal vation</w>
s ory</w>
s awa</w>
retain ing</w>
rec ap
re ed</w>
prog ressed</w>
profess ion</w>
pro found</w>
pri marily</w>
present ing</w>
pp ers</w>
pan els</w>
p in
os ei
ori ented</w>
oppon ents</w>
on do</w>
o e-
nak ed</w>
mak ers</w>
m atsu
ligh tly</w>
lif est
lib eral</w>
less ons</w>
l ot
ins ist</w>
in jo</w>
impris oned</w>
if ies</w>
g isho</w>
flo ats</w>
f arewell</w>
exerc ised</w>
en z
el y-
ek age</w>
ei han</w>
dec lining</w>
contain ers</w>
compens ation</w>
comm ents</w>
brilli ant</w>
att a</w>
ar r
ai- sha</w>
ad ai</w>
ab utsu</w>
a shore</w>
a forem
Yasun ori</w>
W he
U tsu
Taka oka</w>
T ro
Str uc
Shin jo</w>
Sad amori</w>
SHI RA
S oma</w>
Prof essor</w>
Nishi kyo
Mitsub ishi</w>
Masat omo</w>
Mar ket</w>
M akura</w>
Konpar u</w>
Koku zo</w>
Kawag oe</w>
KA MA
K o-
K ind
J oshi</w>
J -
HA CHI
Gin za</w>
F le
Educ ational</w>
Be auty</w>
B amboo</w>
An al
A oyama</w>
yor ishiro</w>
y easts</w>
y early</w>
ur akami</w>
un an</w>
ul ate</w>
ud ai
tutel ary</w>
ti ers</w>
threat ened</w>
suppor ter</w>
sugg estion</w>
si l</w>
sen ke</w>
scrip ts</w>
sak aya</w>
ryok e</w>
ro man
re placing</w>
rad io</w>
prote in</w>
pedig ree</w>
particip ating</w>
ordin arily</w>
ong o</w>
nag inata</w>
mod els</w>
mission aries</w>
kai kan</w>
is ition</w>
imp licated</w>
ig un</w>
ident ity</w>
gradu ating</w>
gr ams</w>
g ata</w>
ex erted</w>
evol ved</w>
escap ing</w>
eri b
ent om
di men
di et</w>
del ayed</w>
cre am</w>
consum ers</w>
con dem
complet ing</w>
coll abor
bo ar</w>
auth ors</w>
att aining</w>
ar ship</w>
ann ually</w>
ag e-
aforem entioned</w>
acquain ted</w>
ack et</w>
ab uchi</w>
YOSHI MURA</w>
YAMASHI NA</w>
Writ ten</w>
Ume koji</w>
Uj isato</w>
Toshi aki</w>
Ton eri</w>
Tok yo-
TAKI GAWA</w>
TAKE UCHI</w>
T achi</w>
Sil k</w>
Sei kan
San -
SHIM OTSU
Offic er</w>
O no-
Mun etada</w>
Mot oharu</w>
Michi kane</w>
Kiz oku</w>
K oku</w>
Inar i-jinja</w>
INU KAI</w>
Hyo bukyo</w>
Hak one</w>
Gom urakami</w>
Go i</w>
Gan jin</w>
G eki</w>
Fuku zawa</w>
Ex p
E mon
Den to</w>
Dai butsu-
B ug
B ot
B ifuk
Ass emb
7 37</w>
185 5</w>
159 6</w>
157 4</w>
157 1</w>
-- -</w>
where abouts</w>
ut ely</w>
us eki</w>
t sum
st ol
spear head</w>
sm en</w>
scrip ture</w>
sc and
s izes</w>
requ ire</w>
rein forcement</w>
prec eding</w>
pre mise</w>
p ath
p ages</w>
oz aemon</w>
om i-
off ensive</w>
oc top
min im
log y</w>
li e</w>
lad y-
inf antry</w>
in sei</w>
imp eri
im onin</w>
i ously</w>
hig ashi</w>
harv ested</w>
ha ori</w>
gr ace</w>
fro zen</w>
fl esh</w>
fin ishing</w>
far ce</w>
eng i</w>
en a</w>
distinc t</w>
dispat ching</w>
declar ation</w>
dai shi</w>
cor ners</w>
conver sation</w>
c ad
c abb
bureaucr acy</w>
bar ley</w>
al ize</w>
ai- no-
Yasum asa</w>
Y agi</w>
WA TA</w>
W al
U l
U e</w>
U chim
U TAGAWA</w>
Tsun a</w>
Tak aie</w>
Shizug atake</w>
Senn yu-ji</w>
S our
Norit sune</w>
Nint oku</w>
Ni in
Mitsu i</w>
Mis hima</w>
MATSU KATA</w>
Let ter</w>
Kong obu
Koku jin</w>
KO KU
K anda</w>
Jisho- Juei</w>
Ise- Heishi</w>
Inf antry</w>
Ichi ro</w>
Hitotsub ashi</w>
Hi ei
Gen shin</w>
Ex peri
Charact eri
Aki hito</w>
Advis er</w>
3 9
16 16</w>
158 1</w>
10 3</w>
' m</w>
withdraw al</w>
wat ched</w>
war ships</w>
wan ese</w>
un iqu
toil et</w>
t oro</w>
t ato</w>
t as
sweet ened</w>
storytell ers</w>
ste wards</w>
ste ad
sol ution</w>
sil ent</w>
short -
sen -
sei -
s ado</w>
pul ling</w>
per mit</w>
p o-
oper ates</w>
on ica</w>
ok it
ok a-jo</w>
ob serve</w>
o ly</w>
nyo bo</w>
mon archy</w>
ji- cho</w>
ishi tsu</w>
inv itation</w>
horizon tally</w>
ho on</w>
hel met</w>
h at</w>
gl ob
for get</w>
fl ight</w>
en r
ec ture</w>
di esel</w>
deb ts</w>
dai -
civil ian</w>
anal ysis</w>
alco ve</w>
aff ection</w>
U d
Tsu shinshi</w>
Tai wanese</w>
TOR II</w>
T ow
T ai</w>
Shin suke</w>
Shim o</w>
Sas ayama</w>
Sar ut
Samurai- dokoro</w>
S ama</w>
Reg iment</w>
OKA DA</w>
Nyo irin</w>
Nobum itsu</w>
Nagoy a-jo</w>
Nag ara</w>
Miyas udokoro</w>
Masak azu</w>
Mai bara</w>
Kyo tango</w>
Kiy osu</w>
Kinug asa</w>
Kaw asaki</w>
K es
J ugo</w>
Ik en
IMA DE
IMADE GAWA</w>
Hum an</w>
Horik awa-dori</w>
Ho in</w>
Hid eo</w>
Hi yoshi</w>
Hei jo</w>
Hai ku</w>
H ong</w>
H OT
Gaku en</w>
G en</w>
Fur u
E very</w>
